{
  "version": "1.0",
  "truncation": null,
  "padding": null,
  "added_tokens": [
    {
      "id": 0,
      "content": "<s>",
      "single_word": false,
      "lstrip": false,
      "rstrip": false,
      "normalized": false,
      "special": true
    },
    {
      "id": 1,
      "content": "<pad>",
      "single_word": false,
      "lstrip": false,
      "rstrip": false,
      "normalized": false,
      "special": true
    },
    {
      "id": 2,
      "content": "</s>",
      "single_word": false,
      "lstrip": false,
      "rstrip": false,
      "normalized": false,
      "special": true
    },
    {
      "id": 3,
      "content": "<unk>",
      "single_word": false,
      "lstrip": false,
      "rstrip": false,
      "normalized": false,
      "special": true
    },
    {
      "id": 4,
      "content": "<mask>",
      "single_word": false,
      "lstrip": true,
      "rstrip": false,
      "normalized": false,
      "special": true
    }
  ],
  "normalizer": null,
  "pre_tokenizer": {
    "type": "ByteLevel",
    "add_prefix_space": false,
    "trim_offsets": true,
    "use_regex": true
  },
  "post_processor": {
    "type": "RobertaProcessing",
    "sep": [
      "</s>",
      2
    ],
    "cls": [
      "<s>",
      0
    ],
    "trim_offsets": true,
    "add_prefix_space": false
  },
  "decoder": {
    "type": "ByteLevel",
    "add_prefix_space": true,
    "trim_offsets": true,
    "use_regex": true
  },
  "model": {
    "type": "BPE",
    "dropout": null,
    "unk_token": null,
    "continuing_subword_prefix": "",
    "end_of_word_suffix": "",
    "fuse_unk": false,
    "byte_fallback": false,
    "vocab": {
      "<s>": 0,
      "<pad>": 1,
      "</s>": 2,
      "<unk>": 3,
      "<mask>": 4,
      "!": 5,
      "\"": 6,
      "#": 7,
      "$": 8,
      "%": 9,
      "&": 10,
      "'": 11,
      "(": 12,
      ")": 13,
      "*": 14,
      "+": 15,
      ",": 16,
      "-": 17,
      ".": 18,
      "/": 19,
      "0": 20,
      "1": 21,
      "2": 22,
      "3": 23,
      "4": 24,
      "5": 25,
      "6": 26,
      "7": 27,
      "8": 28,
      "9": 29,
      ":": 30,
      ";": 31,
      "<": 32,
      "=": 33,
      ">": 34,
      "?": 35,
      "@": 36,
      "A": 37,
      "B": 38,
      "C": 39,
      "D": 40,
      "E": 41,
      "F": 42,
      "G": 43,
      "H": 44,
      "I": 45,
      "J": 46,
      "K": 47,
      "L": 48,
      "M": 49,
      "N": 50,
      "O": 51,
      "P": 52,
      "Q": 53,
      "R": 54,
      "S": 55,
      "T": 56,
      "U": 57,
      "V": 58,
      "W": 59,
      "X": 60,
      "Y": 61,
      "Z": 62,
      "[": 63,
      "\\": 64,
      "]": 65,
      "^": 66,
      "_": 67,
      "`": 68,
      "a": 69,
      "b": 70,
      "c": 71,
      "d": 72,
      "e": 73,
      "f": 74,
      "g": 75,
      "h": 76,
      "i": 77,
      "j": 78,
      "k": 79,
      "l": 80,
      "m": 81,
      "n": 82,
      "o": 83,
      "p": 84,
      "q": 85,
      "r": 86,
      "s": 87,
      "t": 88,
      "u": 89,
      "v": 90,
      "w": 91,
      "x": 92,
      "y": 93,
      "z": 94,
      "{": 95,
      "|": 96,
      "}": 97,
      "~": 98,
      "¡": 99,
      "¢": 100,
      "£": 101,
      "¤": 102,
      "¥": 103,
      "¦": 104,
      "§": 105,
      "¨": 106,
      "©": 107,
      "ª": 108,
      "«": 109,
      "¬": 110,
      "®": 111,
      "¯": 112,
      "°": 113,
      "±": 114,
      "²": 115,
      "³": 116,
      "´": 117,
      "µ": 118,
      "¶": 119,
      "·": 120,
      "¸": 121,
      "¹": 122,
      "º": 123,
      "»": 124,
      "¼": 125,
      "½": 126,
      "¾": 127,
      "¿": 128,
      "À": 129,
      "Á": 130,
      "Â": 131,
      "Ã": 132,
      "Ä": 133,
      "Å": 134,
      "Æ": 135,
      "Ç": 136,
      "È": 137,
      "É": 138,
      "Ê": 139,
      "Ë": 140,
      "Ì": 141,
      "Í": 142,
      "Î": 143,
      "Ï": 144,
      "Ð": 145,
      "Ñ": 146,
      "Ò": 147,
      "Ó": 148,
      "Ô": 149,
      "Õ": 150,
      "Ö": 151,
      "×": 152,
      "Ø": 153,
      "Ù": 154,
      "Ú": 155,
      "Û": 156,
      "Ü": 157,
      "Ý": 158,
      "Þ": 159,
      "ß": 160,
      "à": 161,
      "á": 162,
      "â": 163,
      "ã": 164,
      "ä": 165,
      "å": 166,
      "æ": 167,
      "ç": 168,
      "è": 169,
      "é": 170,
      "ê": 171,
      "ë": 172,
      "ì": 173,
      "í": 174,
      "î": 175,
      "ï": 176,
      "ð": 177,
      "ñ": 178,
      "ò": 179,
      "ó": 180,
      "ô": 181,
      "õ": 182,
      "ö": 183,
      "÷": 184,
      "ø": 185,
      "ù": 186,
      "ú": 187,
      "û": 188,
      "ü": 189,
      "ý": 190,
      "þ": 191,
      "ÿ": 192,
      "Ā": 193,
      "ā": 194,
      "Ă": 195,
      "ă": 196,
      "Ą": 197,
      "ą": 198,
      "Ć": 199,
      "ć": 200,
      "Ĉ": 201,
      "ĉ": 202,
      "Ċ": 203,
      "ċ": 204,
      "Č": 205,
      "č": 206,
      "Ď": 207,
      "ď": 208,
      "Đ": 209,
      "đ": 210,
      "Ē": 211,
      "ē": 212,
      "Ĕ": 213,
      "ĕ": 214,
      "Ė": 215,
      "ė": 216,
      "Ę": 217,
      "ę": 218,
      "Ě": 219,
      "ě": 220,
      "Ĝ": 221,
      "ĝ": 222,
      "Ğ": 223,
      "ğ": 224,
      "Ġ": 225,
      "ġ": 226,
      "Ģ": 227,
      "ģ": 228,
      "Ĥ": 229,
      "ĥ": 230,
      "Ħ": 231,
      "ħ": 232,
      "Ĩ": 233,
      "ĩ": 234,
      "Ī": 235,
      "ī": 236,
      "Ĭ": 237,
      "ĭ": 238,
      "Į": 239,
      "į": 240,
      "İ": 241,
      "ı": 242,
      "Ĳ": 243,
      "ĳ": 244,
      "Ĵ": 245,
      "ĵ": 246,
      "Ķ": 247,
      "ķ": 248,
      "ĸ": 249,
      "Ĺ": 250,
      "ĺ": 251,
      "Ļ": 252,
      "ļ": 253,
      "Ľ": 254,
      "ľ": 255,
      "Ŀ": 256,
      "ŀ": 257,
      "Ł": 258,
      "ł": 259,
      "Ń": 260,
      "er": 261,
      "en": 262,
      "in": 263,
      "Ġa": 264,
      "ch": 265,
      "Ġt": 266,
      "Ġd": 267,
      "es": 268,
      "Ġs": 269,
      "on": 270,
      "nd": 271,
      "it": 272,
      "Ġw": 273,
      "Ġth": 274,
      "or": 275,
      "is": 276,
      "at": 277,
      "ie": 278,
      "re": 279,
      "an": 280,
      "Ġb": 281,
      "Ġm": 282,
      "al": 283,
      "ar": 284,
      "Ġthe": 285,
      "Ġf": 286,
      "as": 287,
      "le": 288,
      "Ġo": 289,
      "un": 290,
      "ĠS": 291,
      "Ġh": 292,
      "ing": 293,
      "te": 294,
      "Ġin": 295,
      "Ġe": 296,
      "ich": 297,
      "Ġp": 298,
      "Ġc": 299,
      "us": 300,
      "ur": 301,
      "ge": 302,
      "ro": 303,
      "ll": 304,
      "Ġn": 305,
      "und": 306,
      "ĠA": 307,
      "Ġto": 308,
      "ed": 309,
      "ti": 310,
      "Ã¼": 311,
      "Ġand": 312,
      "Ġv": 313,
      "Ġof": 314,
      "ĠB": 315,
      "om": 316,
      "el": 317,
      "st": 318,
      "ent": 319,
      "ĠM": 320,
      "Ġg": 321,
      "ĠT": 322,
      "ĠD": 323,
      "ĠI": 324,
      "Ã¤": 325,
      "ut": 326,
      "ung": 327,
      "Ġund": 328,
      "et": 329,
      "ic": 330,
      "ig": 331,
      "ra": 332,
      "ion": 333,
      "Ġl": 334,
      "ĠP": 335,
      "ter": 336,
      "Ġis": 337,
      "Ġein": 338,
      "il": 339,
      "Ġbe": 340,
      "im": 341,
      "ĠF": 342,
      "Ġder": 343,
      "ir": 344,
      "Ġdie": 345,
      "ĠW": 346,
      "ĠE": 347,
      "Ġz": 348,
      "em": 349,
      "ĠG": 350,
      "ĠC": 351,
      "Ġk": 352,
      "am": 353,
      "ten": 354,
      "ol": 355,
      "ers": 356,
      "id": 357,
      "ou": 358,
      "ĠH": 359,
      "hr": 360,
      "Ġy": 361,
      "um": 362,
      "ĠK": 363,
      "eit": 364,
      "uf": 365,
      "ĠR": 366,
      "Ġre": 367,
      "ve": 368,
      "ĠL": 369,
      "ot": 370,
      "Ġan": 371,
      "ad": 372,
      "ow": 373,
      "ab": 374,
      "Ã¶": 375,
      "ck": 376,
      "ber": 377,
      "he": 378,
      "ach": 379,
      "ation": 380,
      "Ġ2": 381,
      "Ġfor": 382,
      "and": 383,
      "ay": 384,
      "Ġon": 385,
      "end": 386,
      "Ġ1": 387,
      "âĢ": 388,
      "ess": 389,
      "ly": 390,
      "lich": 391,
      "uch": 392,
      "ĠN": 393,
      "sch": 394,
      "der": 395,
      "ein": 396,
      "ce": 397,
      "os": 398,
      "ĠV": 399,
      "Ã¼r": 400,
      "Ġge": 401,
      "ver": 402,
      "ies": 403,
      "ier": 404,
      "ts": 405,
      "Ġ(": 406,
      "Ġst": 407,
      "ith": 408,
      "gen": 409,
      "Ġdas": 410,
      "ere": 411,
      "Ġal": 412,
      "Ġthat": 413,
      "Ġwh": 414,
      "Ġzu": 415,
      "ind": 416,
      "ul": 417,
      "our": 418,
      "ec": 419,
      "est": 420,
      "Ġr": 421,
      "Ġden": 422,
      "Ġwith": 423,
      "tion": 424,
      "ĠU": 425,
      "Ġyou": 426,
      "Ġim": 427,
      "pp": 428,
      "th": 429,
      "Ġun": 430,
      "Ġmit": 431,
      "icht": 432,
      "if": 433,
      "Ġpro": 434,
      "ĠJ": 435,
      "Ġit": 436,
      "ĠO": 437,
      "ill": 438,
      "ag": 439,
      "ak": 440,
      "Ġvon": 441,
      "od": 442,
      "Ġist": 443,
      "Ġer": 444,
      "ann": 445,
      "op": 446,
      "Ġso": 447,
      "Ġauf": 448,
      "Ġ20": 449,
      "Ġwe": 450,
      "Ġas": 451,
      "isch": 452,
      "Ġj": 453,
      "ĠfÃ¼r": 454,
      "den": 455,
      "Ġne": 456,
      "ĠSt": 457,
      "ÃŁ": 458,
      "Ġare": 459,
      "ate": 460,
      "ne": 461,
      "Ġver": 462,
      "ik": 463,
      "ĠIn": 464,
      "ht": 465,
      "..": 466,
      "iv": 467,
      "ĠZ": 468,
      "ine": 469,
      "Ġcon": 470,
      "ass": 471,
      "ort": 472,
      "Ġse": 473,
      "la": 474,
      "Ġor": 475,
      "all": 476,
      "ff": 477,
      "ib": 478,
      "qu": 479,
      "ist": 480,
      "Ġcom": 481,
      "Ġha": 482,
      "iel": 483,
      "ct": 484,
      "Ġ-": 485,
      "up": 486,
      "we": 487,
      "ĠâĢ": 488,
      "nen": 489,
      "Ġdes": 490,
      "de": 491,
      "Ġ\"": 492,
      "Ġsch": 493,
      "Ġex": 494,
      "Ġat": 495,
      "ment": 496,
      "ok": 497,
      "Ġle": 498,
      "Ġab": 499,
      "ah": 500,
      "ien": 501,
      "ug": 502,
      "Ġwas": 503,
      "Ġsich": 504,
      "00": 505,
      "ust": 506,
      "'s": 507,
      "Ġwir": 508,
      "Ġals": 509,
      "men": 510,
      "och": 511,
      "ĠSch": 512,
      "ld": 513,
      "Ġnicht": 514,
      "rom": 515,
      "Ġsp": 516,
      "ben": 517,
      "for": 518,
      "ity": 519,
      "Ġyour": 520,
      "ĠThe": 521,
      "ĠAn": 522,
      "ost": 523,
      "Ġde": 524,
      "Ġes": 525,
      "ant": 526,
      "Ġaus": 527,
      "Ġch": 528,
      "ĠSie": 529,
      "Ġme": 530,
      "og": 531,
      "ste": 532,
      "Ġeine": 533,
      "art": 534,
      "Ġall": 535,
      "mer": 536,
      "ub": 537,
      "age": 538,
      "kt": 539,
      "Ġhe": 540,
      "Ġdem": 541,
      "Ġauch": 542,
      "iz": 543,
      "aus": 544,
      "Ġhave": 545,
      "ungen": 546,
      "ap": 547,
      "ft": 548,
      "ain": 549,
      "ted": 550,
      "ud": 551,
      "ĠRe": 552,
      "ome": 553,
      "ip": 554,
      "Ġthis": 555,
      "Ġman": 556,
      "ard": 557,
      "Ġus": 558,
      "ive": 559,
      "her": 560,
      "ure": 561,
      "ĠVer": 562,
      "ahr": 563,
      "Ġby": 564,
      "Ġfrom": 565,
      "se": 566,
      "sp": 567,
      "ore": 568,
      "Ġwill": 569,
      "ĠSp": 570,
      "Ġcan": 571,
      "Ġsh": 572,
      "ial": 573,
      "ide": 574,
      "ĠTh": 575,
      "fer": 576,
      "out": 577,
      "Ġi": 578,
      "Ġwer": 579,
      "Ã¼ber": 580,
      "ick": 581,
      "hen": 582,
      "ĠBe": 583,
      "Ġ201": 584,
      "Ġdies": 585,
      "Ġnot": 586,
      "ue": 587,
      "ast": 588,
      "Ġ3": 589,
      "du": 590,
      "ang": 591,
      "ook": 592,
      "Ġam": 593,
      "Ġwor": 594,
      "ert": 595,
      "Ġwie": 596,
      "ze": 597,
      "ern": 598,
      "are": 599,
      "enn": 600,
      "ĠPro": 601,
      "ran": 602,
      "be": 603,
      "esch": 604,
      "ark": 605,
      "ack": 606,
      "au": 607,
      "Ġoder": 608,
      "ould": 609,
      "ight": 610,
      "ear": 611,
      "oll": 612,
      "ru": 613,
      "hl": 614,
      "Ġwerden": 615,
      "ungs": 616,
      "Ã¶n": 617,
      "ĠÃ¼ber": 618,
      "ĠâĢĵ": 619,
      "tig": 620,
      "Ġum": 621,
      "ac": 622,
      "Ġich": 623,
      "sen": 624,
      "Ġsind": 625,
      "Ġhab": 626,
      "Ġbei": 627,
      "ĠWe": 628,
      "ally": 629,
      "Ġhat": 630,
      "ous": 631,
      "Ġdo": 632,
      "urch": 633,
      "one": 634,
      "ĠUn": 635,
      "Ġen": 636,
      "igen": 637,
      "lo": 638,
      "Ġuns": 639,
      "ia": 640,
      "ite": 641,
      "20": 642,
      "ĠEr": 643,
      "ice": 644,
      "Ġac": 645,
      "ew": 646,
      "Ġpr": 647,
      "ire": 648,
      "Ġsein": 649,
      "ĠDie": 650,
      "form": 651,
      "tic": 652,
      "Ġcomp": 653,
      "Ġgo": 654,
      "etz": 655,
      "ign": 656,
      "per": 657,
      "Ġvor": 658,
      "Ġpl": 659,
      "ry": 660,
      "Ġad": 661,
      "me": 662,
      "able": 663,
      "ise": 664,
      "Ġte": 665,
      "ile": 666,
      "Ġnach": 667,
      "Ġdass": 668,
      "hal": 669,
      "oc": 670,
      "Ġhas": 671,
      "tern": 672,
      "ĠAr": 673,
      "ake": 674,
      "Ġsie": 675,
      "ail": 676,
      "pr": 677,
      "ov": 678,
      "hn": 679,
      "Ġent": 680,
      "ild": 681,
      "erv": 682,
      "ger": 683,
      "ischen": 684,
      "tz": 685,
      "Ġwar": 686,
      "Ġbut": 687,
      "âĢĻ": 688,
      "ition": 689,
      "ĠLe": 690,
      "Ġout": 691,
      "ob": 692,
      "Ġwird": 693,
      "ink": 694,
      "av": 695,
      "Ġup": 696,
      "ated": 697,
      "oun": 698,
      "Ġ4": 699,
      "ens": 700,
      "Ġres": 701,
      "tel": 702,
      "Ġ5": 703,
      "ther": 704,
      "ner": 705,
      "tell": 706,
      "ĠY": 707,
      "Ġmore": 708,
      "rit": 709,
      "The": 710,
      "uss": 711,
      "Ġeinen": 712,
      "Ġthey": 713,
      "...": 714,
      "ong": 715,
      "ĠEin": 716,
      "auf": 717,
      "ose": 718,
      "ese": 719,
      "mp": 720,
      "Ġtheir": 721,
      "rie": 722,
      "ĠDe": 723,
      "ame": 724,
      "Ġper": 725,
      "ations": 726,
      "ont": 727,
      "ings": 728,
      "ance": 729,
      "Ġkann": 730,
      "ank": 731,
      "ĠTe": 732,
      "ord": 733,
      "ĠkÃ¶n": 734,
      "ren": 735,
      "chen": 736,
      "Ġalso": 737,
      "pl": 738,
      "beit": 739,
      "af": 740,
      "Ġmy": 741,
      "ĠCh": 742,
      "ents": 743,
      "ime": 744,
      "ven": 745,
      "Ġone": 746,
      "rÃ¼": 747,
      "ase": 748,
      "Ġzum": 749,
      "Ġeiner": 750,
      "ish": 751,
      "Ġqu": 752,
      "Ġour": 753,
      "line": 754,
      "ek": 755,
      "ary": 756,
      "ect": 757,
      "Ġbes": 758,
      "ike": 759,
      "reat": 760,
      "Ġro": 761,
      "Ġeinem": 762,
      "ĠAl": 763,
      "to": 764,
      "Ġabout": 765,
      "tra": 766,
      "Ã¤n": 767,
      "omm": 768,
      "wer": 769,
      "Ġgro": 770,
      "Ġapp": 771,
      "Ġher": 772,
      "ss": 773,
      "tet": 774,
      "iert": 775,
      "Ġhaben": 776,
      "ahl": 777,
      "Ġcl": 778,
      "Ġnoch": 779,
      "igh": 780,
      "Ġzur": 781,
      "own": 782,
      "ond": 783,
      "Ġwork": 784,
      "ction": 785,
      "ep": 786,
      "Ġunter": 787,
      "Ġinc": 788,
      "Ġwhich": 789,
      "ater": 790,
      "ree": 791,
      "vel": 792,
      "Ã¤nd": 793,
      "keit": 794,
      "Ġnur": 795,
      "anz": 796,
      "'t": 797,
      "Ġget": 798,
      "Ġtra": 799,
      "tw": 800,
      "Ġdurch": 801,
      "eine": 802,
      "che": 803,
      "enden": 804,
      "Ã¶r": 805,
      "ige": 806,
      "Ġ19": 807,
      "ays": 808,
      "ĠGe": 809,
      "Ġar": 810,
      "eren": 811,
      "fÃ¼": 812,
      "lie": 813,
      "bs": 814,
      "Ġ|": 815,
      "ors": 816,
      "tim": 817,
      "Ã¤t": 818,
      "Ġcont": 819,
      "glich": 820,
      "utz": 821,
      "Ġsome": 822,
      "Ġgen": 823,
      "ute": 824,
      "ische": 825,
      "ĠHe": 826,
      "geb": 827,
      "Ġfind": 828,
      "gel": 829,
      "ms": 830,
      "ans": 831,
      "Ġaber": 832,
      "ĠkÃ¶nnen": 833,
      "ĠEn": 834,
      "land": 835,
      "ges": 836,
      "Ã¤r": 837,
      "hre": 838,
      "ĠAus": 839,
      "als": 840,
      "Ġfe": 841,
      "Ġwho": 842,
      "Ġmehr": 843,
      "Ġtime": 844,
      "elt": 845,
      "Ġany": 846,
      "gt": 847,
      "Ã¼ck": 848,
      "Ġhis": 849,
      "chn": 850,
      "aten": 851,
      "Ġoff": 852,
      "ĠÃ": 853,
      "az": 854,
      "Ġvers": 855,
      "In": 856,
      "Ġbet": 857,
      "ĠIt": 858,
      "ieren": 859,
      ").": 860,
      "wo": 861,
      "aft": 862,
      "ons": 863,
      "Ġnew": 864,
      "sten": 865,
      "Ġ6": 866,
      "Ġyear": 867,
      "Ġkn": 868,
      "Ġste": 869,
      "llen": 870,
      "ical": 871,
      "Ġwur": 872,
      "act": 873,
      "cht": 874,
      "Ġ&": 875,
      "Ġbis": 876,
      "ade": 877,
      "ress": 878,
      "amp": 879,
      "Ġpre": 880,
      "ult": 881,
      "Ġsu": 882,
      "ĠMit": 883,
      "Ġhel": 884,
      "Ġ0": 885,
      "atz": 886,
      "ende": 887,
      "cess": 888,
      "Die": 889,
      "ual": 890,
      "utsch": 891,
      "ount": 892,
      "iss": 893,
      "Ġsa": 894,
      "ĠAb": 895,
      "lichen": 896,
      "ph": 897,
      "ram": 898,
      "Ġthere": 899,
      "heit": 900,
      "tions": 901,
      "Ġjed": 902,
      "led": 903,
      "com": 904,
      "Ġno": 905,
      "Ġif": 906,
      "Ã¼n": 907,
      "ri": 908,
      "erson": 909,
      "les": 910,
      "Ġweit": 911,
      "liche": 912,
      "Ġwhen": 913,
      "ale": 914,
      "fe": 915,
      "Ġother": 916,
      "Ġlike": 917,
      "ĠFor": 918,
      "oin": 919,
      "Ġneed": 920,
      "Ġdis": 921,
      "ĠDas": 922,
      "ibt": 923,
      "rÃ¤": 924,
      "ugh": 925,
      "Ġalle": 926,
      "Ġbeen": 927,
      "ely": 928,
      "Ġrec": 929,
      "mit": 930,
      "Ġag": 931,
      "very": 932,
      "Ġihr": 933,
      "ĠJahr": 934,
      "fl": 935,
      "Ġpe": 936,
      "tiv": 937,
      "yste": 938,
      "old": 939,
      "Ġwhat": 940,
      "Ġover": 941,
      "Ġwould": 942,
      "iew": 943,
      "ĠAuf": 944,
      "atur": 945,
      "ory": 946,
      "ommen": 947,
      "ian": 948,
      "Ġ10": 949,
      "ke": 950,
      "oug": 951,
      "Ġthem": 952,
      "gan": 953,
      "ble": 954,
      "ĠPl": 955,
      "Ġimp": 956,
      "assen": 957,
      "ange": 958,
      "ĠSo": 959,
      "ĠÂ": 960,
      "Ġinter": 961,
      "ces": 962,
      "iele": 963,
      "Ġ7": 964,
      "olog": 965,
      "ĠVor": 966,
      "att": 967,
      "Ġop": 968,
      "Ġhad": 969,
      "fen": 970,
      "Ġwere": 971,
      "olle": 972,
      "Ġhow": 973,
      "iden": 974,
      "Ã¤hr": 975,
      "ause": 976,
      "ĠDer": 977,
      "Ġmach": 978,
      "ool": 979,
      "ting": 980,
      "ace": 981,
      "formation": 982,
      "Ġits": 983,
      "Ġjust": 984,
      "red": 985,
      "bar": 986,
      "Ġsc": 987,
      "inn": 988,
      "),": 989,
      "ys": 990,
      "Ġ8": 991,
      "ĠUnter": 992,
      "ople": 993,
      "Ġwenn": 994,
      "leich": 995,
      "Ġind": 996,
      "neh": 997,
      "alt": 998,
      "unden": 999,
      "io": 1000,
      "ring": 1001,
      "Th": 1002,
      "irst": 1003,
      "los": 1004,
      "ler": 1005,
      "ating": 1006,
      "duc": 1007,
      "ates": 1008,
      "ied": 1009,
      "reich": 1010,
      "mal": 1011,
      "Ġviel": 1012,
      "schaft": 1013,
      "Ġinto": 1014,
      "wn": 1015,
      "Ã¶glich": 1016,
      "Ġsoll": 1017,
      "Ġ200": 1018,
      "Ġmay": 1019,
      "etzt": 1020,
      "unk": 1021,
      "fter": 1022,
      "ÂŃ": 1023,
      "ath": 1024,
      "abe": 1025,
      "erm": 1026,
      "dern": 1027,
      "tive": 1028,
      "fahr": 1029,
      "eld": 1030,
      "gr": 1031,
      "Ġpar": 1032,
      "lin": 1033,
      "ĠThis": 1034,
      "ull": 1035,
      "ock": 1036,
      "Ġhelp": 1037,
      "Ġthan": 1038,
      "Ġra": 1039,
      "omp": 1040,
      "ood": 1041,
      "ell": 1042,
      "eth": 1043,
      "uen": 1044,
      "Ġ9": 1045,
      "Ġber": 1046,
      "ÃŁen": 1047,
      "lic": 1048,
      "ĠQ": 1049,
      "Ġins": 1050,
      "yp": 1051,
      "Ġprov": 1052,
      "zeit": 1053,
      "Ġdann": 1054,
      "Ġpeople": 1055,
      "Ġges": 1056,
      "teil": 1057,
      "Ġuse": 1058,
      "Ġtr": 1059,
      "dition": 1060,
      "Ġdar": 1061,
      "ider": 1062,
      "Ġbec": 1063,
      "201": 1064,
      "xt": 1065,
      "Ġmake": 1066,
      "amil": 1067,
      "ful": 1068,
      "ork": 1069,
      "ove": 1070,
      "urn": 1071,
      "Ġsehr": 1072,
      "ĠNe": 1073,
      "bst": 1074,
      "ĠMar": 1075,
      "Ã¤l": 1076,
      "ken": 1077,
      "ational": 1078,
      "ious": 1079,
      "Ġpos": 1080,
      "Ġda": 1081,
      "ino": 1082,
      "Ġthro": 1083,
      "Ġserv": 1084,
      "Ġwurde": 1085,
      "ĠBer": 1086,
      "Ġmost": 1087,
      ".\"": 1088,
      "ĠBl": 1089,
      "nis": 1090,
      "tt": 1091,
      "Ġwell": 1092,
      "Ġknow": 1093,
      "off": 1094,
      "ĠOn": 1095,
      "oth": 1096,
      "Ġcons": 1097,
      "Ġlook": 1098,
      "Ġwieder": 1099,
      "Ã¤ch": 1100,
      "ĠOr": 1101,
      "zen": 1102,
      "ember": 1103,
      "Ġexp": 1104,
      "reis": 1105,
      "Ġreg": 1106,
      "iness": 1107,
      "ĠZeit": 1108,
      "Ġdu": 1109,
      "ĠGr": 1110,
      "Ġsel": 1111,
      "ĠSh": 1112,
      "Ġzw": 1113,
      "Ġonly": 1114,
      "Ġhier": 1115,
      "Ġincl": 1116,
      "ĠSe": 1117,
      "Ġlie": 1118,
      "Ġbest": 1119,
      "Ġfirst": 1120,
      "ĠNach": 1121,
      "rei": 1122,
      "Ġdiese": 1123,
      "ments": 1124,
      "ife": 1125,
      "Ġimmer": 1126,
      "arbeit": 1127,
      "ĠEs": 1128,
      "over": 1129,
      "21": 1130,
      "Ġgibt": 1131,
      "Ġ/": 1132,
      "ister": 1133,
      "anc": 1134,
      "kl": 1135,
      "stand": 1136,
      "Ġsuch": 1137,
      "Ġevery": 1138,
      "Ġrep": 1139,
      "Ġgut": 1140,
      "ww": 1141,
      "ices": 1142,
      "Ġph": 1143,
      "ivers": 1144,
      "Ġdif": 1145,
      "Ġob": 1146,
      "Ġthrough": 1147,
      "Ġonline": 1148,
      "ities": 1149,
      "Ġbu": 1150,
      "ĠWir": 1151,
      "Ġvery": 1152,
      "sh": 1153,
      "Ġschon": 1154,
      "Ġsaid": 1155,
      "10": 1156,
      "Ġback": 1157,
      "ues": 1158,
      "ound": 1159,
      "ĠFl": 1160,
      "fach": 1161,
      "ient": 1162,
      "ĠAnd": 1163,
      "Ġthese": 1164,
      "ystem": 1165,
      "uer": 1166,
      "sel": 1167,
      "ower": 1168,
      "ene": 1169,
      "000": 1170,
      "onn": 1171,
      "ĠFra": 1172,
      "Ġsupp": 1173,
      "usiness": 1174,
      "ĠYou": 1175,
      "ax": 1176,
      "hne": 1177,
      "ric": 1178,
      "âĢ¦": 1179,
      "day": 1180,
      "ÃŁe": 1181,
      "ĠSpiel": 1182,
      "any": 1183,
      "fol": 1184,
      "ough": 1185,
      "iger": 1186,
      "aff": 1187,
      "arket": 1188,
      "aw": 1189,
      "ĠIhr": 1190,
      "ular": 1191,
      "ix": 1192,
      "ĠEur": 1193,
      "ĠEx": 1194,
      "aut": 1195,
      "ĠWh": 1196,
      "schen": 1197,
      "osten": 1198,
      "arn": 1199,
      "Ġunder": 1200,
      "ĠHer": 1201,
      "bur": 1202,
      "inder": 1203,
      "Ġstud": 1204,
      "ins": 1205,
      "ĠNew": 1206,
      "ative": 1207,
      "ster": 1208,
      "ĠMen": 1209,
      "Ġgood": 1210,
      "ersch": 1211,
      "Ġass": 1212,
      "Ġsec": 1213,
      "ash": 1214,
      "Ġgew": 1215,
      "Ġvom": 1216,
      "St": 1217,
      "ĠFe": 1218,
      "Ġunser": 1219,
      "Ġinv": 1220,
      "gram": 1221,
      "ĠPr": 1222,
      "els": 1223,
      "Ġpart": 1224,
      "Ġacc": 1225,
      "fall": 1226,
      "ĠMe": 1227,
      "Ġfin": 1228,
      "ible": 1229,
      "Ġcomm": 1230,
      "Ġplay": 1231,
      "hnen": 1232,
      "ĠTra": 1233,
      "ohn": 1234,
      "uÃŁ": 1235,
      "isten": 1236,
      "Ġmany": 1237,
      "ER": 1238,
      "Ġsow": 1239,
      "ling": 1240,
      "ĠIm": 1241,
      "halten": 1242,
      "Ġhin": 1243,
      "Ġtwo": 1244,
      "ize": 1245,
      "pro": 1246,
      "ital": 1247,
      "Ġcould": 1248,
      "atch": 1249,
      "Ġhand": 1250,
      "ions": 1251,
      "elle": 1252,
      "ats": 1253,
      "oy": 1254,
      "eite": 1255,
      "ience": 1256,
      "itt": 1257,
      "view": 1258,
      "ium": 1259,
      "ichtig": 1260,
      "Ġwel": 1261,
      "tik": 1262,
      "Ġhabe": 1263,
      "Ġev": 1264,
      "Ġshe": 1265,
      "tigen": 1266,
      "Ġeff": 1267,
      "Ġ'": 1268,
      "round": 1269,
      "Ġbel": 1270,
      "Ġgr": 1271,
      "Ġdown": 1272,
      "fore": 1273,
      "Ġway": 1274,
      "aking": 1275,
      "nehmen": 1276,
      "itz": 1277,
      "alk": 1278,
      "Ġdam": 1279,
      "ages": 1280,
      "tif": 1281,
      "Ġger": 1282,
      "Ġsol": 1283,
      "essen": 1284,
      "Ġetw": 1285,
      "air": 1286,
      "Ġmin": 1287,
      "Ġ12": 1288,
      "ĠAd": 1289,
      "Ġdec": 1290,
      "Ġgreat": 1291,
      "ility": 1292,
      "Ġeven": 1293,
      "ĠAll": 1294,
      "Ġafter": 1295,
      "ased": 1296,
      "Ġsee": 1297,
      "Ġyears": 1298,
      "Ġmein": 1299,
      "fÃ¼hr": 1300,
      "Ġmir": 1301,
      "icher": 1302,
      "Ġshould": 1303,
      "its": 1304,
      "Ġfl": 1305,
      "sche": 1306,
      "Ġ15": 1307,
      "An": 1308,
      "ĠGesch": 1309,
      "ward": 1310,
      "Ġrem": 1311,
      "ĠSte": 1312,
      "velop": 1313,
      "ĠDies": 1314,
      "Ġexper": 1315,
      "asino": 1316,
      "Ġrel": 1317,
      "ĠDeutsch": 1318,
      "Ġsm": 1319,
      "Ġdieser": 1320,
      "Ġke": 1321,
      "ĠUm": 1322,
      "rand": 1323,
      "Ġhigh": 1324,
      "alth": 1325,
      "ĠFre": 1326,
      "orn": 1327,
      "Ġpla": 1328,
      "ters": 1329,
      "Ġdire": 1330,
      "ĠMan": 1331,
      "Ġthen": 1332,
      "Ġ18": 1333,
      "ps": 1334,
      "Ġihre": 1335,
      "rans": 1336,
      "itÃ¤t": 1337,
      "Ġdr": 1338,
      "ett": 1339,
      "tige": 1340,
      "Ġnow": 1341,
      "Ġweiter": 1342,
      "arm": 1343,
      "ĠÃľ": 1344,
      "Ġwhere": 1345,
      "Ġbl": 1346,
      "Ġcar": 1347,
      "ĠAm": 1348,
      "Ġmon": 1349,
      "Ġ$": 1350,
      "ows": 1351,
      "adt": 1352,
      "ierung": 1353,
      "Ġgegen": 1354,
      "Ġdiffer": 1355,
      "eln": 1356,
      "ron": 1357,
      "ateg": 1358,
      "Ġperson": 1359,
      "ote": 1360,
      "âĢĿ": 1361,
      "Ġend": 1362,
      "Ġbeg": 1363,
      "pt": 1364,
      "ox": 1365,
      "ĠBes": 1366,
      "wend": 1367,
      "ited": 1368,
      "ĠArbeit": 1369,
      "til": 1370,
      "arge": 1371,
      "piel": 1372,
      "Ġmuch": 1373,
      "rag": 1374,
      "Ġaut": 1375,
      "Ġsub": 1376,
      "Ġbecause": 1377,
      "of": 1378,
      "Ġpol": 1379,
      "19": 1380,
      "ammen": 1381,
      "Ġspec": 1382,
      "Ġread": 1383,
      "ode": 1384,
      "Ġrequ": 1385,
      "ession": 1386,
      "arten": 1387,
      "ement": 1388,
      "Ã¼s": 1389,
      "bl": 1390,
      "Ġele": 1391,
      "Ġemp": 1392,
      "ĠIhre": 1393,
      "Ã¼hr": 1394,
      "Ġkeine": 1395,
      "issen": 1396,
      "dem": 1397,
      "Ġdon": 1398,
      "Ġeinfach": 1399,
      "br": 1400,
      "hand": 1401,
      "ipp": 1402,
      "other": 1403,
      "uring": 1404,
      "ific": 1405,
      "Ġgem": 1406,
      "iet": 1407,
      "Ġwant": 1408,
      "Ġohne": 1409,
      "wei": 1410,
      "Ġganz": 1411,
      "bers": 1412,
      "Ġmed": 1413,
      "cken": 1414,
      "Ġinst": 1415,
      "Ġloc": 1416,
      "ĠAut": 1417,
      "ets": 1418,
      "zu": 1419,
      "Ġgu": 1420,
      "Der": 1421,
      "Ġadd": 1422,
      "Ġstr": 1423,
      "ĠUS": 1424,
      "ĠProdu": 1425,
      "lass": 1426,
      "stell": 1427,
      "otel": 1428,
      "We": 1429,
      "Das": 1430,
      "Ġsim": 1431,
      "Ġbusiness": 1432,
      "Ġwo": 1433,
      "Ġinclud": 1434,
      "ĠIf": 1435,
      "Ġhome": 1436,
      "onder": 1437,
      "Ġthink": 1438,
      "Ġ[": 1439,
      "Ġfre": 1440,
      "tem": 1441,
      "Ġmich": 1442,
      "entr": 1443,
      "vers": 1444,
      "ĠGes": 1445,
      "ĠInd": 1446,
      "usammen": 1447,
      "Ġtake": 1448,
      "Ġmal": 1449,
      "acht": 1450,
      "so": 1451,
      "ĠHand": 1452,
      "ĠMin": 1453,
      "itu": 1454,
      "Ġeines": 1455,
      "ĠPh": 1456,
      "man": 1457,
      "Ġday": 1458,
      "eh": 1459,
      "Ġkein": 1460,
      "Ġsti": 1461,
      "Ġ.": 1462,
      "ĠLand": 1463,
      "âĢľ": 1464,
      "Ġused": 1465,
      "Ġdid": 1466,
      "ced": 1467,
      "ually": 1468,
      "Ġown": 1469,
      "Ġbek": 1470,
      "\",": 1471,
      "entlich": 1472,
      "IN": 1473,
      "ence": 1474,
      "Ġprof": 1475,
      "Ġmus": 1476,
      "Ġ11": 1477,
      "ware": 1478,
      "Ġeing": 1479,
      "ĠIch": 1480,
      "Ġversch": 1481,
      "lung": 1482,
      "lÃ¤": 1483,
      "weise": 1484,
      "rib": 1485,
      "ata": 1486,
      "22": 1487,
      "bsite": 1488,
      "50": 1489,
      "igkeit": 1490,
      "zahl": 1491,
      "gesch": 1492,
      "Ġdisc": 1493,
      "ton": 1494,
      "Ã¶ff": 1495,
      "tellt": 1496,
      "rech": 1497,
      "Ġdesign": 1498,
      "Ġpres": 1499,
      "Ġtechn": 1500,
      "Ġdoes": 1501,
      "Ġson": 1502,
      "ĠPol": 1503,
      "ple": 1504,
      "ĠMed": 1505,
      "11": 1506,
      "//": 1507,
      "Ġbeing": 1508,
      "oten": 1509,
      "ots": 1510,
      "Ã¼tz": 1511,
      "cy": 1512,
      "eter": 1513,
      "nah": 1514,
      "lein": 1515,
      "Ġav": 1516,
      "Re": 1517,
      "30": 1518,
      "Ġbeim": 1519,
      "ucht": 1520,
      "Ġhere": 1521,
      "abei": 1522,
      "ĠMus": 1523,
      "cc": 1524,
      "Ġfr": 1525,
      "Ġdevelop": 1526,
      "Ã¶ch": 1527,
      "ames": 1528,
      "Ġsur": 1529,
      "ĠWer": 1530,
      "hlen": 1531,
      "ĠUhr": 1532,
      "Ġagain": 1533,
      "agen": 1534,
      "Ġmade": 1535,
      "way": 1536,
      "://": 1537,
      "ruck": 1538,
      "ustom": 1539,
      "tellen": 1540,
      "ĠTr": 1541,
      "eits": 1542,
      "ina": 1543,
      "ism": 1544,
      "fin": 1545,
      "ior": 1546,
      "ever": 1547,
      "Ġinformation": 1548,
      "Ġsowie": 1549,
      "ĠUnd": 1550,
      "ason": 1551,
      "ĠBet": 1552,
      "Ġgesch": 1553,
      "min": 1554,
      "Ġbed": 1555,
      "rank": 1556,
      "Ġhim": 1557,
      "Ġmuss": 1558,
      "Ġbefore": 1559,
      "Ġpass": 1560,
      "rol": 1561,
      "ator": 1562,
      "Ġright": 1563,
      "Ġcre": 1564,
      "ĠLeben": 1565,
      "Ġwen": 1566,
      "Ġthose": 1567,
      "Ġworld": 1568,
      "Ġspe": 1569,
      "Ġnum": 1570,
      "row": 1571,
      "mb": 1572,
      "aum": 1573,
      "tre": 1574,
      "12": 1575,
      "Ġprodu": 1576,
      "ĠHa": 1577,
      "ule": 1578,
      "Ġdiesem": 1579,
      "Ġselbst": 1580,
      "Ġâ": 1581,
      "timm": 1582,
      "ident": 1583,
      "Ġfree": 1584,
      "lex": 1585,
      "Ġ30": 1586,
      "ality": 1587,
      "lish": 1588,
      "Ġlife": 1589,
      "aden": 1590,
      "Ġresp": 1591,
      "ĠâĢľ": 1592,
      "ĠReg": 1593,
      "burg": 1594,
      "amm": 1595,
      "Ġ...": 1596,
      "Ġweek": 1597,
      "ives": 1598,
      "igt": 1599,
      "urs": 1600,
      "ks": 1601,
      "Ġvis": 1602,
      "read": 1603,
      "zie": 1604,
      "Ġmo": 1605,
      "ĠOnline": 1606,
      "orts": 1607,
      "Ġ16": 1608,
      "Ġmarket": 1609,
      "ĠIntern": 1610,
      "ender": 1611,
      "Ġ14": 1612,
      "ope": 1613,
      "Ġbook": 1614,
      "net": 1615,
      "ouse": 1616,
      "ichts": 1617,
      "ai": 1618,
      "ĠAs": 1619,
      "Ġreally": 1620,
      "Ġsk": 1621,
      "inter": 1622,
      "unity": 1623,
      "earch": 1624,
      "EN": 1625,
      "ivid": 1626,
      "ather": 1627,
      "ollow": 1628,
      "ott": 1629,
      "Ġeas": 1630,
      "ppen": 1631,
      "innen": 1632,
      "unde": 1633,
      "'re": 1634,
      "Ġsl": 1635,
      "ures": 1636,
      "ser": 1637,
      "ently": 1638,
      "akes": 1639,
      "vor": 1640,
      "ump": 1641,
      "let": 1642,
      "aterial": 1643,
      "Ġze": 1644,
      "Ġset": 1645,
      "iven": 1646,
      "ĠChr": 1647,
      "ald": 1648,
      "Ġadv": 1649,
      "ĠMon": 1650,
      "Ġgra": 1651,
      "ject": 1652,
      "Ġfamil": 1653,
      "Ġsign": 1654,
      "Ġbie": 1655,
      "Ġange": 1656,
      "ars": 1657,
      "Ġetwas": 1658,
      "fort": 1659,
      "Ġfinden": 1660,
      "ĠDaten": 1661,
      "Ġanderen": 1662,
      "ĠMenschen": 1663,
      "ince": 1664,
      "schaf": 1665,
      "ics": 1666,
      "ĠmÃ¼s": 1667,
      "Ġcle": 1668,
      "Ġcur": 1669,
      "iving": 1670,
      "Ġche": 1671,
      "Ġeach": 1672,
      "Ġ:": 1673,
      "uck": 1674,
      "Ġwhile": 1675,
      "Ġco": 1676,
      "Ġcour": 1677,
      "war": 1678,
      "ĠKon": 1679,
      "irt": 1680,
      "ave": 1681,
      "ĠApp": 1682,
      "Ġtyp": 1683,
      "ness": 1684,
      "illion": 1685,
      "Ġlead": 1686,
      "ieden": 1687,
      "bt": 1688,
      "Sch": 1689,
      "ants": 1690,
      "load": 1691,
      "ĠGew": 1692,
      "agement": 1693,
      "Al": 1694,
      "yn": 1695,
      "ude": 1696,
      "ĠCl": 1697,
      "Ġstand": 1698,
      "Ġprocess": 1699,
      "Ġsom": 1700,
      "oint": 1701,
      "ized": 1702,
      "part": 1703,
      "Ġpra": 1704,
      "Ġcare": 1705,
      "fr": 1706,
      "ĠBut": 1707,
      "Ġ,": 1708,
      "Ġdifferent": 1709,
      "Ġaround": 1710,
      "gung": 1711,
      "gend": 1712,
      "Ġvar": 1713,
      "ober": 1714,
      "ĠSc": 1715,
      "ublic": 1716,
      "Ġact": 1717,
      "ĠDes": 1718,
      "Ġser": 1719,
      "Ġlong": 1720,
      "ĠÃľber": 1721,
      "Ġdet": 1722,
      "Ġprovid": 1723,
      "tens": 1724,
      "Ġreal": 1725,
      "Be": 1726,
      "Ġgeht": 1727,
      "Ġlast": 1728,
      "Ġhatte": 1729,
      "eral": 1730,
      "Ġide": 1731,
      "Ġ17": 1732,
      "Ġmachen": 1733,
      "ĠPar": 1734,
      "Ġdamit": 1735,
      "Ã¤tz": 1736,
      "Ġfun": 1737,
      "ines": 1738,
      "Ġjetzt": 1739,
      "Ġviele": 1740,
      "uk": 1741,
      "ush": 1742,
      "Ã¤lt": 1743,
      "iÃŁ": 1744,
      "ichte": 1745,
      "ology": 1746,
      "Ġzwei": 1747,
      "ature": 1748,
      "Ġstill": 1749,
      "Ġ13": 1750,
      "Ġtrans": 1751,
      "Ġtop": 1752,
      "amen": 1753,
      "ift": 1754,
      "Ġgoing": 1755,
      "riend": 1756,
      "blem": 1757,
      "ustr": 1758,
      "ĠVers": 1759,
      "Wh": 1760,
      "ween": 1761,
      "ĠTeil": 1762,
      "ommt": 1763,
      "oh": 1764,
      "Ġoffer": 1765,
      "Ġeng": 1766,
      "ĠRes": 1767,
      "Ġverb": 1768,
      "Ġintern": 1769,
      "ining": 1770,
      "ects": 1771,
      "hip": 1772,
      ",\"": 1773,
      "wert": 1774,
      "geben": 1775,
      "Ġteam": 1776,
      "ways": 1777,
      "stÃ¤nd": 1778,
      "Ġsame": 1779,
      "ahn": 1780,
      "Ġeigen": 1781,
      "Ġbra": 1782,
      "AN": 1783,
      "eiten": 1784,
      "azu": 1785,
      "fle": 1786,
      "Ġform": 1787,
      "Ġproduc": 1788,
      "gleich": 1789,
      "akt": 1790,
      "Ġusing": 1791,
      "Ġgleich": 1792,
      "iver": 1793,
      "reib": 1794,
      "ĠStud": 1795,
      "ierte": 1796,
      "ĠKinder": 1797,
      "rad": 1798,
      "Ġseine": 1799,
      "aben": 1800,
      "Ġcustom": 1801,
      "ĠmÃ¶glich": 1802,
      "This": 1803,
      "ideo": 1804,
      "Ġ#": 1805,
      "Ġsystem": 1806,
      "tial": 1807,
      "Ġcr": 1808,
      "ĠIs": 1809,
      "Ġdel": 1810,
      "schl": 1811,
      "ahre": 1812,
      "Ġrun": 1813,
      "nde": 1814,
      "aj": 1815,
      "uchen": 1816,
      "Ġneue": 1817,
      "Ġerst": 1818,
      "fra": 1819,
      "ĠJahren": 1820,
      "Ġplace": 1821,
      "Ġbetween": 1822,
      "app": 1823,
      "asch": 1824,
      "ody": 1825,
      "asser": 1826,
      "Ġboth": 1827,
      "lease": 1828,
      "ichten": 1829,
      "Ġorgan": 1830,
      "Ġbo": 1831,
      "ĠIhnen": 1832,
      "hm": 1833,
      "ilt": 1834,
      "reen": 1835,
      "par": 1836,
      "Ġimport": 1837,
      "ee": 1838,
      "ross": 1839,
      "ĠAk": 1840,
      "ĠGer": 1841,
      "ving": 1842,
      "Ġstar": 1843,
      "!!": 1844,
      "Ich": 1845,
      "ĠDu": 1846,
      "oss": 1847,
      "ĠÂ»": 1848,
      "Ġfound": 1849,
      "inal": 1850,
      "ĠDr": 1851,
      "ution": 1852,
      "berg": 1853,
      "Ġfew": 1854,
      "cial": 1855,
      "Ġers": 1856,
      "Ġlang": 1857,
      "stag": 1858,
      "nell": 1859,
      "ĠGrund": 1860,
      "imm": 1861,
      "lage": 1862,
      "ict": 1863,
      "zeich": 1864,
      "ĠBr": 1865,
      "unktion": 1866,
      "Ġspiel": 1867,
      "Ġbit": 1868,
      "Ġfollow": 1869,
      "halb": 1870,
      "Ġja": 1871,
      "Ġhal": 1872,
      "Ġ100": 1873,
      "tag": 1874,
      "ittle": 1875,
      "ilm": 1876,
      "bild": 1877,
      "leit": 1878,
      "Ġpay": 1879,
      "opp": 1880,
      "Ġcount": 1881,
      "Ġchild": 1882,
      "book": 1883,
      "Ġpost": 1884,
      "aufen": 1885,
      "Ġret": 1886,
      "Ġdoch": 1887,
      "Ġcolle": 1888,
      "Ġstart": 1889,
      "halt": 1890,
      "Ġcompany": 1891,
      "ĠThey": 1892,
      "Ġposs": 1893,
      "ekt": 1894,
      "Ġtoo": 1895,
      "oney": 1896,
      "Ġbring": 1897,
      "Ã¶s": 1898,
      "ogra": 1899,
      "Ġbelie": 1900,
      "tend": 1901,
      "Ġhealth": 1902,
      "ailable": 1903,
      "Ġrequire": 1904,
      "cl": 1905,
      "iqu": 1906,
      "Ġmonth": 1907,
      "Ġshow": 1908,
      "trag": 1909,
      "esen": 1910,
      "Ġmain": 1911,
      "ES": 1912,
      "ĠâĢŀ": 1913,
      "ĠTo": 1914,
      "Ġval": 1915,
      "Ġcor": 1916,
      "Ġwurden": 1917,
      "ĠEl": 1918,
      "Ġfull": 1919,
      "ĠNov": 1920,
      "Ã¤d": 1921,
      "Ġseit": 1922,
      "meric": 1923,
      "Un": 1924,
      "ĠPerson": 1925,
      "Ġgar": 1926,
      "undes": 1927,
      "ision": 1928,
      "ON": 1929,
      "\".": 1930,
      "ĠX": 1931,
      "ander": 1932,
      "ĠDeutschland": 1933,
      "zw": 1934,
      "Ġeinz": 1935,
      "ĠEng": 1936,
      "auer": 1937,
      "Ã¤uf": 1938,
      "Ġ2020": 1939,
      "upt": 1940,
      "Pro": 1941,
      "iff": 1942,
      "ves": 1943,
      "ball": 1944,
      "Ġwoll": 1945,
      "Ġmod": 1946,
      "ĠInformation": 1947,
      "Ġbre": 1948,
      "Ġexperience": 1949,
      "Ġdenn": 1950,
      "ĠLie": 1951,
      "ischer": 1952,
      "ĠHow": 1953,
      "ager": 1954,
      "richt": 1955,
      "ists": 1956,
      "gest": 1957,
      "bo": 1958,
      "Ġ2018": 1959,
      "immer": 1960,
      "zial": 1961,
      "Ġcomple": 1962,
      "ĠInter": 1963,
      "mittel": 1964,
      "ane": 1965,
      "ĠwÃ¼r": 1966,
      "Ġkeep": 1967,
      "Ġrest": 1968,
      "Ġbro": 1969,
      "Ġsay": 1970,
      "ield": 1971,
      "uper": 1972,
      "15": 1973,
      "Ġmov": 1974,
      "Ġalles": 1975,
      "Ġbereits": 1976,
      "con": 1977,
      "Ġdabei": 1978,
      "ĠGen": 1979,
      "Ġthings": 1980,
      "Ġwrit": 1981,
      "ights": 1982,
      "bra": 1983,
      "gem": 1984,
      "Ġfol": 1985,
      "Ġaller": 1986,
      "hÃ¶r": 1987,
      "lock": 1988,
      "ĠmÃ¼ssen": 1989,
      "'ve": 1990,
      "Ġservice": 1991,
      "Ġpartic": 1992,
      "irm": 1993,
      "ĠUnternehmen": 1994,
      "lack": 1995,
      "ï¿": 1996,
      "AT": 1997,
      "ï¿½": 1998,
      "Ġcal": 1999,
      "ĠComp": 2000,
      "work": 2001,
      "ĠKl": 2002,
      "thing": 2003,
      "Ġnun": 2004,
      "isk": 2005,
      "Ġfeel": 2006,
      "Ġlearn": 2007,
      "amt": 2008,
      "ĠThere": 2009,
      "Ġem": 2010,
      "raft": 2011,
      "It": 2012,
      "atÃ¼r": 2013,
      "Ġmen": 2014,
      "esser": 2015,
      "enk": 2016,
      "ards": 2017,
      "ĠGro": 2018,
      "Ġunsere": 2019,
      "annt": 2020,
      "Ein": 2021,
      "unter": 2022,
      "Ġlassen": 2023,
      "ved": 2024,
      "ĠJun": 2025,
      "laub": 2026,
      "Ġcap": 2027,
      "Ġappro": 2028,
      "Ã¤re": 2029,
      "Ġandere": 2030,
      "lieÃŁ": 2031,
      "less": 2032,
      "Ġ24": 2033,
      "Ĥ¬": 2034,
      "ĠGl": 2035,
      "ĠBed": 2036,
      "enz": 2037,
      "Ġindivid": 2038,
      "Ġ2019": 2039,
      "loy": 2040,
      "ĠUnivers": 2041,
      "ĠStadt": 2042,
      "ĠEuro": 2043,
      "aur": 2044,
      "ĠServ": 2045,
      "Ġlot": 2046,
      "ertain": 2047,
      "ĠThem": 2048,
      "Ġdata": 2049,
      "pos": 2050,
      "Ġgel": 2051,
      "Ġzwischen": 2052,
      "bes": 2053,
      "Ġ25": 2054,
      "'m": 2055,
      "cher": 2056,
      "urz": 2057,
      "Ġlove": 2058,
      "Ġletz": 2059,
      "Ġsondern": 2060,
      "eins": 2061,
      "Ġiss": 2062,
      "AR": 2063,
      "get": 2064,
      "aÃŁ": 2065,
      "Ġopen": 2066,
      "Ġsupport": 2067,
      "Ġ2017": 2068,
      "Ġbetter": 2069,
      "co": 2070,
      "Ġje": 2071,
      "erk": 2072,
      "Ġthree": 2073,
      "Ġkosten": 2074,
      "redit": 2075,
      "Ġsmall": 2076,
      "Ġavailable": 2077,
      "arly": 2078,
      "atter": 2079,
      "ĠPart": 2080,
      "ĠJan": 2081,
      "ĠQu": 2082,
      "ĠFahr": 2083,
      "Ġcho": 2084,
      "ĠÃĸ": 2085,
      "Ġduring": 2086,
      "Ã¤f": 2087,
      "by": 2088,
      "Ġschool": 2089,
      "ission": 2090,
      "eiter": 2091,
      "Ġfact": 2092,
      "ĠâĢĶ": 2093,
      "ĠOp": 2094,
      "uten": 2095,
      "folg": 2096,
      "aly": 2097,
      "oot": 2098,
      "Ġel": 2099,
      "Ġpat": 2100,
      "ails": 2101,
      "Ġnumber": 2102,
      "Ġwithout": 2103,
      "ĠWenn": 2104,
      "eich": 2105,
      "ĠAt": 2106,
      "rip": 2107,
      "atis": 2108,
      "Ġalways": 2109,
      "haus": 2110,
      "Ġlittle": 2111,
      "18": 2112,
      "Ġgame": 2113,
      "isen": 2114,
      "Ġrece": 2115,
      "orm": 2116,
      "ites": 2117,
      "ĠWelt": 2118,
      "ĠGo": 2119,
      "ĠTag": 2120,
      "Ġbas": 2121,
      "Ġet": 2122,
      "ething": 2123,
      "heim": 2124,
      "ccess": 2125,
      "Ġdist": 2126,
      "ĠCar": 2127,
      "gew": 2128,
      "ged": 2129,
      "Ġeben": 2130,
      "allen": 2131,
      "Ġmight": 2132,
      "200": 2133,
      "Ġwater": 2134,
      "Ã¶glichkeit": 2135,
      "ried": 2136,
      "str": 2137,
      "press": 2138,
      "wh": 2139,
      "ream": 2140,
      "Ġbuild": 2141,
      "ĠWoch": 2142,
      "uÃŁer": 2143,
      "lagen": 2144,
      "Ġmem": 2145,
      "Ġtry": 2146,
      "Ġcome": 2147,
      "forder": 2148,
      "Ġcost": 2149,
      "Ġverschieden": 2150,
      "Ġbin": 2151,
      "Ġable": 2152,
      "bed": 2153,
      "Ġ2021": 2154,
      "Ver": 2155,
      "Ġ50": 2156,
      "Ġersten": 2157,
      "Ġsure": 2158,
      "Ġsollte": 2159,
      "ftware": 2160,
      "res": 2161,
      "omen": 2162,
      "Ġmust": 2163,
      "Ġbeste": 2164,
      "Ġbr": 2165,
      "wick": 2166,
      "Ġimportant": 2167,
      "enter": 2168,
      "Ġcontin": 2169,
      "find": 2170,
      "ĠJahre": 2171,
      "ĠUr": 2172,
      "ĠPre": 2173,
      "ispiel": 2174,
      "satz": 2175,
      "hÃ¶": 2176,
      "tain": 2177,
      "ĠHotel": 2178,
      "Ġwaren": 2179,
      "ĠCon": 2180,
      "fahren": 2181,
      "Ġincluding": 2182,
      "ha": 2183,
      "aster": 2184,
      "Wir": 2185,
      "orth": 2186,
      "upp": 2187,
      "Ġorder": 2188,
      "Ġput": 2189,
      "oren": 2190,
      "Ġsag": 2191,
      "Ġklein": 2192,
      "Ġzusammen": 2193,
      "arch": 2194,
      "bau": 2195,
      "Ġchar": 2196,
      "OR": 2197,
      "Ġques": 2198,
      "ĠWie": 2199,
      "Ġbesch": 2200,
      "ĠHaus": 2201,
      "'ll": 2202,
      "kommen": 2203,
      "Ġprogram": 2204,
      "Ġdieses": 2205,
      "alen": 2206,
      "16": 2207,
      "nung": 2208,
      ".,": 2209,
      "ĠmÃ¶ch": 2210,
      "Ã¤hl": 2211,
      "hin": 2212,
      "ips": 2213,
      "self": 2214,
      "Ġfamily": 2215,
      "org": 2216,
      "ĠAmeric": 2217,
      "ĠKont": 2218,
      "schutz": 2219,
      "imes": 2220,
      "Ġbig": 2221,
      "zeug": 2222,
      "ĠzurÃ¼ck": 2223,
      "por": 2224,
      "Ġlo": 2225,
      "unkt": 2226,
      "Ġkonn": 2227,
      "ĠkÃ¶nn": 2228,
      "Ġclass": 2229,
      "Ġdazu": 2230,
      "Ã¤ng": 2231,
      "rat": 2232,
      "weg": 2233,
      "Ġfriend": 2234,
      "ests": 2235,
      "erg": 2236,
      "14": 2237,
      "Ġcol": 2238,
      "ret": 2239,
      "Ġsomething": 2240,
      "Ġincre": 2241,
      "Ã¶l": 2242,
      "fre": 2243,
      "Ġpower": 2244,
      "port": 2245,
      "oto": 2246,
      "Ġir": 2247,
      "Ã¤hrend": 2248,
      "ĠSep": 2249,
      "bie": 2250,
      "ination": 2251,
      "Ġoper": 2252,
      "Ġunserer": 2253,
      "Ġchange": 2254,
      "amer": 2255,
      "Ġtro": 2256,
      "....": 2257,
      "gang": 2258,
      "ĠCo": 2259,
      "ches": 2260,
      "Ġperform": 2261,
      "Ġ2016": 2262,
      "ĠSchw": 2263,
      "www": 2264,
      "Ġprovide": 2265,
      "hÃ¤lt": 2266,
      "Ġopp": 2267,
      "gal": 2268,
      "ienst": 2269,
      "ĠComm": 2270,
      "Ġschnell": 2271,
      "ctor": 2272,
      "Ġlevel": 2273,
      "Ġservices": 2274,
      "Ġconsider": 2275,
      "ĠPreis": 2276,
      "Ã©": 2277,
      "Ġgroup": 2278,
      "ummer": 2279,
      "ily": 2280,
      "13": 2281,
      "Ġneuen": 2282,
      "igital": 2283,
      "Ġnext": 2284,
      "ĠBei": 2285,
      "Ġx": 2286,
      "ierten": 2287,
      "ĠEnt": 2288,
      "fÃ¤": 2289,
      "Ġequ": 2290,
      "ogen": 2291,
      "CH": 2292,
      "Ġaddition": 2293,
      "ĠFin": 2294,
      "Ġ199": 2295,
      "ument": 2296,
      "ĠAug": 2297,
      "kte": 2298,
      "ffen": 2299,
      "Ġsing": 2300,
      "uter": 2301,
      "ĠProz": 2302,
      "uge": 2303,
      "ĠArt": 2304,
      "pf": 2305,
      "ĠFr": 2306,
      "sc": 2307,
      "atÃ¼rlich": 2308,
      "ĠFÃ¼r": 2309,
      "Ġanother": 2310,
      "Ġwithin": 2311,
      "ritt": 2312,
      "ĠFamil": 2313,
      "ared": 2314,
      "ĠBild": 2315,
      "ĠFall": 2316,
      "ically": 2317,
      "17": 2318,
      "Ġgive": 2319,
      "son": 2320,
      "gar": 2321,
      "Ã¼nd": 2322,
      "tiert": 2323,
      "Ġhtt": 2324,
      "ately": 2325,
      "ĠCor": 2326,
      "Ġfac": 2327,
      "ected": 2328,
      "ients": 2329,
      "hor": 2330,
      "Ġseiner": 2331,
      "ller": 2332,
      "stru": 2333,
      "Ġcasino": 2334,
      "etzen": 2335,
      "Ġwebsite": 2336,
      "25": 2337,
      "Ġsince": 2338,
      "Ġgot": 2339,
      "Ġsecond": 2340,
      "ogle": 2341,
      "ex": 2342,
      "Ġsite": 2343,
      "Ġble": 2344,
      "ales": 2345,
      "ele": 2346,
      "ĠApr": 2347,
      "ĠNo": 2348,
      "ethod": 2349,
      "Ġkommt": 2350,
      "Ġakt": 2351,
      "Ġdeutsch": 2352,
      "tice": 2353,
      "Ġmoney": 2354,
      "Ġhead": 2355,
      "ases": 2356,
      "tember": 2357,
      "ST": 2358,
      "Ġjob": 2359,
      "Ġpers": 2360,
      "Ġwichtig": 2361,
      "reg": 2362,
      "tieren": 2363,
      "ĠKom": 2364,
      "Ġconc": 2365,
      "licher": 2366,
      "Ġnever": 2367,
      "Ġheute": 2368,
      "hol": 2369,
      "int": 2370,
      "ĠCasino": 2371,
      "tier": 2372,
      "istr": 2373,
      "Ġgener": 2374,
      "Ġprofession": 2375,
      "mm": 2376,
      "Ġlet": 2377,
      "falls": 2378,
      "Ġdiesen": 2379,
      "Ġlink": 2380,
      "Ġdays": 2381,
      "angen": 2382,
      "Ġgrow": 2383,
      "ĠEle": 2384,
      "ĠAuch": 2385,
      "zug": 2386,
      "ĠMo": 2387,
      "IT": 2388,
      "igung": 2389,
      "uff": 2390,
      "Ġaccess": 2391,
      "ids": 2392,
      "Ġjedoch": 2393,
      "ird": 2394,
      "outh": 2395,
      "gra": 2396,
      "ĠSk": 2397,
      "Ġben": 2398,
      "Ġarea": 2399,
      "Ġhard": 2400,
      "ĠKar": 2401,
      "Ġhist": 2402,
      "Ġcurr": 2403,
      "cted": 2404,
      "Ġ21": 2405,
      "Ġplan": 2406,
      "rop": 2407,
      "Ġmind": 2408,
      "fang": 2409,
      "ĠTechn": 2410,
      "Ġfast": 2411,
      "ĠKunden": 2412,
      "Ġweil": 2413,
      "ationen": 2414,
      "ugen": 2415,
      "24": 2416,
      "If": 2417,
      "ills": 2418,
      "Ġroom": 2419,
      "Ġgl": 2420,
      "ĠâĢ¦": 2421,
      "eder": 2422,
      "ĠWar": 2423,
      "ĠfÃ¼hr": 2424,
      "Ġaff": 2425,
      "Ġperf": 2426,
      "Es": 2427,
      "Ã¼nf": 2428,
      "Ġsicher": 2429,
      "Ã¤s": 2430,
      "--": 2431,
      "Ġspecial": 2432,
      "klich": 2433,
      "Ġpop": 2434,
      "Ġu": 2435,
      "Ġcall": 2436,
      "ĠShe": 2437,
      "ĠDiese": 2438,
      "stÃ¼tz": 2439,
      "ransp": 2440,
      "ours": 2441,
      "the": 2442,
      "Ġeinmal": 2443,
      "Sp": 2444,
      "mann": 2445,
      "ĠWohn": 2446,
      "Ġask": 2447,
      "ED": 2448,
      "Ġresearch": 2449,
      "ĠBundes": 2450,
      "ĠGem": 2451,
      "Ã¤ÃŁ": 2452,
      "vent": 2453,
      "Ġturn": 2454,
      "ĠBere": 2455,
      "Ġabs": 2456,
      "Ġdrei": 2457,
      "ought": 2458,
      "ĠInformationen": 2459,
      "Ġprote": 2460,
      "AL": 2461,
      "stra": 2462,
      "ning": 2463,
      "Ġverl": 2464,
      "iter": 2465,
      "ĠGra": 2466,
      "Ġbuy": 2467,
      "ison": 2468,
      "lauf": 2469,
      "ories": 2470,
      "grund": 2471,
      "obil": 2472,
      "ĠNews": 2473,
      "ulti": 2474,
      "ding": 2475,
      "Mit": 2476,
      "Ġ2015": 2477,
      "Ã¶ÃŁ": 2478,
      "ĠStand": 2479,
      "Ġentsp": 2480,
      "klÃ¤r": 2481,
      "Ġapplic": 2482,
      "ĠWith": 2483,
      "ume": 2484,
      "Ġless": 2485,
      "ĠCont": 2486,
      "Ġpriv": 2487,
      "ĠMay": 2488,
      "Ġ22": 2489,
      "eign": 2490,
      "Im": 2491,
      "ĠMal": 2492,
      "afÃ¼r": 2493,
      "yl": 2494,
      "ĠÃ¼": 2495,
      "Ġlooking": 2496,
      "Ġworking": 2497,
      "scheid": 2498,
      "ĠInternet": 2499,
      "Ġview": 2500,
      "Ġkommen": 2501,
      "Ġatt": 2502,
      "Ġpublic": 2503,
      "Ġunderstand": 2504,
      "li": 2505,
      "med": 2506,
      "stoff": 2507,
      "Ġsteht": 2508,
      "Ġreview": 2509,
      "alle": 2510,
      "Ġhoch": 2511,
      "Ġjeder": 2512,
      "Er": 2513,
      "ably": 2514,
      "lob": 2515,
      "ĠSm": 2516,
      "ample": 2517,
      "Ġann": 2518,
      "asse": 2519,
      "UR": 2520,
      "ĠStra": 2521,
      "Ġgest": 2522,
      "He": 2523,
      "use": 2524,
      "ony": 2525,
      "Ġmaking": 2526,
      "chts": 2527,
      "Ġvoll": 2528,
      "Ġbene": 2529,
      "Ġihrer": 2530,
      "vern": 2531,
      "utes": 2532,
      "ookies": 2533,
      "einen": 2534,
      "band": 2535,
      "nahme": 2536,
      "ability": 2537,
      "onus": 2538,
      "itive": 2539,
      "Ġ2013": 2540,
      "ux": 2541,
      "aun": 2542,
      "aar": 2543,
      "ĠBo": 2544,
      "go": 2545,
      "Ġfood": 2546,
      "Ġallem": 2547,
      "Ġcheck": 2548,
      "ĠMod": 2549,
      "bet": 2550,
      "joy": 2551,
      "ĠBar": 2552,
      "Ġho": 2553,
      "uell": 2554,
      "Ġconf": 2555,
      "yle": 2556,
      "Ġtre": 2557,
      "ĠSeite": 2558,
      "aper": 2559,
      "Ġmet": 2560,
      "Ar": 2561,
      "Ġmeet": 2562,
      "ĠMy": 2563,
      "ĠEine": 2564,
      "ems": 2565,
      "anks": 2566,
      "zt": 2567,
      "ĠWind": 2568,
      "ĠSer": 2569,
      "Ġimpro": 2570,
      "cke": 2571,
      "ney": 2572,
      "sk": 2573,
      "Ġ2014": 2574,
      "ĠAber": 2575,
      "ĠGeld": 2576,
      "Ġnie": 2577,
      "onders": 2578,
      "ĠSchul": 2579,
      "ape": 2580,
      "itÃ¤": 2581,
      "spiel": 2582,
      "kehr": 2583,
      "ĠHier": 2584,
      "Ġihren": 2585,
      "Ġproducts": 2586,
      "ization": 2587,
      "ctions": 2588,
      "Ġquality": 2589,
      "Ġsever": 2590,
      "Sh": 2591,
      "ker": 2592,
      "ĠBuch": 2593,
      "Ġstudents": 2594,
      "ĠAngeb": 2595,
      "ĠPer": 2596,
      "ĠCom": 2597,
      "Ġstate": 2598,
      "AS": 2599,
      "Ġcase": 2600,
      "ĠNutz": 2601,
      "ective": 2602,
      "ĠTeam": 2603,
      "schied": 2604,
      "Ġtoday": 2605,
      "You": 2606,
      "Ġmeine": 2607,
      "60": 2608,
      "ĠSchl": 2609,
      "So": 2610,
      "Ġ23": 2611,
      "ille": 2612,
      "ief": 2613,
      "cle": 2614,
      "Ġland": 2615,
      "tikel": 2616,
      "Ġdefin": 2617,
      "Ġak": 2618,
      "ilfe": 2619,
      "Ġkind": 2620,
      "ĠQual": 2621,
      "ĠApril": 2622,
      "Ġdev": 2623,
      "ones": 2624,
      "nisse": 2625,
      "orgen": 2626,
      "iety": 2627,
      "Ġ+": 2628,
      "ults": 2629,
      "Ġter": 2630,
      "ĠWor": 2631,
      "legen": 2632,
      "ĠCan": 2633,
      "Ġhum": 2634,
      "Ġwelche": 2635,
      "stellung": 2636,
      "tics": 2637,
      "iting": 2638,
      "Ã¤nger": 2639,
      "thers": 2640,
      "ĠPat": 2641,
      "usch": 2642,
      "Ġlaw": 2643,
      "Ġ2012": 2644,
      "ived": 2645,
      "rieb": 2646,
      "achen": 2647,
      "nerg": 2648,
      "dings": 2649,
      "Ġerw": 2650,
      "weil": 2651,
      "ĠForm": 2652,
      "ultur": 2653,
      "Ġbesten": 2654,
      "pert": 2655,
      "ĠNovember": 2656,
      "orf": 2657,
      "âĢĵ": 2658,
      "omat": 2659,
      "ising": 2660,
      "ocus": 2661,
      "ĠProf": 2662,
      "Ġbietet": 2663,
      "kauf": 2664,
      "ĠFeb": 2665,
      "40": 2666,
      "glie": 2667,
      "Ġmacht": 2668,
      "Ġfar": 2669,
      "chte": 2670,
      "atures": 2671,
      "obile": 2672,
      "Ġagainst": 2673,
      "ograph": 2674,
      "ĠSeptember": 2675,
      "Ġevent": 2676,
      "iate": 2677,
      "Ġlik": 2678,
      "asst": 2679,
      "enten": 2680,
      "Ġaway": 2681,
      "Ġlarge": 2682,
      "tionen": 2683,
      "umen": 2684,
      "ised": 2685,
      "ĠWasser": 2686,
      "ĠMark": 2687,
      "ppe": 2688,
      "Ġverw": 2689,
      "gether": 2690,
      "Ġsaf": 2691,
      "ĠTest": 2692,
      "Ġsehen": 2693,
      "Ġair": 2694,
      "Ġsei": 2695,
      "Ġcomplete": 2696,
      "rieben": 2697,
      "ilder": 2698,
      "ental": 2699,
      "Ġconn": 2700,
      "Ad": 2701,
      "Le": 2702,
      "itter": 2703,
      "Ġeasy": 2704,
      "tegr": 2705,
      "Ġcourse": 2706,
      "ativ": 2707,
      "pend": 2708,
      "Ġthough": 2709,
      "fern": 2710,
      "ĠBro": 2711,
      "ĠâĤ¬": 2712,
      "Ġihn": 2713,
      "ĠKn": 2714,
      "Ġactiv": 2715,
      "ĠFar": 2716,
      "ecial": 2717,
      "altung": 2718,
      "uche": 2719,
      "ĠAss": 2720,
      "Ġausge": 2721,
      "vious": 2722,
      "Ġmar": 2723,
      "Ġbeh": 2724,
      "Ġexce": 2725,
      "ĠgroÃŁ": 2726,
      "ĠDis": 2727,
      "Ġcontrol": 2728,
      "Ġseinen": 2729,
      "ester": 2730,
      "ĠOff": 2731,
      "voll": 2732,
      "fte": 2733,
      "Ġlocal": 2734,
      "IS": 2735,
      "Ġwhy": 2736,
      "ĠRÃ¼ck": 2737,
      "ether": 2738,
      "ĠSpe": 2739,
      "jekt": 2740,
      "Ġdir": 2741,
      "Ġart": 2742,
      "iner": 2743,
      "Ġkl": 2744,
      "Ġemploy": 2745,
      "Ġallow": 2746,
      "ĠJanu": 2747,
      "ording": 2748,
      "ĠBereich": 2749,
      "Ġdra": 2750,
      "ennt": 2751,
      "Ġ40": 2752,
      "sy": 2753,
      "Ġwirklich": 2754,
      "ĠEnde": 2755,
      "ĠÃĦ": 2756,
      "Ġnet": 2757,
      "80": 2758,
      "Ġhaving": 2759,
      "ĠThat": 2760,
      "ĠwÃ¼rde": 2761,
      "ĠHol": 2762,
      "Ġcertain": 2763,
      "ĠPark": 2764,
      "23": 2765,
      "ury": 2766,
      "ĠBerlin": 2767,
      "rÃ¼nd": 2768,
      "Ġthing": 2769,
      "ĠGu": 2770,
      "icherheit": 2771,
      "ingen": 2772,
      "Ġpersonal": 2773,
      "ĠOb": 2774,
      "Ġfil": 2775,
      "Ġint": 2776,
      "Ġgef": 2777,
      "ĠChrist": 2778,
      "oor": 2779,
      "ĠMÃ¶glichkeit": 2780,
      "Ġlist": 2781,
      "ĠWhen": 2782,
      "unft": 2783,
      "Ġcover": 2784,
      "room": 2785,
      "Ġlight": 2786,
      "Ġerhalten": 2787,
      "ID": 2788,
      "Ġmaterial": 2789,
      "inc": 2790,
      "Ġander": 2791,
      "EL": 2792,
      "chten": 2793,
      "Ġmag": 2794,
      "ties": 2795,
      "tigt": 2796,
      "Ġneeds": 2797,
      "uh": 2798,
      "Ġsuccess": 2799,
      "Ġline": 2800,
      "Ġspielen": 2801,
      "Ġallen": 2802,
      "iere": 2803,
      "ides": 2804,
      "conom": 2805,
      "ĠRo": 2806,
      "Ġprac": 2807,
      "olf": 2808,
      "fic": 2809,
      "Ġproblem": 2810,
      "Ġactually": 2811,
      "ĠAugust": 2812,
      "Ġfour": 2813,
      "ĠDurch": 2814,
      "ined": 2815,
      "ĠBest": 2816,
      "ajor": 2817,
      "Ġpoint": 2818,
      "bel": 2819,
      "ĠEntw": 2820,
      "Ġalong": 2821,
      "Ch": 2822,
      "Ġgovern": 2823,
      "ĠLebens": 2824,
      "ĠRed": 2825,
      "Ġtimes": 2826,
      "Ġold": 2827,
      "aring": 2828,
      "Ġoften": 2829,
      "werk": 2830,
      "âĢĶ": 2831,
      "Ġchildren": 2832,
      "esell": 2833,
      "Ġwr": 2834,
      "US": 2835,
      "ĠWas": 2836,
      "ds": 2837,
      "ĠMann": 2838,
      "Ġtest": 2839,
      "itor": 2840,
      "Ġliegt": 2841,
      "Ġpossible": 2842,
      "ĠnatÃ¼rlich": 2843,
      "vir": 2844,
      "ĠUniversity": 2845,
      "llt": 2846,
      "anst": 2847,
      "gangen": 2848,
      "Ġbased": 2849,
      "elf": 2850,
      "Ġenjoy": 2851,
      "ask": 2852,
      "Ã¤nder": 2853,
      "ĠDa": 2854,
      "ense": 2855,
      "ohl": 2856,
      "opf": 2857,
      "iste": 2858,
      "Ġcreat": 2859,
      "back": 2860,
      "iam": 2861,
      "ĠDesign": 2862,
      "Ġtreat": 2863,
      "acebook": 2864,
      "side": 2865,
      "under": 2866,
      "Ġsays": 2867,
      "Ġtun": 2868,
      "ĠZahl": 2869,
      "On": 2870,
      "reichen": 2871,
      "gaben": 2872,
      "ĠStre": 2873,
      "ormal": 2874,
      "Ġkostenlos": 2875,
      "wahl": 2876,
      "Ġtot": 2877,
      "otos": 2878,
      "uft": 2879,
      "Ġgeben": 2880,
      "mar": 2881,
      "Ġpolit": 2882,
      "Ġnichts": 2883,
      "ube": 2884,
      "ache": 2885,
      "Ġ>": 2886,
      "Ġlive": 2887,
      "Ġdort": 2888,
      "ection": 2889,
      "ĠNot": 2890,
      "ĠSport": 2891,
      "icken": 2892,
      "bei": 2893,
      "For": 2894,
      "Ġprice": 2895,
      "ĠBesch": 2896,
      "gramm": 2897,
      "oo": 2898,
      "ĠdafÃ¼r": 2899,
      "Ã¼t": 2900,
      "Ġtalk": 2901,
      "ante": 2902,
      "play": 2903,
      "lossen": 2904,
      "ckt": 2905,
      "ĠwÃ¤hrend": 2906,
      "Ġinclude": 2907,
      "01": 2908,
      "Dies": 2909,
      "avor": 2910,
      "Ġsele": 2911,
      "ired": 2912,
      "ums": 2913,
      "Ġpain": 2914,
      "urity": 2915,
      "Ġkomp": 2916,
      "ystems": 2917,
      "ĠnÃ¤ch": 2918,
      "Ġtogether": 2919,
      "esh": 2920,
      "Ġkon": 2921,
      "icro": 2922,
      "ply": 2923,
      "Ġgames": 2924,
      "weis": 2925,
      "Ġfund": 2926,
      "Ne": 2927,
      "ustry": 2928,
      "otor": 2929,
      "Ġed": 2930,
      "utter": 2931,
      "oung": 2932,
      "Ġwenig": 2933,
      "__": 2934,
      "unst": 2935,
      "anze": 2936,
      "Ġeinige": 2937,
      "Ã¼ss": 2938,
      "Ġinterest": 2939,
      "Ġwollen": 2940,
      "ĠEnerg": 2941,
      "Ġname": 2942,
      "ĠFran": 2943,
      "99": 2944,
      "Ġweitere": 2945,
      "ulation": 2946,
      "ops": 2947,
      "bre": 2948,
      "ĠBre": 2949,
      "rich": 2950,
      "Ġbzw": 2951,
      "Ġlim": 2952,
      "Ġinf": 2953,
      "inger": 2954,
      "Ġsocial": 2955,
      "oci": 2956,
      "uelle": 2957,
      "Ġside": 2958,
      "Ġfra": 2959,
      "Ġprom": 2960,
      "ĠgrÃ¶ÃŁ": 2961,
      "gabe": 2962,
      "viron": 2963,
      "Ġsw": 2964,
      "Ġproduct": 2965,
      "ready": 2966,
      "ĠInst": 2967,
      "05": 2968,
      "ey": 2969,
      "oph": 2970,
      "Ġmeans": 2971,
      "ĠWill": 2972,
      "ique": 2973,
      "Ġstat": 2974,
      "eten": 2975,
      "Ġrich": 2976,
      "Ġnon": 2977,
      "gl": 2978,
      "Ġpast": 2979,
      "Ġrund": 2980,
      "Ġproject": 2981,
      "ĠWhat": 2982,
      "Ġextra": 2983,
      "wort": 2984,
      "As": 2985,
      "ĠGoogle": 2986,
      "Ġstatt": 2987,
      "ona": 2988,
      "ource": 2989,
      "uture": 2990,
      "ging": 2991,
      "acy": 2992,
      ".)": 2993,
      "Ġschw": 2994,
      "leicht": 2995,
      "ole": 2996,
      "Ġmakes": 2997,
      "Ġseveral": 2998,
      "Ġgetting": 2999,
      "Ġ*": 3000,
      "urt": 3001,
      "uz": 3002,
      "Ġfocus": 3003,
      "ication": 3004,
      "Ġstehen": 3005,
      "ĠDem": 3006,
      "Ġinvest": 3007,
      "Ġvielen": 3008,
      "Ġdirekt": 3009,
      "Ġcommunity": 3010,
      "ommend": 3011,
      "Ġteil": 3012,
      "ured": 3013,
      "Ġjeden": 3014,
      "03": 3015,
      "Ġca": 3016,
      "ĠEd": 3017,
      "ĠHoch": 3018,
      "ĠSy": 3019,
      "Sie": 3020,
      "aps": 3021,
      "Ġdone": 3022,
      "ĠGod": 3023,
      "time": 3024,
      "Ġoft": 3025,
      "inner": 3026,
      "Ġkonnte": 3027,
      "icy": 3028,
      "ĠgroÃŁe": 3029,
      "ĠJul": 3030,
      "Ġfest": 3031,
      "09": 3032,
      "ruct": 3033,
      "Ġbecome": 3034,
      "Ġtem": 3035,
      "schaften": 3036,
      "Ġbody": 3037,
      "Ġgute": 3038,
      "Ġuntil": 3039,
      "07": 3040,
      "oment": 3041,
      "Ġ27": 3042,
      "gestellt": 3043,
      "Ġcreate": 3044,
      "lichkeit": 3045,
      "Ġest": 3046,
      "ĠBÃ¼": 3047,
      "wir": 3048,
      "ĠDar": 3049,
      "ĠChe": 3050,
      "ĠDec": 3051,
      "Ġ2011": 3052,
      "ĠSol": 3053,
      "Te": 3054,
      "ains": 3055,
      "IC": 3056,
      "ĠPost": 3057,
      "ĠThese": 3058,
      "ennen": 3059,
      "esten": 3060,
      "schafts": 3061,
      "uth": 3062,
      "Ã¶ffentlich": 3063,
      "Ġsug": 3064,
      "Ġgenau": 3065,
      "ĠThema": 3066,
      "Ġdich": 3067,
      "Ġans": 3068,
      "alif": 3069,
      "Ġetc": 3070,
      "aher": 3071,
      "Ġleft": 3072,
      "Ġlow": 3073,
      "ĠOne": 3074,
      "Ġ2022": 3075,
      "htt": 3076,
      "ĠFebru": 3077,
      "Ġspecific": 3078,
      "04": 3079,
      "lle": 3080,
      "Ġdenen": 3081,
      "cent": 3082,
      "ĠZusammen": 3083,
      "Ġwohl": 3084,
      "Ġorig": 3085,
      "ancial": 3086,
      "Ġ28": 3087,
      "Ġalready": 3088,
      "ĠWebsite": 3089,
      "Ġihm": 3090,
      "Ġmil": 3091,
      "ĠwÃ¤re": 3092,
      "laim": 3093,
      "Ġmajor": 3094,
      "Ġweb": 3095,
      "ĠKosten": 3096,
      "anies": 3097,
      "ĠService": 3098,
      "Ġquick": 3099,
      "ĠDo": 3100,
      "wards": 3101,
      "Ġ26": 3102,
      "Ġhouse": 3103,
      "Ġarbeit": 3104,
      "ruppe": 3105,
      "Ġaccount": 3106,
      "Ġocc": 3107,
      "Â»": 3108,
      "ley": 3109,
      "iled": 3110,
      "Ġdevelopment": 3111,
      "punkt": 3112,
      "Ġetwa": 3113,
      "ĠProzent": 3114,
      "Ġshort": 3115,
      "Ġdeal": 3116,
      "ĠAbs": 3117,
      "06": 3118,
      "Ġmean": 3119,
      "Ġenough": 3120,
      "feld": 3121,
      "Ġsuper": 3122,
      "ĠChar": 3123,
      "Ġparticular": 3124,
      "Ġhapp": 3125,
      "ĠSam": 3126,
      "ĠHome": 3127,
      "ĠVol": 3128,
      "Ġdein": 3129,
      "Ġfollowing": 3130,
      "ommun": 3131,
      "Ġletzten": 3132,
      "Ġeduc": 3133,
      "Ġopport": 3134,
      "osted": 3135,
      "RE": 3136,
      "Ġclean": 3137,
      "ĠTop": 3138,
      "ugend": 3139,
      "jek": 3140,
      "Ġexample": 3141,
      "ĠBen": 3142,
      "Ġever": 3143,
      "Ġrele": 3144,
      "Ġgeb": 3145,
      "ĠMag": 3146,
      "Ġnutz": 3147,
      "Ġcondition": 3148,
      "ĠBank": 3149,
      "Ġvideo": 3150,
      "ĠMich": 3151,
      "nov": 3152,
      "ĠFol": 3153,
      "En": 3154,
      "Ġkaufen": 3155,
      "Ġothers": 3156,
      "Ġelect": 3157,
      "ĠIde": 3158,
      "schlieÃŁ": 3159,
      "ĠEntwick": 3160,
      "Ġvisit": 3161,
      "inge": 3162,
      "ances": 3163,
      "ĠErfahr": 3164,
      "ying": 3165,
      "ĠBeispiel": 3166,
      "inen": 3167,
      "Ġgerade": 3168,
      "Ġcomes": 3169,
      "ertif": 3170,
      "Ġreturn": 3171,
      "tional": 3172,
      "Ġartic": 3173,
      "Ġdoing": 3174,
      "Ġteach": 3175,
      "27": 3176,
      "avon": 3177,
      "ĠYour": 3178,
      "ana": 3179,
      "uellen": 3180,
      "alten": 3181,
      "ĠNatur": 3182,
      "ĠSl": 3183,
      "Ġmethod": 3184,
      "08": 3185,
      "uren": 3186,
      "ĠWeg": 3187,
      "ĠGeb": 3188,
      "eint": 3189,
      "Ġlange": 3190,
      "Ġpage": 3191,
      "nehmer": 3192,
      "Ġcountry": 3193,
      "Ġdidn": 3194,
      "Ġperfect": 3195,
      "aken": 3196,
      "Ġdarauf": 3197,
      "osp": 3198,
      "esse": 3199,
      "ĠWochen": 3200,
      "ĠSel": 3201,
      "reiben": 3202,
      "irl": 3203,
      "erstell": 3204,
      "Ġgehen": 3205,
      "ĠStr": 3206,
      "aul": 3207,
      "Ġwind": 3208,
      "abor": 3209,
      "vironment": 3210,
      "Wenn": 3211,
      "urther": 3212,
      "Ġpresent": 3213,
      "Ġsollten": 3214,
      "ror": 3215,
      "Ġens": 3216,
      "Ġstay": 3217,
      "26": 3218,
      "Ġpurch": 3219,
      "ommer": 3220,
      "ufact": 3221,
      "Ġseason": 3222,
      "Ġsingle": 3223,
      "Ġpack": 3224,
      "partment": 3225,
      "Ġdirect": 3226,
      "auen": 3227,
      "ĠRegel": 3228,
      "ĠProdukt": 3229,
      "Ġmembers": 3230,
      "Ġcommun": 3231,
      "lling": 3232,
      "ĠÃ¤": 3233,
      "Ġeig": 3234,
      "Ġbestimm": 3235,
      "iges": 3236,
      "tigkeit": 3237,
      "Ġstark": 3238,
      "Ã¶rper": 3239,
      "alys": 3240,
      "Ã¤ter": 3241,
      "aby": 3242,
      "Ġunseren": 3243,
      "oman": 3244,
      "Ph": 3245,
      "bind": 3246,
      "Ġbenef": 3247,
      "ĠFrank": 3248,
      "Ġbesser": 3249,
      "Ġ2010": 3250,
      "45": 3251,
      "ĠMet": 3252,
      "Ġhol": 3253,
      "Ġacross": 3254,
      "ources": 3255,
      "De": 3256,
      "Ġsogar": 3257,
      "Ġcou": 3258,
      "Ġerste": 3259,
      "ĠDon": 3260,
      "iod": 3261,
      "Ġnight": 3262,
      "lobal": 3263,
      "schluss": 3264,
      "ĠSta": 3265,
      "Ġprob": 3266,
      "How": 3267,
      "Ġsearch": 3268,
      "achten": 3269,
      "ĠArbeits": 3270,
      "Ġgerne": 3271,
      "Ġtool": 3272,
      "hmen": 3273,
      "Ġbeiden": 3274,
      "Ġkey": 3275,
      "Ġposition": 3276,
      "ĠhÃ¤t": 3277,
      "Ġstrateg": 3278,
      "Wie": 3279,
      "Ġwissen": 3280,
      "tical": 3281,
      "AC": 3282,
      "ĠNational": 3283,
      "telle": 3284,
      "ught": 3285,
      "Ġbieten": 3286,
      "ags": 3287,
      "sych": 3288,
      "recht": 3289,
      "achsen": 3290,
      "ĠHar": 3291,
      "ĠJohn": 3292,
      "Ã¤m": 3293,
      "Ġmonths": 3294,
      "ĠEurop": 3295,
      "orten": 3296,
      "Ġrecord": 3297,
      "ecess": 3298,
      "ituation": 3299,
      "aid": 3300,
      "vert": 3301,
      "gth": 3302,
      "OS": 3303,
      "ĠFach": 3304,
      "Ġkannst": 3305,
      "Ġbrand": 3306,
      "stadt": 3307,
      "Ġeigenen": 3308,
      "Ġago": 3309,
      "Ġleg": 3310,
      "rÃ¤n": 3311,
      "ries": 3312,
      "Ġgeeign": 3313,
      "azon": 3314,
      "28": 3315,
      "zogen": 3316,
      "Ġbesonders": 3317,
      "Ġkurz": 3318,
      "itte": 3319,
      "iben": 3320,
      "ĠAc": 3321,
      "tire": 3322,
      "itch": 3323,
      "ĠLeist": 3324,
      "ĠKÃ¼": 3325,
      "ĠIhrer": 3326,
      "ette": 3327,
      "abel": 3328,
      "Ġcalled": 3329,
      "lished": 3330,
      "ufen": 3331,
      "Ġleast": 3332,
      "Ġindustry": 3333,
      "perty": 3334,
      "ktion": 3335,
      "Ġreason": 3336,
      "Ġseinem": 3337,
      "bereich": 3338,
      "ĠCity": 3339,
      "leg": 3340,
      "Ġhig": 3341,
      "Ġsy": 3342,
      "cker": 3343,
      "Nach": 3344,
      "Ġabsol": 3345,
      "AM": 3346,
      "Ġoffers": 3347,
      "ĠgroÃŁen": 3348,
      "ifen": 3349,
      "ĠschÃ¶n": 3350,
      "icial": 3351,
      "iker": 3352,
      "Ab": 3353,
      "ĠCO": 3354,
      "Ġdoesn": 3355,
      "Ġzus": 3356,
      "Ġrecommend": 3357,
      "imal": 3358,
      "ully": 3359,
      "Ġoptim": 3360,
      "ĠArtikel": 3361,
      "ourn": 3362,
      "ĠBas": 3363,
      "umm": 3364,
      "Ġstory": 3365,
      "isches": 3366,
      "ĠJu": 3367,
      "iday": 3368,
      "nahmen": 3369,
      "ĠSal": 3370,
      "ĠPlatz": 3371,
      "Ġshare": 3372,
      "ĠColle": 3373,
      "ET": 3374,
      "crip": 3375,
      "02": 3376,
      "inos": 3377,
      "Ġjede": 3378,
      "ĠlÃ¤s": 3379,
      "tes": 3380,
      "zieh": 3381,
      "affen": 3382,
      "Ġeinge": 3383,
      "urance": 3384,
      "Ġdownload": 3385,
      "Ã¶rder": 3386,
      "letz": 3387,
      "Ġlov": 3388,
      "Ã¼d": 3389,
      "ĠkÃ¶nnte": 3390,
      "Ã¤hlen": 3391,
      "leine": 3392,
      "Ġinvol": 3393,
      "Am": 3394,
      "mÃ¶glich": 3395,
      "ĠTV": 3396,
      "ĠOber": 3397,
      "zer": 3398,
      "Ġfuture": 3399,
      "ĠOur": 3400,
      "onnen": 3401,
      "ĠHowever": 3402,
      "ĠPra": 3403,
      "ĠKind": 3404,
      "Ġ29": 3405,
      "ĠPe": 3406,
      "Ġdavon": 3407,
      "ĠMarket": 3408,
      "Ġcity": 3409,
      "jects": 3410,
      "Ġmulti": 3411,
      "Ġeconom": 3412,
      "Ġwatch": 3413,
      "Ġonce": 3414,
      "Ġexpl": 3415,
      "cept": 3416,
      "utlich": 3417,
      "Ġcamp": 3418,
      "Ġzahl": 3419,
      "ĠverfÃ¼": 3420,
      "Ġhold": 3421,
      "Ã¼ns": 3422,
      "adem": 3423,
      "esent": 3424,
      "Ġmusic": 3425,
      "ahmen": 3426,
      "ĠBeit": 3427,
      "ĠFrage": 3428,
      "Ġredu": 3429,
      "most": 3430,
      "Ġdi": 3431,
      "ismus": 3432,
      "Ġgemacht": 3433,
      "ĠSa": 3434,
      "Ġspace": 3435,
      "Ġcompanies": 3436,
      "Ġstra": 3437,
      "entral": 3438,
      "Ġinternational": 3439,
      "stÃ¼ck": 3440,
      "Ġinstall": 3441,
      "Ġmillion": 3442,
      "Ġhours": 3443,
      "hren": 3444,
      "What": 3445,
      "ziel": 3446,
      "Ã¤fts": 3447,
      "wand": 3448,
      "Ãľ": 3449,
      "etzung": 3450,
      "Ġtype": 3451,
      "bung": 3452,
      "Ġclos": 3453,
      "Ġersch": 3454,
      "ĠBau": 3455,
      "Ġbar": 3456,
      "ference": 3457,
      "Ġwalk": 3458,
      "schein": 3459,
      "undheit": 3460,
      "rif": 3461,
      "mÃ¤ÃŁ": 3462,
      "ĠZug": 3463,
      "Ġcharac": 3464,
      "ĠRad": 3465,
      "schn": 3466,
      "etter": 3467,
      "wohn": 3468,
      "ĠBay": 3469,
      "ĠmÃ¶chte": 3470,
      "ĠUp": 3471,
      "ĠZiel": 3472,
      "Ġgovernment": 3473,
      "Ġenerg": 3474,
      "Ġgemeins": 3475,
      "Ġwomen": 3476,
      "anges": 3477,
      "ĠMitarbeit": 3478,
      "chsel": 3479,
      "29": 3480,
      "ĠGegen": 3481,
      "ĠCol": 3482,
      "ibr": 3483,
      "ĠKr": 3484,
      "ĠSpiele": 3485,
      "ĠBook": 3486,
      "Ex": 3487,
      "Ġnatur": 3488,
      "Ġmark": 3489,
      "ĠZu": 3490,
      "ĠlÃ¤sst": 3491,
      "Ġinform": 3492,
      "ĠRest": 3493,
      "licht": 3494,
      "bildung": 3495,
      "Ġfeatures": 3496,
      "spr": 3497,
      "rach": 3498,
      "ĠMÃ¤r": 3499,
      "ĠMarkt": 3500,
      "ĠSicherheit": 3501,
      "ama": 3502,
      "Ġresult": 3503,
      "Ġwon": 3504,
      "Ġflo": 3505,
      "Ġphys": 3506,
      "ĠKauf": 3507,
      "arte": 3508,
      "Ġstarted": 3509,
      "brauch": 3510,
      "ested": 3511,
      "ĠTele": 3512,
      "ada": 3513,
      "aging": 3514,
      "ondere": 3515,
      "Ġreport": 3516,
      "Ġtradition": 3517,
      "ĠBel": 3518,
      "ĠWorld": 3519,
      "Ġcomb": 3520,
      "stellen": 3521,
      "Ġthought": 3522,
      "Ġwa": 3523,
      "Ġdue": 3524,
      "ledge": 3525,
      "ĠhÃ¶": 3526,
      "ĠPlay": 3527,
      "ĠPlan": 3528,
      "ering": 3529,
      "ored": 3530,
      "ĠUnited": 3531,
      "Ġfield": 3532,
      "lace": 3533,
      "Ġpress": 3534,
      "Ġvol": 3535,
      "vest": 3536,
      "Ġcontact": 3537,
      "ĠMore": 3538,
      "Ġrepr": 3539,
      "ĠIhren": 3540,
      "ĠAir": 3541,
      "Ġstudy": 3542,
      "ubl": 3543,
      "Ġmeisten": 3544,
      "Ġgeeignet": 3545,
      "There": 3546,
      "asing": 3547,
      "ners": 3548,
      "ĠAmerican": 3549,
      "ilities": 3550,
      "resse": 3551,
      "Ġpur": 3552,
      "ĠLink": 3553,
      "Ġcontent": 3554,
      "ĠBeg": 3555,
      "Â«": 3556,
      "rÃ¼h": 3557,
      "Ã¼rger": 3558,
      "tian": 3559,
      "temp": 3560,
      "lement": 3561,
      "ĠMittel": 3562,
      "Ġyoung": 3563,
      "esellschaft": 3564,
      "ĠÂ·": 3565,
      "ĠSan": 3566,
      "Ġvalue": 3567,
      "Ġdigital": 3568,
      "Ġentwick": 3569,
      "Ġresults": 3570,
      "Ġiden": 3571,
      "Pl": 3572,
      "druck": 3573,
      "ĠViel": 3574,
      "ĠPort": 3575,
      "jÃ¤hr": 3576,
      "beding": 3577,
      "ĠImp": 3578,
      "Auf": 3579,
      "Ġvarious": 3580,
      "Ġessen": 3581,
      "ĠPM": 3582,
      "Ġzie": 3583,
      "Ġcame": 3584,
      "OT": 3585,
      "lau": 3586,
      "ends": 3587,
      "ĠSystem": 3588,
      "ĠFrauen": 3589,
      "Ġinteress": 3590,
      "ĠSec": 3591,
      "ĠFragen": 3592,
      "fass": 3593,
      "ands": 3594,
      "ĠBy": 3595,
      "fÃ¼hrt": 3596,
      "Ġeverything": 3597,
      "Ġdiscuss": 3598,
      "Ġnear": 3599,
      "Ġfall": 3600,
      "Ġinner": 3601,
      "ĠBra": 3602,
      "kon": 3603,
      "Ġdef": 3604,
      "35": 3605,
      "Ġgilt": 3606,
      "astic": 3607,
      "Ġenc": 3608,
      "Ġknown": 3609,
      "pe": 3610,
      "Ġintegr": 3611,
      "Ġpoten": 3612,
      "ĠYork": 3613,
      "Ġyet": 3614,
      "irc": 3615,
      "blick": 3616,
      "Ġhappen": 3617,
      "Ġzwar": 3618,
      "ĠGar": 3619,
      "Ġvia": 3620,
      "Ġrange": 3621,
      "Ġey": 3622,
      "Ġ60": 3623,
      "Ġfolg": 3624,
      "legt": 3625,
      "iti": 3626,
      "utions": 3627,
      "Ġunserem": 3628,
      "gress": 3629,
      "ĠIns": 3630,
      "ĠWest": 3631,
      "ĠEm": 3632,
      "cep": 3633,
      "ĠAls": 3634,
      "ĠEv": 3635,
      "ĠDenn": 3636,
      "ĠFer": 3637,
      "yd": 3638,
      "ĠRec": 3639,
      "Ġchallen": 3640,
      "iten": 3641,
      "wie": 3642,
      "Ġrespons": 3643,
      "Ġcent": 3644,
      "ĠWork": 3645,
      "ĠPf": 3646,
      "ĠHÃ¶": 3647,
      "ĠauÃŁer": 3648,
      "Ġwriting": 3649,
      "Ġur": 3650,
      "Ġunterschied": 3651,
      "ĠAg": 3652,
      "Ġeuch": 3653,
      "Ġextre": 3654,
      "ipment": 3655,
      "leist": 3656,
      "idence": 3657,
      "Ġheraus": 3658,
      "Ġverwend": 3659,
      "Ġpoin": 3660,
      "welt": 3661,
      "ari": 3662,
      "Ġcm": 3663,
      "ĠDi": 3664,
      "Ã¤ren": 3665,
      "ĠWeb": 3666,
      "ĠOct": 3667,
      "Ġcurrent": 3668,
      "Ġcustomers": 3669,
      "Ġhinter": 3670,
      "Ã¤tze": 3671,
      "inning": 3672,
      "ibility": 3673,
      "teile": 3674,
      "ĠHam": 3675,
      "ĠArch": 3676,
      "ĠPrÃ¤": 3677,
      "Ġneu": 3678,
      "cing": 3679,
      "Ġvier": 3680,
      "ĠpersÃ¶n": 3681,
      "Ġmanagement": 3682,
      "icherung": 3683,
      "ologie": 3684,
      "meld": 3685,
      "ĠChris": 3686,
      "Ġtechnology": 3687,
      "Ġaddress": 3688,
      "Ġgiven": 3689,
      "Ã¤us": 3690,
      "Ġissues": 3691,
      "Ġearly": 3692,
      "atte": 3693,
      "Ġpick": 3694,
      "ĠInf": 3695,
      "ĠFacebook": 3696,
      "ĠGemein": 3697,
      "Ġbreak": 3698,
      "auti": 3699,
      "Ġexc": 3700,
      "orted": 3701,
      "ension": 3702,
      "Ġsound": 3703,
      "zep": 3704,
      "Ġcommon": 3705,
      "ĠOut": 3706,
      "Ġrichtig": 3707,
      "aged": 3708,
      "Ġirgend": 3709,
      "emp": 3710,
      "Ġcut": 3711,
      "ulture": 3712,
      "ither": 3713,
      "Ġlog": 3714,
      "ael": 3715,
      "Ġcell": 3716,
      "Ġallerdings": 3717,
      "AP": 3718,
      "ĠFil": 3719,
      "anten": 3720,
      "ĠAM": 3721,
      "osition": 3722,
      ".âĢĿ": 3723,
      "raum": 3724,
      "Ġhuman": 3725,
      "Ġappear": 3726,
      "Ġnews": 3727,
      "ĠRegion": 3728,
      "ĠKir": 3729,
      "ĠOrt": 3730,
      "Ġerfolg": 3731,
      "ĠTer": 3732,
      "ĠUSA": 3733,
      "Ġtax": 3734,
      "liches": 3735,
      "mals": 3736,
      "Ġamong": 3737,
      "osen": 3738,
      "Ġblog": 3739,
      "Ġfindet": 3740,
      "Ġcard": 3741,
      "ecially": 3742,
      "ownload": 3743,
      "ĠMehr": 3744,
      "ĠMitglie": 3745,
      "Ġpassen": 3746,
      "Ġauthor": 3747,
      "ending": 3748,
      "Ġnormal": 3749,
      "ĠNorth": 3750,
      "leb": 3751,
      "And": 3752,
      "ðŁ": 3753,
      "Ġrelations": 3754,
      "Mail": 3755,
      "Ġinsp": 3756,
      "ĠGet": 3757,
      "Ġabove": 3758,
      "ĠBlack": 3759,
      "Ã¤ndern": 3760,
      "esehen": 3761,
      "ĠBlick": 3762,
      "ĠJugend": 3763,
      "cks": 3764,
      "oud": 3765,
      "date": 3766,
      "Ġexam": 3767,
      "Me": 3768,
      "ament": 3769,
      "Ġtook": 3770,
      "Ġquestion": 3771,
      "aren": 3772,
      "alter": 3773,
      "ĠTre": 3774,
      "oid": 3775,
      "ategor": 3776,
      "Ġtaking": 3777,
      "ĠEinsatz": 3778,
      "rÃ¤ge": 3779,
      "Ġbew": 3780,
      "chs": 3781,
      "ĠEmp": 3782,
      "Ġsimple": 3783,
      "Ġbelow": 3784,
      "hab": 3785,
      "ĠAf": 3786,
      "Ġrecht": 3787,
      "ĠMein": 3788,
      "ilar": 3789,
      "Ġbede": 3790,
      "umb": 3791,
      "Ġmax": 3792,
      "Ġengine": 3793,
      "Ġgab": 3794,
      "Ġsomeone": 3795,
      "ĠMÃ¼n": 3796,
      "ĠZe": 3797,
      "ĠErgeb": 3798,
      "Ġwhether": 3799,
      "Ġproper": 3800,
      "Ġpict": 3801,
      "though": 3802,
      "Ġfit": 3803,
      "ĠMillion": 3804,
      "Ġquestions": 3805,
      "Ġenvironment": 3806,
      "Ġmedia": 3807,
      "ĠTage": 3808,
      "Ġess": 3809,
      "Ġjeweil": 3810,
      "49": 3811,
      "ĠVerfÃ¼": 3812,
      "Ġtell": 3813,
      "Ġworks": 3814,
      "orge": 3815,
      "Ġmess": 3816,
      "Bei": 3817,
      "leben": 3818,
      "Ġbefind": 3819,
      "kten": 3820,
      "cer": 3821,
      "Ġear": 3822,
      "Ġprofessional": 3823,
      "ĠBu": 3824,
      "ĠweiÃŁ": 3825,
      "Ġfunction": 3826,
      "ustral": 3827,
      "ĠMusik": 3828,
      "amb": 3829,
      "ĠAuto": 3830,
      "All": 3831,
      "ĠII": 3832,
      "annten": 3833,
      "ĠBesuch": 3834,
      "ĠunterstÃ¼tz": 3835,
      "ĠEurope": 3836,
      "33": 3837,
      "aker": 3838,
      "ĠHel": 3839,
      "Ġfinancial": 3840,
      "Aus": 3841,
      "ktur": 3842,
      "ĠHaupt": 3843,
      "buch": 3844,
      "platz": 3845,
      "IL": 3846,
      "Ġlater": 3847,
      "Ġreach": 3848,
      "zimmer": 3849,
      "ĠState": 3850,
      "uhe": 3851,
      "ĠFilm": 3852,
      "ĠDire": 3853,
      "UN": 3854,
      "Ġwent": 3855,
      "Ġweniger": 3856,
      "ĠOf": 3857,
      "ises": 3858,
      "hing": 3859,
      "Ġnetwork": 3860,
      "ĠKunst": 3861,
      "Ġsagt": 3862,
      "New": 3863,
      "Ġprovides": 3864,
      "ĠSti": 3865,
      "When": 3866,
      "ĠProblem": 3867,
      "Ġidentif": 3868,
      "Ġbuilding": 3869,
      "ores": 3870,
      "Ġneben": 3871,
      "Ġseen": 3872,
      "ĠSelbst": 3873,
      "Ġwhole": 3874,
      "bach": 3875,
      "sterreich": 3876,
      "fon": 3877,
      "Ġpaar": 3878,
      "Ġentsprech": 3879,
      "Ġproperty": 3880,
      "ĠSil": 3881,
      "Ġpie": 3882,
      "autiful": 3883,
      "ĠCount": 3884,
      "zus": 3885,
      "mark": 3886,
      "Ġ=": 3887,
      "ĠProdukte": 3888,
      "oden": 3889,
      "ĠgehÃ¶r": 3890,
      "Ġ2009": 3891,
      "Ġperiod": 3892,
      "pre": 3893,
      "Ġenergy": 3894,
      "iber": 3895,
      "Ġaud": 3896,
      "ĠDen": 3897,
      "Ã¤hlt": 3898,
      "ires": 3899,
      "Ġhttps": 3900,
      "Ġemail": 3901,
      "Ġtravel": 3902,
      "ĠâĢ¢": 3903,
      "Ġminutes": 3904,
      "ĠMai": 3905,
      "ogn": 3906,
      "gemein": 3907,
      "ĠWahl": 3908,
      "Ġstrong": 3909,
      "gn": 3910,
      "olution": 3911,
      "ĠRahmen": 3912,
      "FÃ¼r": 3913,
      "ĠVideo": 3914,
      "mbH": 3915,
      "ĠFree": 3916,
      "ĠRep": 3917,
      "rift": 3918,
      "prÃ¼": 3919,
      "blems": 3920,
      "atten": 3921,
      "Ġsoftware": 3922,
      "Ġoil": 3923,
      "Ġmiss": 3924,
      "ĠFrau": 3925,
      "othe": 3926,
      "ued": 3927,
      "antwort": 3928,
      "Ġsimply": 3929,
      "Ġhatten": 3930,
      "jahr": 3931,
      "Ġclaim": 3932,
      "Ġfriends": 3933,
      "ĠBusiness": 3934,
      "ournal": 3935,
      "agt": 3936,
      "fully": 3937,
      "Ã¤che": 3938,
      "ĠVergleich": 3939,
      "gehen": 3940,
      "Ġrequired": 3941,
      "arf": 3942,
      "ĠdÃ¼r": 3943,
      "Was": 3944,
      "ĠSome": 3945,
      "ĠAlle": 3946,
      "oper": 3947,
      "fÃ¼hrung": 3948,
      "Ġbekommen": 3949,
      "Ġtotal": 3950,
      "Ġfive": 3951,
      "iesen": 3952,
      "Ġsignific": 3953,
      "Ġfurther": 3954,
      "ĠWindows": 3955,
      "Ġihrem": 3956,
      "Ġmanufact": 3957,
      "weiz": 3958,
      "ĠGeschÃ¤fts": 3959,
      "ĠOrgan": 3960,
      "ienen": 3961,
      "hof": 3962,
      "ĠSoc": 3963,
      "zentr": 3964,
      "ished": 3965,
      "Ġdiffic": 3966,
      "ĠCr": 3967,
      "Ġcompet": 3968,
      "Ġoptions": 3969,
      "einander": 3970,
      "ements": 3971,
      "Ġhistory": 3972,
      "ĠOkt": 3973,
      "Ġhowever": 3974,
      "new": 3975,
      "oring": 3976,
      "Ġeither": 3977,
      "Ġbelieve": 3978,
      "ĠCas": 3979,
      "Ġmeiner": 3980,
      "ĠStar": 3981,
      "Ġesp": 3982,
      "ĠHigh": 3983,
      "Ġleicht": 3984,
      "Ġbekannt": 3985,
      "Ġnecess": 3986,
      "hÃ¤ng": 3987,
      "ĠRechts": 3988,
      "ĠTH": 3989,
      "Ġmeas": 3990,
      "ieg": 3991,
      "aving": 3992,
      "ship": 3993,
      "Ġkeinen": 3994,
      "Ġverschiedenen": 3995,
      "coin": 3996,
      "ĠBlog": 3997,
      "ĠTour": 3998,
      "Ġtraining": 3999,
      "ĠIhrem": 4000,
      "hlt": 4001,
      "Ġtransp": 4002,
      "Ġexperien": 4003,
      "ians": 4004,
      "Ġmid": 4005,
      "come": 4006,
      "now": 4007,
      "Ġwonder": 4008,
      "Ġquite": 4009,
      "ĠMil": 4010,
      "stein": 4011,
      "Ġbad": 4012,
      "Ġconcern": 4013,
      "Ġidea": 4014,
      "Ġperformance": 4015,
      "Ġkleine": 4016,
      "Ġaufge": 4017,
      "OL": 4018,
      "Ã¤tzlich": 4019,
      "reiche": 4020,
      "Ġamount": 4021,
      "Ġsagen": 4022,
      "isiert": 4023,
      "ĠFuÃŁ": 4024,
      "):": 4025,
      "ĠAfter": 4026,
      "ĠCookies": 4027,
      "atform": 4028,
      "ĠSw": 4029,
      "Ġhope": 4030,
      "Ġred": 4031,
      "ĠChina": 4032,
      "ĠWissen": 4033,
      "leid": 4034,
      "Ġregion": 4035,
      "Ġkleinen": 4036,
      "Ġstaff": 4037,
      "Ġmass": 4038,
      "die": 4039,
      "ĠSouth": 4040,
      "lim": 4041,
      "heiten": 4042,
      "Ġrisk": 4043,
      "zept": 4044,
      "lesen": 4045,
      "erst": 4046,
      "Ġschwer": 4047,
      "ĠHin": 4048,
      "Ġcann": 4049,
      "Ġassist": 4050,
      "wendung": 4051,
      "ideos": 4052,
      "lag": 4053,
      "Ġach": 4054,
      "ĠJe": 4055,
      "Ġ198": 4056,
      "ĠAmazon": 4057,
      "Ġnehmen": 4058,
      "Ġdoc": 4059,
      "Posted": 4060,
      "anted": 4061,
      "Ġwww": 4062,
      "Ġanything": 4063,
      "ĠMc": 4064,
      "ĠGmbH": 4065,
      "Ġderen": 4066,
      "genommen": 4067,
      "olit": 4068,
      "'d": 4069,
      "anken": 4070,
      "ty": 4071,
      "Ġapproach": 4072,
      "itel": 4073,
      "Ã¤nge": 4074,
      "Ġcrit": 4075,
      "Ġclose": 4076,
      "ĠHealth": 4077,
      "zel": 4078,
      "Ġsagte": 4079,
      "Ġjoin": 4080,
      "Ġhttp": 4081,
      "flege": 4082,
      "ĠKomment": 4083,
      "36": 4084,
      "Ã¤nde": 4085,
      "ĠFunktion": 4086,
      "Ġseries": 4087,
      "iegel": 4088,
      "AD": 4089,
      "Ġinde": 4090,
      "Ġhalf": 4091,
      "Ġareas": 4092,
      "ING": 4093,
      "oe": 4094,
      "lei": 4095,
      "ators": 4096,
      "Ġfront": 4097,
      "bieter": 4098,
      "ĠSen": 4099,
      "ĠDoch": 4100,
      "ety": 4101,
      "rew": 4102,
      "roll": 4103,
      "Ã¼l": 4104,
      "Ġanalys": 4105,
      "ĠUs": 4106,
      "Ġstellen": 4107,
      "ĠJahres": 4108,
      "uc": 4109,
      "Ġsize": 4110,
      "Ġcoun": 4111,
      "Und": 4112,
      "sweise": 4113,
      "Ġlikely": 4114,
      "ĠGrÃ¼": 4115,
      "Ġworden": 4116,
      "ĠDet": 4117,
      "Ġmatch": 4118,
      "ĠBad": 4119,
      "Ġeigentlich": 4120,
      "ĠKe": 4121,
      "ĠSchool": 4122,
      "Ġihnen": 4123,
      "ĠMinuten": 4124,
      "ĠZwe": 4125,
      "Ġsollen": 4126,
      "Ġpaper": 4127,
      "ĠStart": 4128,
      "EC": 4129,
      "Ġkm": 4130,
      "ĠÂ«": 4131,
      "Ġfunktion": 4132,
      "ĠPC": 4133,
      "Ġneeded": 4134,
      "ĠNetz": 4135,
      "ĠTw": 4136,
      "ĠMaterial": 4137,
      "Ã¤chst": 4138,
      "ĠKap": 4139,
      "aily": 4140,
      "ĠKomp": 4141,
      "Ġpopular": 4142,
      "Ġverd": 4143,
      "sehen": 4144,
      "ĠWirt": 4145,
      "Ġebenfalls": 4146,
      "usher": 4147,
      "ĠNet": 4148,
      "ĠGold": 4149,
      "ĠReise": 4150,
      "ĠDank": 4151,
      "Ge": 4152,
      "ĠDam": 4153,
      "ĠEU": 4154,
      "ĠGroÃŁ": 4155,
      "Ġheart": 4156,
      "ĠSeiten": 4157,
      "ookie": 4158,
      "Ġdou": 4159,
      "ringen": 4160,
      "iar": 4161,
      "stead": 4162,
      "ritten": 4163,
      "geber": 4164,
      "lig": 4165,
      "bare": 4166,
      "ables": 4167,
      "ĠAlso": 4168,
      "Ġchoose": 4169,
      "ma": 4170,
      "omb": 4171,
      "iol": 4172,
      "55": 4173,
      "ĠTod": 4174,
      "lang": 4175,
      "ĠRead": 4176,
      "Ġfavor": 4177,
      "Ġclear": 4178,
      "face": 4179,
      "Ġyourself": 4180,
      "ĠtÃ¤": 4181,
      "haupt": 4182,
      "chan": 4183,
      "richten": 4184,
      "ruppen": 4185,
      "apan": 4186,
      "ĠSim": 4187,
      "Ġmobile": 4188,
      "ĠspÃ¤ter": 4189,
      "Ġespecially": 4190,
      "Ġ2008": 4191,
      "anced": 4192,
      "Ġseem": 4193,
      "ĠMill": 4194,
      "Home": 4195,
      "Ġterm": 4196,
      "Ġled": 4197,
      "Ġwahr": 4198,
      "Ġnutzen": 4199,
      "Ġmove": 4200,
      "Ġzeigt": 4201,
      "Ġpercent": 4202,
      "omes": 4203,
      "ĠÃ¶ff": 4204,
      "ika": 4205,
      "ĠPhil": 4206,
      "ĠBewert": 4207,
      "itzen": 4208,
      "ĠfÃ¼": 4209,
      "ehic": 4210,
      "ĠMarch": 4211,
      "ĠWel": 4212,
      "Ġoffice": 4213,
      "ĠPriv": 4214,
      "Ġface": 4215,
      "Ġeveryone": 4216,
      "omin": 4217,
      "Ġfilm": 4218,
      "ĠmÃ¶chten": 4219,
      "ĠPersonen": 4220,
      "ĠSupp": 4221,
      "Ġalmost": 4222,
      "ĠPal": 4223,
      "Ġproblems": 4224,
      "Ġverwendet": 4225,
      "isation": 4226,
      "Ġblack": 4227,
      "opy": 4228,
      "fung": 4229,
      "erin": 4230,
      "agn": 4231,
      "Ġeher": 4232,
      "ĠAcc": 4233,
      "ĠMr": 4234,
      "Ġverste": 4235,
      "Ġrelationship": 4236,
      "Ġdaher": 4237,
      "ĠZw": 4238,
      "Ðĵ": 4239,
      "unkte": 4240,
      "Ġentire": 4241,
      "crib": 4242,
      "Ġblock": 4243,
      "idge": 4244,
      "ĠMont": 4245,
      "Ġtable": 4246,
      "ĠProjekt": 4247,
      "App": 4248,
      "Ġcontra": 4249,
      "urg": 4250,
      "Ġissue": 4251,
      "anzen": 4252,
      "ĠPres": 4253,
      "Ġmodern": 4254,
      "OM": 4255,
      "bereit": 4256,
      "Ġcra": 4257,
      "ĠBeruf": 4258,
      "frei": 4259,
      "Ġ31": 4260,
      "ĠTex": 4261,
      "ĠSP": 4262,
      "izing": 4263,
      "Ġsignificant": 4264,
      "Ġplease": 4265,
      "Ġarticle": 4266,
      "Ġwegen": 4267,
      "Ġdeterm": 4268,
      "inz": 4269,
      "Ġcommit": 4270,
      "sere": 4271,
      "Ġprim": 4272,
      "Ġself": 4273,
      "IG": 4274,
      "annte": 4275,
      "Ġtrotz": 4276,
      "Ġla": 4277,
      "Ġapplication": 4278,
      "Ġliving": 4279,
      "Ġhelfen": 4280,
      "Ġways": 4281,
      "head": 4282,
      "ĠOktober": 4283,
      "tention": 4284,
      "ham": 4285,
      "Ġindividual": 4286,
      "Ġphone": 4287,
      "70": 4288,
      "ĠSpieler": 4289,
      "Ġreading": 4290,
      "ĠKre": 4291,
      "Ġport": 4292,
      "ias": 4293,
      "ĠRa": 4294,
      "ĠRaum": 4295,
      "Ġattra": 4296,
      "Ġoffen": 4297,
      "ĠVerfÃ¼gung": 4298,
      "Ġ%": 4299,
      "??": 4300,
      "ĠEnd": 4301,
      "Eine": 4302,
      "fÃ¤h": 4303,
      "Ġkam": 4304,
      "Ġcredit": 4305,
      "Ġprivate": 4306,
      "ĠGeschichte": 4307,
      "ios": 4308,
      "Ġprobably": 4309,
      "ĠAugen": 4310,
      "ules": 4311,
      "Ġautomat": 4312,
      "**": 4313,
      "Ġdating": 4314,
      "Ġregard": 4315,
      "Ġinfl": 4316,
      "amera": 4317,
      "Ġsens": 4318,
      "Ġprovided": 4319,
      "mel": 4320,
      "Ġusually": 4321,
      "ĠSoftware": 4322,
      "Ġrad": 4323,
      "ĠWebs": 4324,
      "Man": 4325,
      "tty": 4326,
      "ĠJack": 4327,
      "Ġincludes": 4328,
      "Ġtw": 4329,
      "igkeiten": 4330,
      "ĠCenter": 4331,
      "atest": 4332,
      "ĠJune": 4333,
      "ĠGerm": 4334,
      "Ġrate": 4335,
      "Ġtold": 4336,
      "anning": 4337,
      "apt": 4338,
      "Ġmodel": 4339,
      "Ġbeautiful": 4340,
      "Ġlar": 4341,
      "kn": 4342,
      "Ġtrying": 4343,
      "ided": 4344,
      "ĠTrans": 4345,
      "rieden": 4346,
      "baren": 4347,
      "eg": 4348,
      "Ġmoment": 4349,
      "ĠDez": 4350,
      "44": 4351,
      "ĠAntw": 4352,
      "roid": 4353,
      "Ġpub": 4354,
      "Ġdifficult": 4355,
      "irus": 4356,
      "ĠPolit": 4357,
      "Ġinves": 4358,
      "gency": 4359,
      "Ġschle": 4360,
      "erc": 4361,
      "ĠMillionen": 4362,
      "Ġdest": 4363,
      "times": 4364,
      "ĠVon": 4365,
      "lose": 4366,
      "Ġparticip": 4367,
      "ĠDann": 4368,
      "ĠRuss": 4369,
      "Ġdeg": 4370,
      "este": 4371,
      "ĠAuswahl": 4372,
      "ĠDav": 4373,
      "2020": 4374,
      "Ġdeutlich": 4375,
      "hÃ¶ren": 4376,
      "ray": 4377,
      "Ġhast": 4378,
      "box": 4379,
      "Ġ--": 4380,
      "Ġzun": 4381,
      "Ġmachine": 4382,
      "Ġsieht": 4383,
      "dle": 4384,
      "Ġhotel": 4385,
      "uÃŁen": 4386,
      "39": 4387,
      "38": 4388,
      "ĠMÃ¤rz": 4389,
      "Ġisn": 4390,
      "omaten": 4391,
      "ĠInternational": 4392,
      "zy": 4393,
      "Ġverm": 4394,
      "Ġfoot": 4395,
      "EM": 4396,
      "Ġthird": 4397,
      "ĠWoche": 4398,
      "Ġsoon": 4399,
      "Ġsecurity": 4400,
      "ĠInc": 4401,
      "Ġblo": 4402,
      "oul": 4403,
      "Ġincrease": 4404,
      "ĠschÃ¶": 4405,
      "zÃ¼": 4406,
      "ĠNow": 4407,
      "Ã¶sung": 4408,
      "ĠDienst": 4409,
      "put": 4410,
      "arian": 4411,
      "Ġdeine": 4412,
      "Vor": 4413,
      "istic": 4414,
      "fÃ¤l": 4415,
      "Ġachie": 4416,
      "Ġknowledge": 4417,
      "ĠAngebot": 4418,
      "ĠGesundheit": 4419,
      "Ġadded": 4420,
      "ampf": 4421,
      "ĠJuni": 4422,
      "To": 4423,
      "Ġsystems": 4424,
      "hler": 4425,
      "Ġensure": 4426,
      "kung": 4427,
      "DF": 4428,
      "amin": 4429,
      "aurant": 4430,
      "bor": 4431,
      "ĠTro": 4432,
      "hle": 4433,
      "Ã¶ÃŁe": 4434,
      "Ġvielleicht": 4435,
      "ĠSchn": 4436,
      "unn": 4437,
      "Ġtaken": 4438,
      "teilung": 4439,
      "stellungen": 4440,
      "andid": 4441,
      "ĠStunden": 4442,
      "wind": 4443,
      "Ġcomfort": 4444,
      "oes": 4445,
      "2021": 4446,
      "Ġfa": 4447,
      "isc": 4448,
      "Ġsofort": 4449,
      "37": 4450,
      "test": 4451,
      "une": 4452,
      "que": 4453,
      "ĠTor": 4454,
      "ica": 4455,
      "ĠIN": 4456,
      "ĠAustral": 4457,
      "ĠZuk": 4458,
      "Ġexpect": 4459,
      "lungs": 4460,
      "Ġdate": 4461,
      "rig": 4462,
      "Ġpoints": 4463,
      "ĠNeu": 4464,
      "ĠVeranst": 4465,
      "Ġplant": 4466,
      "fallen": 4467,
      "llig": 4468,
      "Ġlon": 4469,
      "AG": 4470,
      "ĠDan": 4471,
      "verage": 4472,
      "PS": 4473,
      "ĠHilfe": 4474,
      "Ġsimilar": 4475,
      "ĠKontakt": 4476,
      "usive": 4477,
      "ranken": 4478,
      "Ã¤mp": 4479,
      "Ġextrem": 4480,
      "Ġcoming": 4481,
      "usion": 4482,
      "ĠWert": 4483,
      "ĠDabei": 4484,
      "ague": 4485,
      "isik": 4486,
      "ĠBonus": 4487,
      "spro": 4488,
      "ĠHerz": 4489,
      "grams": 4490,
      "Ġprevious": 4491,
      "treten": 4492,
      "Ġangeb": 4493,
      "ĠGed": 4494,
      "Ġdesigned": 4495,
      "Ġcirc": 4496,
      "ĠIT": 4497,
      "Ġwin": 4498,
      "Ġbleibt": 4499,
      "ĠFern": 4500,
      "Ġwerde": 4501,
      "ĠRel": 4502,
      "Ã¤chlich": 4503,
      "Ġenter": 4504,
      "mas": 4505,
      "vis": 4506,
      "ĠnÃ¤chsten": 4507,
      "ĠPass": 4508,
      "ministr": 4509,
      "EO": 4510,
      "Ġcontinue": 4511,
      "llent": 4512,
      "100": 4513,
      "ĠCollege": 4514,
      "Ġweiterhin": 4515,
      "ĠWeiter": 4516,
      "Ġmarketing": 4517,
      "Ġpark": 4518,
      "utt": 4519,
      "Ġcustomer": 4520,
      "ĠLandes": 4521,
      "Ġmatter": 4522,
      "meister": 4523,
      "Ġconstru": 4524,
      "Ġage": 4525,
      "Ġstandard": 4526,
      "Ġbisher": 4527,
      "icks": 4528,
      "Ġanti": 4529,
      "Ġbesteht": 4530,
      "ĠBack": 4531,
      "ĠJob": 4532,
      "Ġsales": 4533,
      "Ġhalten": 4534,
      "ho": 4535,
      "board": 4536,
      "Ġdetails": 4537,
      "zeichnet": 4538,
      "Ġunique": 4539,
      "emand": 4540,
      "val": 4541,
      "ĠErw": 4542,
      "ĠMitarbeiter": 4543,
      "Ġnatural": 4544,
      "Ġelse": 4545,
      "ĠImm": 4546,
      "Ġball": 4547,
      "ĠDay": 4548,
      "ĠStates": 4549,
      "Ġabge": 4550,
      "where": 4551,
      "ilf": 4552,
      "Ġeducation": 4553,
      "Ġrather": 4554,
      "Ġplayers": 4555,
      "des": 4556,
      "halte": 4557,
      "mon": 4558,
      "statt": 4559,
      "ĠfÃ¼nf": 4560,
      "ondon": 4561,
      "na": 4562,
      "etten": 4563,
      "bert": 4564,
      "isierung": 4565,
      "rief": 4566,
      "Ġlos": 4567,
      "Ġuser": 4568,
      "Ġstore": 4569,
      "Ġestab": 4570,
      "ĠJuly": 4571,
      "ION": 4572,
      "Ġinnov": 4573,
      "Ġhigher": 4574,
      "immt": 4575,
      "ĠhÃ¤tte": 4576,
      "ĠKÃ¶rper": 4577,
      "ences": 4578,
      "ĠWinter": 4579,
      "oon": 4580,
      "Ġstruct": 4581,
      "ĠLa": 4582,
      "Ġtreatment": 4583,
      "Ġplatform": 4584,
      "urop": 4585,
      "Ġhistor": 4586,
      "Ġref": 4587,
      "ĠCons": 4588,
      "oker": 4589,
      "ĠLog": 4590,
      "ctive": 4591,
      "ĠbenÃ¶": 4592,
      "ĠNord": 4593,
      "warz": 4594,
      "ĠJuli": 4595,
      "Ġroad": 4596,
      "ĠDel": 4597,
      "48": 4598,
      "Ġremain": 4599,
      "Ġcharacter": 4600,
      "ĠgehÃ¶rt": 4601,
      "Ġaccording": 4602,
      "ĠSing": 4603,
      "haft": 4604,
      "ĠEntscheid": 4605,
      "ĠEntwicklung": 4606,
      "Ġloss": 4607,
      "arbeiten": 4608,
      "ĠTipp": 4609,
      "Ġvehic": 4610,
      "ĠermÃ¶glich": 4611,
      "Ġaction": 4612,
      "Ġarr": 4613,
      "Ġren": 4614,
      "Ġgeneral": 4615,
      "Ġliegen": 4616,
      "ĠExper": 4617,
      "tragen": 4618,
      "Ġnational": 4619,
      "ĠReview": 4620,
      "ified": 4621,
      "Ġrole": 4622,
      "vention": 4623,
      "Ġ80": 4624,
      "ichtet": 4625,
      "izin": 4626,
      "Ġinside": 4627,
      "Ġwanted": 4628,
      "Ġbleiben": 4629,
      "ĠMa": 4630,
      "Ġsepar": 4631,
      "ĠKo": 4632,
      "Ġstyle": 4633,
      "Ġdeliver": 4634,
      "Ġoriginal": 4635,
      "ĠWei": 4636,
      "Ġusers": 4637,
      "Ġchanges": 4638,
      "ĠGlÃ¼ck": 4639,
      "Ġforward": 4640,
      "Ġequipment": 4641,
      "ĠhÃ¤uf": 4642,
      "lÃ¤ss": 4643,
      "haf": 4644,
      "Ġhous": 4645,
      "Ġworth": 4646,
      "frage": 4647,
      "itÃ¤ten": 4648,
      "Ġinsurance": 4649,
      "utet": 4650,
      "gesamt": 4651,
      "75": 4652,
      "aste": 4653,
      "ĠCD": 4654,
      "ĠHerstell": 4655,
      "Ġvo": 4656,
      "Ġverschiedene": 4657,
      "ĠEnergie": 4658,
      "estens": 4659,
      "Ġcaus": 4660,
      "Ġeinzel": 4661,
      "sequ": 4662,
      "Ġoption": 4663,
      "ĠdarÃ¼ber": 4664,
      "ĠGarten": 4665,
      "osed": 4666,
      "lier": 4667,
      "ĠBilder": 4668,
      "Ġstre": 4669,
      "Ġinj": 4670,
      "ĠSommer": 4671,
      "Ġstock": 4672,
      "Ġofficial": 4673,
      "Ġbox": 4674,
      "Ġdarf": 4675,
      "Ġmer": 4676,
      "Ġdefinit": 4677,
      "ĠTher": 4678,
      "Ġtakes": 4679,
      "Ġexact": 4680,
      "Ġneg": 4681,
      "Ġopportunity": 4682,
      "Ġannoun": 4683,
      "Ġutil": 4684,
      "ĠBit": 4685,
      "Ġbank": 4686,
      "len": 4687,
      "bleme": 4688,
      "ĠprÃ¤": 4689,
      "ĠFinanz": 4690,
      "uel": 4691,
      "Ġ90": 4692,
      "Ġpretty": 4693,
      "ĠSmart": 4694,
      "isse": 4695,
      "Ġcorre": 4696,
      "Ġintro": 4697,
      "IP": 4698,
      "Ġevents": 4699,
      "ĠJanuary": 4700,
      "Ġanswer": 4701,
      "ĠQualitÃ¤t": 4702,
      "meldung": 4703,
      "Ġtext": 4704,
      "icient": 4705,
      "Ġsle": 4706,
      "anger": 4707,
      "ĠgÃ¼ns": 4708,
      "will": 4709,
      "zahlung": 4710,
      "Ġlearning": 4711,
      "ĠFamilie": 4712,
      "ernen": 4713,
      "phone": 4714,
      "46": 4715,
      "Ġcoll": 4716,
      "Ġtrue": 4717,
      "pack": 4718,
      "ĠProgramm": 4719,
      "range": 4720,
      "Ġklar": 4721,
      "Ġtrack": 4722,
      "Ġlay": 4723,
      "Ġwhite": 4724,
      "uals": 4725,
      "Ã¼ler": 4726,
      "rict": 4727,
      "xis": 4728,
      "Ġstren": 4729,
      "ĠheiÃŁ": 4730,
      "GB": 4731,
      "ĠLauf": 4732,
      "ĠUK": 4733,
      "Ġdrive": 4734,
      "ĠZus": 4735,
      "techn": 4736,
      "zuf": 4737,
      "Ġfinal": 4738,
      "ikan": 4739,
      "Ġmeinen": 4740,
      "ĠÂ§": 4741,
      "Ġwords": 4742,
      "IM": 4743,
      "Ġcreated": 4744,
      "eitere": 4745,
      "Ġadditional": 4746,
      "mpt": 4747,
      "Ġcomputer": 4748,
      "Ġmedical": 4749,
      "rowser": 4750,
      "ĠSchweiz": 4751,
      "Ġdeutschen": 4752,
      "ĠSee": 4753,
      "Ġneues": 4754,
      "leitung": 4755,
      "78": 4756,
      "Ġstellt": 4757,
      "Ġregular": 4758,
      "Ġdepend": 4759,
      "imum": 4760,
      "ĠSub": 4761,
      "ĠGroup": 4762,
      "31": 4763,
      "Ġpotential": 4764,
      "Ġkennen": 4765,
      "ĠMicro": 4766,
      "halts": 4767,
      "ĠEltern": 4768,
      "Ġtit": 4769,
      "ĠBÃ¼rger": 4770,
      "Ġthroughout": 4771,
      "Ġweiteren": 4772,
      "Ġoutside": 4773,
      "LE": 4774,
      "wood": 4775,
      "ĠGel": 4776,
      "atory": 4777,
      "ĠAnfang": 4778,
      "Ġgrowth": 4779,
      "action": 4780,
      "ĠOctober": 4781,
      "ĠManagement": 4782,
      "ĠZimmer": 4783,
      "ĠJanuar": 4784,
      "arr": 4785,
      "plan": 4786,
      "itÃ¤ts": 4787,
      "asen": 4788,
      "Ġprior": 4789,
      "Ġzeigen": 4790,
      "Ġimpact": 4791,
      "Ġill": 4792,
      "year": 4793,
      "ĠFÃ¤": 4794,
      "orden": 4795,
      "Ġpm": 4796,
      "But": 4797,
      "Ġhinaus": 4798,
      "Ġsix": 4799,
      "ĠDezember": 4800,
      "Ġfeature": 4801,
      "Ġcontain": 4802,
      "ikation": 4803,
      "Ġgirl": 4804,
      "Ġjedem": 4805,
      "ĠInvest": 4806,
      "ungsk": 4807,
      "cement": 4808,
      "lieÃŁen": 4809,
      "atic": 4810,
      "Ġweeks": 4811,
      "ml": 4812,
      "Ġaltern": 4813,
      "omas": 4814,
      "ugg": 4815,
      "ĠPartner": 4816,
      "Ġbringen": 4817,
      "Ġproduction": 4818,
      "ĠerklÃ¤r": 4819,
      "ĠServices": 4820,
      "hib": 4821,
      "utung": 4822,
      "Ġparty": 4823,
      "ĠZum": 4824,
      "Ġcolor": 4825,
      "minister": 4826,
      "Mar": 4827,
      "Ġmill": 4828,
      "ĠSuper": 4829,
      "Ġtele": 4830,
      "ym": 4831,
      "Ġswe": 4832,
      "Ġdog": 4833,
      "ĠLin": 4834,
      "usst": 4835,
      "handlung": 4836,
      "Ġkids": 4837,
      "oke": 4838,
      "Ġfix": 4839,
      "Ġmoder": 4840,
      "Ġassoci": 4841,
      "Ġessay": 4842,
      "Ġrunning": 4843,
      "ĠKopf": 4844,
      "ĠWerk": 4845,
      "angeb": 4846,
      "ĠGewinn": 4847,
      "Ġleider": 4848,
      "Ġdro": 4849,
      "Ġcy": 4850,
      "ĠReal": 4851,
      "Ġfire": 4852,
      "azing": 4853,
      "unch": 4854,
      "ĠMichael": 4855,
      "ival": 4856,
      "tiger": 4857,
      "arbeitung": 4858,
      "airs": 4859,
      "Ġinternet": 4860,
      "Ġsites": 4861,
      "2019": 4862,
      "ja": 4863,
      "ĠKommun": 4864,
      "Ġhon": 4865,
      "Ġcool": 4866,
      "Ġitems": 4867,
      "ĠVerein": 4868,
      "timmung": 4869,
      "pression": 4870,
      "opping": 4871,
      "ĠMedien": 4872,
      "Ġeasily": 4873,
      "ĠPaul": 4874,
      "Ġcurrently": 4875,
      "cil": 4876,
      "Ġunivers": 4877,
      "schnitt": 4878,
      "Ġord": 4879,
      "Ġ35": 4880,
      "Ġnice": 4881,
      "rieg": 4882,
      "My": 4883,
      "Ġang": 4884,
      "Ġversion": 4885,
      "ĠNeben": 4886,
      "Ġkit": 4887,
      "Ġpositive": 4888,
      "uage": 4889,
      "Ġreceive": 4890,
      "Ġlonger": 4891,
      "Â®": 4892,
      "Ġbevor": 4893,
      "hem": 4894,
      "Ġmaintain": 4895,
      "By": 4896,
      "Ġrecent": 4897,
      "90": 4898,
      "Ġ2007": 4899,
      "Ġnothing": 4900,
      "Ġstep": 4901,
      "ĠRich": 4902,
      "Ġcouple": 4903,
      "cel": 4904,
      "ienten": 4905,
      "Ġhappy": 4906,
      "ĠHouse": 4907,
      "Ġskills": 4908,
      "wirt": 4909,
      "von": 4910,
      "UT": 4911,
      "Ġshows": 4912,
      "arter": 4913,
      "emin": 4914,
      "Ġregel": 4915,
      "Bl": 4916,
      "Ġready": 4917,
      "bindung": 4918,
      "ĠHis": 4919,
      "ĠCB": 4920,
      "âĢ¢": 4921,
      "aming": 4922,
      "Ġpan": 4923,
      "65": 4924,
      "ichtung": 4925,
      "Ġbi": 4926,
      "ĠBa": 4927,
      "Ġtarge": 4928,
      "Ġguten": 4929,
      "Ġinnerhalb": 4930,
      "Ã¼nst": 4931,
      "34": 4932,
      "ĠÐ": 4933,
      "ĠIS": 4934,
      "ĠBrand": 4935,
      "ĠPolize": 4936,
      "Ã¶ffentlicht": 4937,
      "fÃ¼hl": 4938,
      "Ġcannot": 4939,
      "based": 4940,
      "inne": 4941,
      "Ġsale": 4942,
      "Ġstop": 4943,
      "Ġprograms": 4944,
      "ĠDownload": 4945,
      "Ġanyone": 4946,
      "ĠFamilien": 4947,
      "Ġchoice": 4948,
      "ensive": 4949,
      "Ġterms": 4950,
      "Ġfig": 4951,
      "besch": 4952,
      "Ġseems": 4953,
      "ĠGott": 4954,
      "Ġgesam": 4955,
      "ipe": 4956,
      "rache": 4957,
      "Ġvariety": 4958,
      "indest": 4959,
      "Ġscreen": 4960,
      "ĠBeitrag": 4961,
      "yer": 4962,
      "Ġbehind": 4963,
      "ĠdaÃŁ": 4964,
      "ĠHal": 4965,
      "Ġsil": 4966,
      "vely": 4967,
      "Ġlower": 4968,
      "aler": 4969,
      "Ġpolicy": 4970,
      "irit": 4971,
      "ĠHerr": 4972,
      "Ġhost": 4973,
      "Ġconst": 4974,
      "ĠMac": 4975,
      "iler": 4976,
      "tigung": 4977,
      "ara": 4978,
      "ĠErfolg": 4979,
      "ynam": 4980,
      "Ġactivities": 4981,
      "Ġasked": 4982,
      "Ġ@": 4983,
      "ecu": 4984,
      "Ġ?": 4985,
      "Ġhit": 4986,
      "Ġpractice": 4987,
      "isted": 4988,
      "Ġlinks": 4989,
      "adurch": 4990,
      "Ġvac": 4991,
      "Ġearn": 4992,
      "ĠNÃ¤": 4993,
      "isting": 4994,
      "Ġground": 4995,
      "Ġging": 4996,
      "mitt": 4997,
      "ĠZukunft": 4998,
      "ira": 4999,
      "spruch": 5000,
      "Wer": 5001,
      "95": 5002,
      "spl": 5003,
      "bank": 5004,
      "ĠLiefer": 5005,
      "vant": 5006,
      "ĠLondon": 5007,
      "ĠMart": 5008,
      "Ġlocation": 5009,
      "ĠFrom": 5010,
      "Ġupon": 5011,
      "besondere": 5012,
      "edia": 5013,
      "orning": 5014,
      "schule": 5015,
      "RO": 5016,
      "anging": 5017,
      "ĠAN": 5018,
      "elebr": 5019,
      "32": 5020,
      "ĠHall": 5021,
      "lungen": 5022,
      "asche": 5023,
      "Ġweight": 5024,
      "Ġerforder": 5025,
      "ga": 5026,
      "ĠGast": 5027,
      "Ġability": 5028,
      "Um": 5029,
      "ĠFort": 5030,
      "Ġerg": 5031,
      "Ġexpla": 5032,
      "zahlen": 5033,
      "folgt": 5034,
      "wohl": 5035,
      "icate": 5036,
      "ĠGÃ¤": 5037,
      "Ġlock": 5038,
      "Ġdivers": 5039,
      "ĠKultur": 5040,
      "Ġfair": 5041,
      "Ġtouch": 5042,
      "ological": 5043,
      "ĠLive": 5044,
      "ery": 5045,
      "ĠMÃ¤n": 5046,
      "tr": 5047,
      "Ġquickly": 5048,
      "Ġeigene": 5049,
      "endes": 5050,
      "Ġung": 5051,
      "ĠHolz": 5052,
      "ĠPress": 5053,
      "schul": 5054,
      "Ġtypes": 5055,
      "Ġkont": 5056,
      "Ġsor": 5057,
      "Ġregul": 5058,
      "illed": 5059,
      "ĠðŁ": 5060,
      "ounts": 5061,
      "Ġclick": 5062,
      "Ġmember": 5063,
      "kunft": 5064,
      "geld": 5065,
      "ĠTem": 5066,
      "mus": 5067,
      "cting": 5068,
      "nach": 5069,
      "Ġpatients": 5070,
      "Ã¤te": 5071,
      "coming": 5072,
      "unt": 5073,
      "Ġleave": 5074,
      "ĠMaÃŁ": 5075,
      "Ġwall": 5076,
      "eds": 5077,
      "tively": 5078,
      "Ġglobal": 5079,
      "ĠHere": 5080,
      "ington": 5081,
      "Ġclients": 5082,
      "Se": 5083,
      "Ġmehrere": 5084,
      "Ġganze": 5085,
      "zeigen": 5086,
      "ĠST": 5087,
      "Ġconsum": 5088,
      "wor": 5089,
      "fehl": 5090,
      "tended": 5091,
      "aschen": 5092,
      "aunch": 5093,
      "ĠDecember": 5094,
      "sprÃ¼": 5095,
      "ĠNicht": 5096,
      "ĠSand": 5097,
      "Ġoben": 5098,
      "Ġapply": 5099,
      "Ġrelated": 5100,
      "ĠCounty": 5101,
      "Ġbott": 5102,
      "Ġple": 5103,
      "2018": 5104,
      "ĠEnglish": 5105,
      "Ġskin": 5106,
      "ĠEink": 5107,
      "Ġrein": 5108,
      "Ġep": 5109,
      "Ġbooks": 5110,
      "iction": 5111,
      "ĠPap": 5112,
      "ĠDruck": 5113,
      "47": 5114,
      "stre": 5115,
      "Ġwid": 5116,
      "nes": 5117,
      "wehr": 5118,
      "atives": 5119,
      "Ġcode": 5120,
      "estiv": 5121,
      "Ġcause": 5122,
      "2017": 5123,
      "ĠTÃ¼r": 5124,
      "Ġverwenden": 5125,
      "Ġprep": 5126,
      "Ġsal": 5127,
      "zeitig": 5128,
      "Auch": 5129,
      "Ġ70": 5130,
      "Ġcharge": 5131,
      "Ġimprove": 5132,
      "Ġhot": 5133,
      "Ġdescrib": 5134,
      "Ġlegal": 5135,
      "ville": 5136,
      "Ġbeispiel": 5137,
      "zeiten": 5138,
      "Ġbal": 5139,
      "Ġwich": 5140,
      "Ġobs": 5141,
      "laf": 5142,
      "ees": 5143,
      "Ġzuf": 5144,
      "ahren": 5145,
      "lett": 5146,
      "Ġeinges": 5147,
      "roffen": 5148,
      "klÃ¤rung": 5149,
      "Ġther": 5150,
      "Ġbitte": 5151,
      "Ġjemand": 5152,
      "riebs": 5153,
      "ĠIndia": 5154,
      "ervice": 5155,
      "Ġwide": 5156,
      "aktion": 5157,
      "walt": 5158,
      "auber": 5159,
      "ca": 5160,
      "ples": 5161,
      "urf": 5162,
      "ĠBand": 5163,
      "Tra": 5164,
      "At": 5165,
      "Ã¶hn": 5166,
      "erve": 5167,
      "Ġreceived": 5168,
      "âĤ¬": 5169,
      "Ġcontrib": 5170,
      "Ġhear": 5171,
      "elves": 5172,
      "Ġfile": 5173,
      "Ġleben": 5174,
      "ĠAre": 5175,
      "Ġstudent": 5176,
      "Ġmix": 5177,
      "geschlossen": 5178,
      "Ġplaying": 5179,
      "alu": 5180,
      "Ġbereit": 5181,
      "Ã¼hren": 5182,
      "Ġnecessary": 5183,
      "ĠLehr": 5184,
      "udget": 5185,
      "renz": 5186,
      "Pr": 5187,
      "ĠCour": 5188,
      "Ġlatest": 5189,
      "Ġfrei": 5190,
      "Ġremember": 5191,
      "ĠLage": 5192,
      "dienst": 5193,
      "Ġtour": 5194,
      "Ġlocated": 5195,
      "weisen": 5196,
      "Ġhandelt": 5197,
      "utzt": 5198,
      "geh": 5199,
      "ĠEinzel": 5200,
      "ĠJust": 5201,
      "Ġrefer": 5202,
      "ichtlich": 5203,
      "ĠNamen": 5204,
      "Ġtown": 5205,
      "ĠDigital": 5206,
      "Ġmeinem": 5207,
      "itation": 5208,
      "ĠMotor": 5209,
      "Ġcases": 5210,
      "Ġones": 5211,
      "ĠPay": 5212,
      "ground": 5213,
      "wegen": 5214,
      "ugs": 5215,
      "Ġcareer": 5216,
      "Fe": 5217,
      "tiven": 5218,
      "ĠUms": 5219,
      "ĠAbend": 5220,
      "ĠJapan": 5221,
      "ĠLes": 5222,
      "Ġgemeinsam": 5223,
      "Ġsuchen": 5224,
      "Ġsowohl": 5225,
      "Ġerk": 5226,
      "Ġeffective": 5227,
      "Ġbenefits": 5228,
      "ĠHaut": 5229,
      "izes": 5230,
      "ams": 5231,
      "Ġcosts": 5232,
      "ervor": 5233,
      "ziehen": 5234,
      "ĠNie": 5235,
      "ĠThemen": 5236,
      "ĠerhÃ¤lt": 5237,
      "iation": 5238,
      "Ġrecogn": 5239,
      "Ġasp": 5240,
      "ĠForsch": 5241,
      "Cl": 5242,
      "rec": 5243,
      "ĠCamp": 5244,
      "Ġdecision": 5245,
      "Ġleaders": 5246,
      "oms": 5247,
      "ĠSchutz": 5248,
      "rechen": 5249,
      "hens": 5250,
      "Ġexcellent": 5251,
      "za": 5252,
      "pose": 5253,
      "2016": 5254,
      "ospital": 5255,
      "Ġagre": 5256,
      "ĠPersonal": 5257,
      "rÃ¼ck": 5258,
      "straÃŁe": 5259,
      "Ġideas": 5260,
      "ĠAnaly": 5261,
      "Ġrepresent": 5262,
      "ruf": 5263,
      "ĠKat": 5264,
      "Ġdiscover": 5265,
      "ector": 5266,
      "uit": 5267,
      "Ġdeath": 5268,
      "Ġ500": 5269,
      "ĠAmerica": 5270,
      "ĠRem": 5271,
      "Ġprojects": 5272,
      "Ġheld": 5273,
      "scht": 5274,
      "Ġsetzen": 5275,
      "Ġrecently": 5276,
      "hein": 5277,
      "odes": 5278,
      "hood": 5279,
      "ehm": 5280,
      "soft": 5281,
      "Ġmention": 5282,
      "atung": 5283,
      "ĠHÃ¶he": 5284,
      "Ġsen": 5285,
      "Ġpurchase": 5286,
      "inden": 5287,
      "Ġ09": 5288,
      "Ġwish": 5289,
      "Ġkonnten": 5290,
      "Ġfer": 5291,
      "ĠMor": 5292,
      "ĠFebruar": 5293,
      "Ġwarm": 5294,
      "wÃ¼r": 5295,
      "ĠfrÃ¼": 5296,
      "https": 5297,
      "Ġlesen": 5298,
      "ka": 5299,
      "forderungen": 5300,
      "ausch": 5301,
      "ford": 5302,
      "ĠElekt": 5303,
      "ĠWell": 5304,
      "mbol": 5305,
      "With": 5306,
      "ĠLuft": 5307,
      "ĠTerm": 5308,
      "Ġbuilt": 5309,
      "Ġ08": 5310,
      "mium": 5311,
      "Ġna": 5312,
      "ochen": 5313,
      "ĠPower": 5314,
      "ĠClub": 5315,
      "Ġcollege": 5316,
      "Ġmaterials": 5317,
      "ĠHeim": 5318,
      "ustrie": 5319,
      "Ġsafe": 5320,
      "Ġwrite": 5321,
      "IV": 5322,
      "Ġsex": 5323,
      "avy": 5324,
      "Ġideal": 5325,
      "ads": 5326,
      "Ġhair": 5327,
      "onntag": 5328,
      "Ġgold": 5329,
      "Ġkaum": 5330,
      "ĠCle": 5331,
      "ĠMarketing": 5332,
      "ĠAfric": 5333,
      "Ġarch": 5334,
      "Ġconditions": 5335,
      "Our": 5336,
      "Ġwollte": 5337,
      "onse": 5338,
      "text": 5339,
      "ĠFlor": 5340,
      "Ġimm": 5341,
      "Ġchance": 5342,
      "ida": 5343,
      "Ġleading": 5344,
      "Ġseek": 5345,
      "mail": 5346,
      "ĠEigen": 5347,
      "Ġsozial": 5348,
      "iser": 5349,
      "Ġboard": 5350,
      "Ġallows": 5351,
      "ĠAng": 5352,
      "ativen": 5353,
      "Ġaktiv": 5354,
      "ĠÃ¶": 5355,
      "ĠNacht": 5356,
      "Ġattack": 5357,
      "ications": 5358,
      "Ġunbe": 5359,
      "aign": 5360,
      "asons": 5361,
      "ĠWhile": 5362,
      "ooth": 5363,
      "laut": 5364,
      "Ste": 5365,
      "Ġcenter": 5366,
      "Ġcomment": 5367,
      "Ġarbeiten": 5368,
      "Ġdevice": 5369,
      "Ġlooks": 5370,
      "ivil": 5371,
      "Ġsolution": 5372,
      "ĠStÃ¼ck": 5373,
      "ĠHinter": 5374,
      "osph": 5375,
      "ichen": 5376,
      "http": 5377,
      "Ġparts": 5378,
      "Ġcertainly": 5379,
      "ĠÃ¼berhaupt": 5380,
      "ĠTagen": 5381,
      "orage": 5382,
      "utr": 5383,
      "urer": 5384,
      "aser": 5385,
      "griff": 5386,
      "ĠAkt": 5387,
      "Ber": 5388,
      "OP": 5389,
      ",âĢĿ": 5390,
      "unsch": 5391,
      "mission": 5392,
      "Ġrequirements": 5393,
      "Ġpsych": 5394,
      "tellung": 5395,
      "Ġsett": 5396,
      "change": 5397,
      "Aut": 5398,
      "ĠProgram": 5399,
      "gere": 5400,
      "ierungs": 5401,
      "ĠApple": 5402,
      "letter": 5403,
      "ĠMer": 5404,
      "TS": 5405,
      "bum": 5406,
      "met": 5407,
      "ĠWeihn": 5408,
      "Ġtools": 5409,
      "ĠfÃ¼hren": 5410,
      "Ġvirt": 5411,
      "ĠCap": 5412,
      "âĢ¦]": 5413,
      "Ġlevels": 5414,
      "preis": 5415,
      "scheiden": 5416,
      "ĠFebruary": 5417,
      "ĠBrit": 5418,
      "ĠKlein": 5419,
      "bit": 5420,
      "Ġlives": 5421,
      "ĠDatenschutz": 5422,
      "Ġeins": 5423,
      "word": 5424,
      "inf": 5425,
      "Ġdaran": 5426,
      "ĠCorona": 5427,
      "ĠgegenÃ¼ber": 5428,
      "ĠJes": 5429,
      "itze": 5430,
      "Ġverk": 5431,
      "estern": 5432,
      "Ġsense": 5433,
      "ĠKin": 5434,
      "ritte": 5435,
      "ĠEssen": 5436,
      "asten": 5437,
      "ros": 5438,
      "ĠKing": 5439,
      "Ġincluded": 5440,
      "Ġgek": 5441,
      "bon": 5442,
      "ĠPet": 5443,
      "ĠSchm": 5444,
      "mercial": 5445,
      "Ġhor": 5446,
      "iable": 5447,
      "ĠSon": 5448,
      "irth": 5449,
      "ĠDamit": 5450,
      "kungen": 5451,
      "ils": 5452,
      "Ġbus": 5453,
      "ĠUl": 5454,
      "Ġdeep": 5455,
      "Ġamazing": 5456,
      "Ġgain": 5457,
      "Ġobtain": 5458,
      "ĠKÃ¶n": 5459,
      "ĠMain": 5460,
      "Ġmm": 5461,
      "Ġanalysis": 5462,
      "ĠTyp": 5463,
      "sprech": 5464,
      "fasst": 5465,
      "Ġarg": 5466,
      "loss": 5467,
      "Ġbeispielsweise": 5468,
      "AB": 5469,
      "Ġupd": 5470,
      "ĠJetzt": 5471,
      "Ġlate": 5472,
      "auss": 5473,
      "Ġfal": 5474,
      "Ġsafety": 5475,
      "eless": 5476,
      "ĠDir": 5477,
      "Ġsugges": 5478,
      "Ġflex": 5479,
      "down": 5480,
      "lam": 5481,
      "mod": 5482,
      "rael": 5483,
      "mÃ¤ÃŁig": 5484,
      "Ġfeed": 5485,
      "Ġbase": 5486,
      "alien": 5487,
      "Ġwood": 5488,
      "vey": 5489,
      "ĠMach": 5490,
      "Ġjedes": 5491,
      "Ãĸ": 5492,
      "ĠRock": 5493,
      "Ġsent": 5494,
      "Ġimage": 5495,
      "ĠPan": 5496,
      "akter": 5497,
      "anner": 5498,
      "uments": 5499,
      "ĠPrÃ¼": 5500,
      "eller": 5501,
      "ekte": 5502,
      "Ġhuge": 5503,
      "arbeitet": 5504,
      "Ġsource": 5505,
      "ico": 5506,
      "ĠRoll": 5507,
      "-,": 5508,
      "ural": 5509,
      "Ġhighly": 5510,
      "Ġ45": 5511,
      "ooking": 5512,
      "ban": 5513,
      "Ġsaw": 5514,
      "duced": 5515,
      "Des": 5516,
      "pass": 5517,
      "ĠfÃ¼hrt": 5518,
      "glichen": 5519,
      "ashion": 5520,
      "ĠUnterstÃ¼tz": 5521,
      "Ġaktuellen": 5522,
      "Ġmultiple": 5523,
      "kreis": 5524,
      "Ġgoal": 5525,
      "Ġsummer": 5526,
      "ĠWeise": 5527,
      "ĠVis": 5528,
      "ieÃŁen": 5529,
      "onstr": 5530,
      "Ġword": 5531,
      "ĠBede": 5532,
      "iat": 5533,
      "gg": 5534,
      "Ġunver": 5535,
      "Ġanaly": 5536,
      "ĠUN": 5537,
      "MS": 5538,
      "Ġbege": 5539,
      "markt": 5540,
      "Ġsched": 5541,
      "ĠFÃ¼hr": 5542,
      "ĠSchÃ¼ler": 5543,
      "Ġanders": 5544,
      "kosten": 5545,
      "ĠErk": 5546,
      "ĠSter": 5547,
      "Ġhohe": 5548,
      "produ": 5549,
      "Ġprofit": 5550,
      "Ġdep": 5551,
      "pa": 5552,
      "Ġweg": 5553,
      "andem": 5554,
      "right": 5555,
      "timmen": 5556,
      "ordnung": 5557,
      "bahn": 5558,
      "Ġthems": 5559,
      "Ġwritten": 5560,
      "ĠMax": 5561,
      "Diese": 5562,
      "Ġsave": 5563,
      "ĠAud": 5564,
      "Ġworked": 5565,
      "ĠTages": 5566,
      "entlichen": 5567,
      "ĠForum": 5568,
      "Ġtrip": 5569,
      "attle": 5570,
      "ĠFest": 5571,
      "Ġplans": 5572,
      "ĠOl": 5573,
      "entwick": 5574,
      "lands": 5575,
      "inding": 5576,
      "Ġflow": 5577,
      "Ġimmed": 5578,
      "imin": 5579,
      "Ġitself": 5580,
      "Ġmeeting": 5581,
      "One": 5582,
      "ĠWand": 5583,
      "ilen": 5584,
      "Ġbill": 5585,
      "ĠÃ¤hn": 5586,
      "Ġphot": 5587,
      "ĠSu": 5588,
      "ĠMuse": 5589,
      "Ġaufgrund": 5590,
      "Ġnam": 5591,
      "Ġthemselves": 5592,
      "ĠHause": 5593,
      "Ġdise": 5594,
      "Ġinstead": 5595,
      "ĠLicht": 5596,
      "Ġcash": 5597,
      "iers": 5598,
      "Ġpred": 5599,
      "ĠBall": 5600,
      "Ġbonus": 5601,
      "Ġindividuals": 5602,
      "Ġnotwend": 5603,
      "Ġcountries": 5604,
      "Ġvergangen": 5605,
      "ĠInstit": 5606,
      "Ġround": 5607,
      "Ġprefer": 5608,
      "fel": 5609,
      "igent": 5610,
      "ĠGre": 5611,
      "ĠErn": 5612,
      "43": 5613,
      "ublik": 5614,
      "ĠVerkehr": 5615,
      "ĠâĢĺ": 5616,
      "ĠLaw": 5617,
      "oder": 5618,
      "Ġsomit": 5619,
      "ĠStrom": 5620,
      "Ġgives": 5621,
      "Ġadj": 5622,
      "ĠheiÃŁt": 5623,
      "ibly": 5624,
      "Ġ2006": 5625,
      "pen": 5626,
      "ĠSteuer": 5627,
      "Ġsong": 5628,
      "ĠWett": 5629,
      "otes": 5630,
      "Ġresources": 5631,
      "Ġexpert": 5632,
      "ĠAG": 5633,
      "ĠÃĸsterreich": 5634,
      "ĠMÃ¼nchen": 5635,
      "ĠAlex": 5636,
      "ĠPlease": 5637,
      "Ġsell": 5638,
      "fahrt": 5639,
      "rÃ¤gt": 5640,
      "ena": 5641,
      "tete": 5642,
      "unge": 5643,
      "!\"": 5644,
      "ĠFreund": 5645,
      "aves": 5646,
      "Ġcookies": 5647,
      "ĠChristian": 5648,
      "Ġemer": 5649,
      "Ġzeit": 5650,
      "avig": 5651,
      "anne": 5652,
      "Ġplus": 5653,
      "ĠText": 5654,
      "ader": 5655,
      "ĠErfahrung": 5656,
      "ĠPresident": 5657,
      "ĠPers": 5658,
      "bÃ¼": 5659,
      "Ġhelps": 5660,
      "ammer": 5661,
      "ĠFoto": 5662,
      "cription": 5663,
      "Ġremov": 5664,
      "aliforn": 5665,
      "teilt": 5666,
      "Ġproviding": 5667,
      "Ġschl": 5668,
      "Ġgefunden": 5669,
      "ederal": 5670,
      "igur": 5671,
      "Ġhands": 5672,
      "Ġerfahren": 5673,
      "88": 5674,
      "Ġdaily": 5675,
      "ĠProbleme": 5676,
      "Ġpath": 5677,
      "hel": 5678,
      "ĠFeuer": 5679,
      "wing": 5680,
      "iest": 5681,
      "ĠIr": 5682,
      "ĠMÃ¼": 5683,
      "Ġanderem": 5684,
      "77": 5685,
      "overn": 5686,
      "Ġmorning": 5687,
      "ĠRecht": 5688,
      "Ġprices": 5689,
      "SP": 5690,
      "ĠFirst": 5691,
      "haps": 5692,
      "Ġrev": 5693,
      "ĠMond": 5694,
      "ĠhÃ¤ufig": 5695,
      "Ġfort": 5696,
      "ĠWed": 5697,
      "teilen": 5698,
      "itial": 5699,
      "Ġsqu": 5700,
      "mehr": 5701,
      "nete": 5702,
      "reibt": 5703,
      "66": 5704,
      "Ġgoes": 5705,
      "Phone": 5706,
      "Als": 5707,
      "emb": 5708,
      "Ġreviews": 5709,
      "Ã¤chen": 5710,
      "door": 5711,
      "ĠTur": 5712,
      "ĠEuropa": 5713,
      "Ġdisplay": 5714,
      "Ġlost": 5715,
      "ĠCommunity": 5716,
      "Ġtats": 5717,
      "cast": 5718,
      "onds": 5719,
      "Ġfand": 5720,
      "Ġaverage": 5721,
      "ĠDort": 5722,
      "ordin": 5723,
      "ĠGreen": 5724,
      "Ġgre": 5725,
      "ius": 5726,
      "Ġcrusher": 5727,
      "ĠInnen": 5728,
      "?\"": 5729,
      "Ġadvant": 5730,
      "Ġlaut": 5731,
      "ĠDavid": 5732,
      "gebung": 5733,
      "RA": 5734,
      "ĠRob": 5735,
      "ĠWetter": 5736,
      "Ġappe": 5737,
      "Ġsn": 5738,
      "ĠRolle": 5739,
      "Ġpartners": 5740,
      "uts": 5741,
      "ishing": 5742,
      "Ġavoid": 5743,
      "Ġklass": 5744,
      "ĠOpen": 5745,
      "fehlen": 5746,
      "furt": 5747,
      "reise": 5748,
      "IE": 5749,
      "ĠAuss": 5750,
      "fekt": 5751,
      "Ġemo": 5752,
      "Ġdessen": 5753,
      "Ġsend": 5754,
      "Ġhervor": 5755,
      "apie": 5756,
      "Ġsituation": 5757,
      "Ġeffect": 5758,
      "ĠUrlaub": 5759,
      "Ã¶sen": 5760,
      "icated": 5761,
      "Ġdeshalb": 5762,
      "ipping": 5763,
      "wÃ¤r": 5764,
      "ĠKraft": 5765,
      "itag": 5766,
      "500": 5767,
      "urr": 5768,
      "ĠVerb": 5769,
      "Ġchem": 5770,
      "Ġprogress": 5771,
      "____": 5772,
      "ĠMel": 5773,
      "Ġabsolute": 5774,
      "ita": 5775,
      "ollar": 5776,
      "Ġinvolved": 5777,
      "ography": 5778,
      "Ġdefinitely": 5779,
      "ragen": 5780,
      "Ġbedeutet": 5781,
      "Ġcelebr": 5782,
      "uÃŁerdem": 5783,
      "iding": 5784,
      "Ġcompletely": 5785,
      "ĠBitcoin": 5786,
      "ĠSozial": 5787,
      "ĠSet": 5788,
      "vin": 5789,
      "Ġsubject": 5790,
      "Ġattention": 5791,
      "Ġlaunch": 5792,
      "Ġ)": 5793,
      "ĠerhÃ¶": 5794,
      "alog": 5795,
      "ago": 5796,
      "richtung": 5797,
      "ĠKlim": 5798,
      "Ġsubst": 5799,
      "Ġerne": 5800,
      "Ġ;": 5801,
      "ĠSitz": 5802,
      "Ã¶rt": 5803,
      "ĠCal": 5804,
      "Ġindem": 5805,
      "schlieÃŁlich": 5806,
      "ĠRisik": 5807,
      "porate": 5808,
      "flÃ¤che": 5809,
      "peratur": 5810,
      "Ġcomments": 5811,
      "ĠRei": 5812,
      "Ġstrength": 5813,
      "Ġstress": 5814,
      "ĠOver": 5815,
      "Ġmyself": 5816,
      "gin": 5817,
      "ĠStreet": 5818,
      "Ġsolutions": 5819,
      "ĠSÃ¼d": 5820,
      "itness": 5821,
      "ĠKur": 5822,
      "ĠAndroid": 5823,
      "Ġerreichen": 5824,
      "ĠMat": 5825,
      "Ġwert": 5826,
      "ĠPeter": 5827,
      "set": 5828,
      "lied": 5829,
      "Unter": 5830,
      "ĠDien": 5831,
      "hang": 5832,
      "fÃ¼r": 5833,
      "ĠLo": 5834,
      "riter": 5835,
      "Ã¤ss": 5836,
      "Ġsupply": 5837,
      "ĠSocial": 5838,
      "Ġemb": 5839,
      "ĠAngebote": 5840,
      "No": 5841,
      "ĠGeneral": 5842,
      "Ġzweiten": 5843,
      "ĠMass": 5844,
      "asc": 5845,
      "Ġspeed": 5846,
      "ĠTwitter": 5847,
      "ĠMedia": 5848,
      "itions": 5849,
      "Ġdoor": 5850,
      "Ġspend": 5851,
      "schlag": 5852,
      "enty": 5853,
      "ĠVerm": 5854,
      "ĠClass": 5855,
      "ĠTransp": 5856,
      "illa": 5857,
      "ĠAnn": 5858,
      "ĠBerg": 5859,
      "ĠMost": 5860,
      "ĠEff": 5861,
      "bark": 5862,
      "ĠCoun": 5863,
      "ĠGebur": 5864,
      "Ġserious": 5865,
      "erei": 5866,
      "Ġrefle": 5867,
      "Ġsit": 5868,
      "Ġfavorite": 5869,
      "letzt": 5870,
      "Ġgegeben": 5871,
      "ĠKlass": 5872,
      "ki": 5873,
      "rab": 5874,
      "Ġhar": 5875,
      "asy": 5876,
      "gesetzt": 5877,
      "Ġfirm": 5878,
      "Ġcross": 5879,
      "bewer": 5880,
      "Ġvorhand": 5881,
      "standen": 5882,
      "ĠNor": 5883,
      "Ġcollection": 5884,
      "Ġacqu": 5885,
      "ĠThomas": 5886,
      "Ġmusste": 5887,
      "ĠFle": 5888,
      "unities": 5889,
      "igten": 5890,
      "da": 5891,
      "pm": 5892,
      "ĠKreis": 5893,
      "Ġformer": 5894,
      "ĠNur": 5895,
      "ĠBedeutung": 5896,
      "ĠHo": 5897,
      "abhÃ¤ng": 5898,
      "aschinen": 5899,
      "altet": 5900,
      "ĠIst": 5901,
      "Ġderzeit": 5902,
      "ĠHy": 5903,
      "SS": 5904,
      "incip": 5905,
      "ĠLeute": 5906,
      "wegs": 5907,
      "Ġfla": 5908,
      "Ġfresh": 5909,
      "han": 5910,
      "sm": 5911,
      "DA": 5912,
      "ĠCent": 5913,
      "igr": 5914,
      "Ġsolche": 5915,
      "Ġthinking": 5916,
      "ĠgehÃ¶ren": 5917,
      "Ġencour": 5918,
      "chter": 5919,
      "ĠVoll": 5920,
      "Ġpropos": 5921,
      "cies": 5922,
      "Ġspeak": 5923,
      "ushing": 5924,
      "41": 5925,
      "ĠKranken": 5926,
      "ĠVertrag": 5927,
      "Ġattemp": 5928,
      "Ġparents": 5929,
      "idel": 5930,
      "iziert": 5931,
      "Ġdirectly": 5932,
      "achts": 5933,
      "ĠRet": 5934,
      "ĠTier": 5935,
      "ares": 5936,
      "Ġkom": 5937,
      "ĠDate": 5938,
      "ĠMutter": 5939,
      "piele": 5940,
      "jekte": 5941,
      "ko": 5942,
      "Ġentste": 5943,
      "ichter": 5944,
      "Ġinteresting": 5945,
      "Fl": 5946,
      "Ġul": 5947,
      "ĠAltern": 5948,
      "fil": 5949,
      "Ġaw": 5950,
      "ĠDist": 5951,
      "Ġ[âĢ¦]": 5952,
      "ĠArm": 5953,
      "comes": 5954,
      "ĠdÃ¼rfen": 5955,
      "Ġwelches": 5956,
      "42": 5957,
      "ĠFrÃ¼h": 5958,
      "umin": 5959,
      "Ġgreen": 5960,
      "ĠVersion": 5961,
      "Ġsurpr": 5962,
      "do": 5963,
      "Ġsus": 5964,
      "Ġve": 5965,
      "ĠDre": 5966,
      "ĠEvery": 5967,
      "ĠMerk": 5968,
      "Ġ07": 5969,
      "ij": 5970,
      "Ã¼rz": 5971,
      "ohol": 5972,
      "chnung": 5973,
      "iring": 5974,
      "aling": 5975,
      "Ã¤ndert": 5976,
      "innt": 5977,
      "essor": 5978,
      "ĠFriday": 5979,
      "ĠLang": 5980,
      "Ġsection": 5981,
      "order": 5982,
      "Ġlanguage": 5983,
      "Ġged": 5984,
      "Ġfant": 5985,
      "ruit": 5986,
      "Ġgradu": 5987,
      "Ġnote": 5988,
      "fÃ¼hrer": 5989,
      "Â°": 5990,
      "Ġganzen": 5991,
      "tives": 5992,
      "Ġrelease": 5993,
      "kauft": 5994,
      "Ġorganization": 5995,
      "zeigt": 5996,
      "Ġsun": 5997,
      "stieg": 5998,
      "56": 5999,
      "Ġexpected": 6000,
      "ften": 6001,
      "liegen": 6002,
      "ivery": 6003,
      "Ġconven": 6004,
      "Ġdank": 6005,
      "Ġdegree": 6006,
      "Ġmeist": 6007,
      "Ġwrong": 6008,
      "Ġblood": 6009,
      "zub": 6010,
      "yond": 6011,
      "ronic": 6012,
      "istry": 6013,
      "Ġhoff": 6014,
      "ĠWash": 6015,
      "ĠDevelop": 6016,
      "ĠDepartment": 6017,
      "ctors": 6018,
      "ĠwÃ¼rden": 6019,
      "ĠGÃ¤ste": 6020,
      "ĠSur": 6021,
      "ĠCompany": 6022,
      "ses": 6023,
      "ksam": 6024,
      "Ġinfluen": 6025,
      "see": 6026,
      "ba": 6027,
      "ĠWien": 6028,
      "ades": 6029,
      "Ġplayer": 6030,
      "Ġexactly": 6031,
      "ĠWald": 6032,
      "Ġtowards": 6033,
      "Ġhund": 6034,
      "ĠMÃ¶glichkeiten": 6035,
      "Ġdre": 6036,
      "ĠSuche": 6037,
      "Ġgets": 6038,
      "ĠIP": 6039,
      "Ġsuit": 6040,
      "gegen": 6041,
      "ĠGrÃ¼nd": 6042,
      "59": 6043,
      "apter": 6044,
      "!!!": 6045,
      "bas": 6046,
      "Ġdecided": 6047,
      "ĠThen": 6048,
      "cts": 6049,
      "gesetz": 6050,
      "Ġinsbesondere": 6051,
      "Ġapplications": 6052,
      "ĠBaum": 6053,
      "58": 6054,
      "Ġcertif": 6055,
      "ĠGener": 6056,
      "Ġempf": 6057,
      "ĠBoden": 6058,
      "Is": 6059,
      "Ġlic": 6060,
      "Ġcarry": 6061,
      "Ġuses": 6062,
      "Or": 6063,
      "ĠJesus": 6064,
      "quem": 6065,
      "Ġprec": 6066,
      "verstÃ¤nd": 6067,
      "Ġinvestig": 6068,
      "ups": 6069,
      "reicht": 6070,
      "ĠEUR": 6071,
      "rel": 6072,
      "ĠMinister": 6073,
      "igte": 6074,
      "ĠHamburg": 6075,
      "uffer": 6076,
      "Ġbefindet": 6077,
      "Ġsonst": 6078,
      "Ġgas": 6079,
      "itiv": 6080,
      "ĠÃ¼b": 6081,
      "abil": 6082,
      "ĠSeit": 6083,
      "Ġded": 6084,
      "Ġbere": 6085,
      "Ġmittel": 6086,
      "racht": 6087,
      "park": 6088,
      "VID": 6089,
      "ĠDieser": 6090,
      "Ġsport": 6091,
      "ĠErgebnis": 6092,
      "Ġerfolgreich": 6093,
      "ĠBal": 6094,
      "gruppe": 6095,
      "Ġgroups": 6096,
      "Ã¶gen": 6097,
      "illing": 6098,
      "Hier": 6099,
      "prochen": 6100,
      "Ġconsidered": 6101,
      "ĠSchne": 6102,
      "Ġlack": 6103,
      "ograf": 6104,
      "ĠCasinos": 6105,
      "ĠShop": 6106,
      "Ġplanning": 6107,
      "ĠAP": 6108,
      "aschine": 6109,
      "Ġgrund": 6110,
      "Ġcomplex": 6111,
      "Ġresponse": 6112,
      "Ġentfern": 6113,
      "Ġcampaign": 6114,
      "BC": 6115,
      "Ġfinde": 6116,
      "Ġfully": 6117,
      "Ġqualif": 6118,
      "Ġinvestment": 6119,
      "ĠResearch": 6120,
      "ĠCre": 6121,
      "gers": 6122,
      "Ã¶st": 6123,
      "ĠSonntag": 6124,
      "Ġdeveloped": 6125,
      "ĠAC": 6126,
      "ĠSatur": 6127,
      "Ġessential": 6128,
      "Ġebenso": 6129,
      "Ġgebra": 6130,
      "ĠhÃ¶ch": 6131,
      "ĠHÃ¤nd": 6132,
      "ify": 6133,
      "ĠLim": 6134,
      "fit": 6135,
      "rench": 6136,
      "atisf": 6137,
      "Ġshall": 6138,
      "ungsver": 6139,
      "ĠGood": 6140,
      "Ġ300": 6141,
      "ustain": 6142,
      "ĠWord": 6143,
      "Ġbusinesses": 6144,
      "Ġdrink": 6145,
      "Ġ01": 6146,
      "ĠName": 6147,
      "Ġdistrib": 6148,
      "lassen": 6149,
      "Ġfrequ": 6150,
      "ĠGreat": 6151,
      "Ġkur": 6152,
      "ffic": 6153,
      "Ġentde": 6154,
      "ĠWhite": 6155,
      "onto": 6156,
      "estival": 6157,
      "ku": 6158,
      "Ġallein": 6159,
      "fragen": 6160,
      "nder": 6161,
      "uhr": 6162,
      "Ġguide": 6163,
      "ĠBi": 6164,
      "hÃ¤ltnis": 6165,
      "Ġ2000": 6166,
      "isions": 6167,
      "body": 6168,
      "Ġfreuen": 6169,
      "ecutive": 6170,
      "Ġsleep": 6171,
      "Ġpiece": 6172,
      "Ġfail": 6173,
      "ruktur": 6174,
      "Ġinterested": 6175,
      "stÃ¤r": 6176,
      "Ġgiving": 6177,
      "ungsm": 6178,
      "Ġconvers": 6179,
      "wagen": 6180,
      "Ġphysical": 6181,
      "pped": 6182,
      "Sc": 6183,
      "itary": 6184,
      "haltung": 6185,
      "ĠGesellschaft": 6186,
      "ĠMess": 6187,
      "lieÃŁlich": 6188,
      "olden": 6189,
      "unday": 6190,
      "Ġeinigen": 6191,
      "ula": 6192,
      "Ġstarting": 6193,
      "Ġstates": 6194,
      "abs": 6195,
      "ĠGespr": 6196,
      "57": 6197,
      "Ġeffects": 6198,
      "rypt": 6199,
      "ĠHotels": 6200,
      "aurants": 6201,
      "ĠWahr": 6202,
      "Ġbringt": 6203,
      "ĠNutzer": 6204,
      "more": 6205,
      "Ġdry": 6206,
      "Ġlisten": 6207,
      "isieren": 6208,
      "Ġfine": 6209,
      "Ġbasic": 6210,
      "Ġautom": 6211,
      "Ġlimited": 6212,
      "iant": 6213,
      "ĠChristmas": 6214,
      "Ġnation": 6215,
      "Ġsuccessful": 6216,
      "Ġ2005": 6217,
      "ĠTable": 6218,
      "ĠLiebe": 6219,
      "ĠOst": 6220,
      "Ġslow": 6221,
      "tiz": 6222,
      "ĠErfahrungen": 6223,
      "Ã¤um": 6224,
      "cont": 6225,
      "offee": 6226,
      "Ġcorrect": 6227,
      "irmen": 6228,
      "uchte": 6229,
      "Cont": 6230,
      "ĠWal": 6231,
      "afen": 6232,
      "Ġalten": 6233,
      "Ġrelativ": 6234,
      "ĠSign": 6235,
      "Ġfunktioniert": 6236,
      "Ġfelt": 6237,
      "idents": 6238,
      "Ġhochwer": 6239,
      "Ġgewesen": 6240,
      "Ġplaces": 6241,
      "ĠPflege": 6242,
      "ĠRein": 6243,
      "ĠOrig": 6244,
      "ĠLife": 6245,
      "Ġadvert": 6246,
      "Ġjud": 6247,
      "wissen": 6248,
      "ĠGruppe": 6249,
      "ĠHor": 6250,
      "Ġentwickelt": 6251,
      "best": 6252,
      "elte": 6253,
      "Ġfloor": 6254,
      "ĠFlug": 6255,
      "Ġzudem": 6256,
      "ĠStelle": 6257,
      "ĠMiss": 6258,
      "DR": 6259,
      "ĠverfÃ¼g": 6260,
      "aching": 6261,
      "ĠAssoci": 6262,
      "BA": 6263,
      "ĠStandard": 6264,
      "hung": 6265,
      "ancy": 6266,
      ".:": 6267,
      "ĠSuch": 6268,
      "alifornia": 6269,
      "ĠwÃ¼n": 6270,
      "Ġintens": 6271,
      "Ġsometimes": 6272,
      "Ġpicture": 6273,
      "ĠBur": 6274,
      "ĠPolizei": 6275,
      "dom": 6276,
      "ĠOffice": 6277,
      "Ġclim": 6278,
      "ibrary": 6279,
      "ady": 6280,
      "fris": 6281,
      "like": 6282,
      "ĠKredit": 6283,
      "Ġwasn": 6284,
      "Ġdemand": 6285,
      "Ġcourt": 6286,
      "house": 6287,
      "ĠNutzung": 6288,
      "reiber": 6289,
      "Ġbecame": 6290,
      "Ġmitt": 6291,
      "field": 6292,
      "ĠzusÃ¤tz": 6293,
      "Ð¾": 6294,
      "Ã¤hrung": 6295,
      "Ġfight": 6296,
      "ĠSpaÃŁ": 6297,
      "ĠStrateg": 6298,
      "ado": 6299,
      "IR": 6300,
      "Ġbegan": 6301,
      "Ã¼gen": 6302,
      "Ġnature": 6303,
      "Ġglaub": 6304,
      "ĠzunÃ¤chst": 6305,
      "Ġrates": 6306,
      "Ġtransfer": 6307,
      "Ã¤ndig": 6308,
      "tien": 6309,
      "Ġcas": 6310,
      "ĠAlt": 6311,
      "ĠFen": 6312,
      "river": 6313,
      "Ãľber": 6314,
      "Ġinfo": 6315,
      "rik": 6316,
      "ĠFC": 6317,
      "Ġemployees": 6318,
      "ĠKan": 6319,
      "ĠTHE": 6320,
      "Ġactivity": 6321,
      "Ġrights": 6322,
      "Ġverg": 6323,
      "bu": 6324,
      "Ġpages": 6325,
      "pite": 6326,
      "Ġpolitical": 6327,
      "Ġinsgesamt": 6328,
      "kre": 6329,
      "frast": 6330,
      "Ġpressure": 6331,
      "ĠUnterstÃ¼tzung": 6332,
      "Ġsoc": 6333,
      "Ġsmart": 6334,
      "iately": 6335,
      "Ġphotos": 6336,
      "ĠKal": 6337,
      "Ġgere": 6338,
      "ĠÂ£": 6339,
      "Ġmechan": 6340,
      "Ġtraditional": 6341,
      "Da": 6342,
      "tially": 6343,
      "Ġreported": 6344,
      "geln": 6345,
      "nehm": 6346,
      "sta": 6347,
      "ĠlÃ¤nger": 6348,
      "ĠMensch": 6349,
      "itzer": 6350,
      "ĠAnbieter": 6351,
      "Ġbraucht": 6352,
      "clud": 6353,
      "Ġbist": 6354,
      "barkeit": 6355,
      "sident": 6356,
      "wirtschaft": 6357,
      "ĠHist": 6358,
      "Ġsod": 6359,
      "Ġmel": 6360,
      "Ġassess": 6361,
      "ĠTrump": 6362,
      "ĠÃĸff": 6363,
      "Ġpractic": 6364,
      "chnet": 6365,
      "Ġbath": 6366,
      "ĠEduc": 6367,
      "ufe": 6368,
      "ustand": 6369,
      "Ġenh": 6370,
      "sam": 6371,
      "grif": 6372,
      "Ġhohen": 6373,
      "stelle": 6374,
      "Ġregistr": 6375,
      "obert": 6376,
      "Ã¤ufer": 6377,
      "kennen": 6378,
      "Ã¤tzen": 6379,
      "Ġvorher": 6380,
      "oster": 6381,
      "ĠWild": 6382,
      "Ġbegin": 6383,
      "Ġvehicle": 6384,
      "Ġconstruction": 6385,
      "Ġwarum": 6386,
      "ĠBahn": 6387,
      "ocol": 6388,
      "alitÃ¤t": 6389,
      "rÃ¤fte": 6390,
      "fts": 6391,
      "ĠAns": 6392,
      "itten": 6393,
      "Ġunge": 6394,
      "Ġliter": 6395,
      "ĠBig": 6396,
      "kor": 6397,
      "ĠBaby": 6398,
      "Ġstrategy": 6399,
      "lauben": 6400,
      "Ġdocument": 6401,
      "ĠGebÃ¤": 6402,
      "ĠvÃ¶": 6403,
      "Ġtru": 6404,
      "Ġcompon": 6405,
      "Ġweltw": 6406,
      "ĠCBD": 6407,
      "dy": 6408,
      "Che": 6409,
      "Ġhour": 6410,
      "ĠCheck": 6411,
      "Ġharm": 6412,
      "ĠNÃ¤he": 6413,
      "Ġtemper": 6414,
      "Ġunderstanding": 6415,
      "Ġviol": 6416,
      "Ġhealthy": 6417,
      "ĠOper": 6418,
      "ĠErst": 6419,
      "Ġbesonder": 6420,
      "well": 6421,
      "Ġcru": 6422,
      "Ġelekt": 6423,
      "irma": 6424,
      "Ġloan": 6425,
      "ini": 6426,
      "ĠKolle": 6427,
      "Ġexerc": 6428,
      "ĠSchule": 6429,
      "Ġmindestens": 6430,
      "ano": 6431,
      "Ġeconomic": 6432,
      "Ġimages": 6433,
      "ĠLiter": 6434,
      "ĠDeutschen": 6435,
      "ĠBox": 6436,
      "Ġzehn": 6437,
      "ĠWort": 6438,
      "Ġdifference": 6439,
      "weile": 6440,
      "ancing": 6441,
      "laus": 6442,
      "ĠPfl": 6443,
      "ĠAv": 6444,
      "2015": 6445,
      "mitted": 6446,
      "antly": 6447,
      "ĠfÃ¤": 6448,
      "ĠprÃ¤sen": 6449,
      "Ġvorhanden": 6450,
      "ĠTipps": 6451,
      "Ġkitchen": 6452,
      "auty": 6453,
      "ification": 6454,
      "tiges": 6455,
      "ĠKategor": 6456,
      "OW": 6457,
      "ĠSpan": 6458,
      "TV": 6459,
      "burger": 6460,
      "Ġtrade": 6461,
      "Ġcreating": 6462,
      "Ġvergangenen": 6463,
      "kel": 6464,
      "ech": 6465,
      "Alle": 6466,
      "Ġmessage": 6467,
      "Ġrequest": 6468,
      "ĠKindern": 6469,
      "Ġgrowing": 6470,
      "used": 6471,
      "ĠIndian": 6472,
      "such": 6473,
      "Ġstuff": 6474,
      "ĠKil": 6475,
      "DS": 6476,
      "Gen": 6477,
      "Ġgarden": 6478,
      "Ġclub": 6479,
      "ĠVersch": 6480,
      "lad": 6481,
      "Go": 6482,
      "Ġregister": 6483,
      "Ġbenefit": 6484,
      "wide": 6485,
      "Ġplayed": 6486,
      "ĠTeilnehmer": 6487,
      "Ġpublished": 6488,
      "vision": 6489,
      "Ġdead": 6490,
      "Ġwoman": 6491,
      "Ġdark": 6492,
      "Ġvergleich": 6493,
      "Ġtut": 6494,
      "reibung": 6495,
      "ĠNieder": 6496,
      "rup": 6497,
      "Ġverbess": 6498,
      "Ġten": 6499,
      "Ġmovie": 6500,
      "ĠhÃ¶her": 6501,
      "spe": 6502,
      "Ġlen": 6503,
      "Ġinkl": 6504,
      "ĠÃľbers": 6505,
      "Rep": 6506,
      "Ġverz": 6507,
      "Ġspot": 6508,
      "anlage": 6509,
      "ĠEing": 6510,
      "Ġpaid": 6511,
      "Ġdeb": 6512,
      ");": 6513,
      "ĠPlus": 6514,
      "Ġ06": 6515,
      "Ġmother": 6516,
      "erweise": 6517,
      "Ġcommercial": 6518,
      "Ġgeworden": 6519,
      "Ġgave": 6520,
      "ĠAktiv": 6521,
      "ĠWo": 6522,
      "lines": 6523,
      "Ġfinanz": 6524,
      "ecause": 6525,
      "Ġsaying": 6526,
      "Ġalt": 6527,
      "Ã¤ngen": 6528,
      "Ġinitial": 6529,
      "Ġproced": 6530,
      "Wel": 6531,
      "ĠBenutz": 6532,
      "Ġneigh": 6533,
      "ĠSpielen": 6534,
      "arily": 6535,
      "ĠAnti": 6536,
      "uchs": 6537,
      "brigen": 6538,
      "Ġpen": 6539,
      "ĠGrÃ¶ÃŁe": 6540,
      "Ġeye": 6541,
      "Ġdevices": 6542,
      "Ġjobs": 6543,
      "ĠZur": 6544,
      "Ġindustr": 6545,
      "ools": 6546,
      "ĠBill": 6547,
      "ĠImmobil": 6548,
      "Ġdiv": 6549,
      "ielaut": 6550,
      "Ġbeach": 6551,
      "ĠCanada": 6552,
      "ĠSonnen": 6553,
      "Ġsold": 6554,
      "Her": 6555,
      "Ġbehav": 6556,
      "ĠMicrosoft": 6557,
      "icket": 6558,
      "ĠSaison": 6559,
      "cm": 6560,
      "ĠMid": 6561,
      "Ã¶glichkeiten": 6562,
      "Ġaktuell": 6563,
      "Ġjeweils": 6564,
      "ussion": 6565,
      "ĠWolf": 6566,
      "ĠâĨ": 6567,
      "Ġol": 6568,
      "ĠBus": 6569,
      "ĠDisk": 6570,
      "ĠEast": 6571,
      "bedingungen": 6572,
      "yc": 6573,
      "ĠJournal": 6574,
      "acher": 6575,
      "Ġpartner": 6576,
      "Ġtried": 6577,
      "ĠVors": 6578,
      "Ġvs": 6579,
      "pper": 6580,
      "Ġprevent": 6581,
      "Ã¡": 6582,
      "orien": 6583,
      "ĠIsrael": 6584,
      "Ã¼ssel": 6585,
      "ĠFolge": 6586,
      "Ġschools": 6587,
      "iche": 6588,
      "News": 6589,
      "Ġoverall": 6590,
      "Ġpurpose": 6591,
      "stagram": 6592,
      "acity": 6593,
      "ĠiPhone": 6594,
      "alent": 6595,
      "zig": 6596,
      "venue": 6597,
      "rÃ¼cken": 6598,
      "Ġempfehlen": 6599,
      "ya": 6600,
      "ĠWil": 6601,
      "ĠEven": 6602,
      "ĠRichtung": 6603,
      "ĠDok": 6604,
      "ĠMartin": 6605,
      "Ġaim": 6606,
      "Ġmoving": 6607,
      "karte": 6608,
      "ĠSchritt": 6609,
      "Gr": 6610,
      "Ð°": 6611,
      "Ġrepla": 6612,
      "ĠGleich": 6613,
      "ĠUmwelt": 6614,
      "ĠMenge": 6615,
      "Ġmaybe": 6616,
      "chmal": 6617,
      "hard": 6618,
      "ĠAL": 6619,
      "mack": 6620,
      "Ġevalu": 6621,
      "ministration": 6622,
      "ĠFotos": 6623,
      "----": 6624,
      "OC": 6625,
      "Ã¼cks": 6626,
      "ĠKle": 6627,
      "ĠMad": 6628,
      "alled": 6629,
      "ris": 6630,
      "Ġheard": 6631,
      "ĠCalifornia": 6632,
      "shop": 6633,
      "After": 6634,
      "Ġdan": 6635,
      "Ġrock": 6636,
      "zeugen": 6637,
      "Ġinterview": 6638,
      "Ġtrain": 6639,
      "ĠPolitik": 6640,
      "Ġreve": 6641,
      "ĠShow": 6642,
      "Ġfolgenden": 6643,
      "ĠWein": 6644,
      "Ġwait": 6645,
      "Ġerfolgt": 6646,
      "ĠstÃ¤r": 6647,
      "Ġappropr": 6648,
      "df": 6649,
      "olar": 6650,
      "ĠWohnung": 6651,
      "bedingt": 6652,
      "Ġexpress": 6653,
      "ĠTitel": 6654,
      "Ġheat": 6655,
      "Ġopportunities": 6656,
      "mitteln": 6657,
      "ĠCare": 6658,
      "ĠLoc": 6659,
      "Ġgesehen": 6660,
      "ĠKÃ¶l": 6661,
      ".[": 6662,
      "ammlung": 6663,
      "ĠDeutsche": 6664,
      "Ġkeiner": 6665,
      "zeichen": 6666,
      "ountain": 6667,
      "ĠGovern": 6668,
      "ĠParte": 6669,
      "Ġanim": 6670,
      "Ġ32": 6671,
      "ĠAct": 6672,
      "ĠKurz": 6673,
      "ĠerklÃ¤rt": 6674,
      "ĠEngine": 6675,
      "ĠStellen": 6676,
      "ously": 6677,
      "ĠTraining": 6678,
      "ENT": 6679,
      "altungen": 6680,
      "Ġerz": 6681,
      "ĠVerl": 6682,
      "ĠMem": 6683,
      "bro": 6684,
      "Ġtim": 6685,
      "ras": 6686,
      "ĠFrei": 6687,
      "ĠRat": 6688,
      "Ġshop": 6689,
      "ĠGas": 6690,
      "Ġdeutsche": 6691,
      "ĠBewertungen": 6692,
      "Ġextens": 6693,
      "Von": 6694,
      "Ġoffered": 6695,
      "Ġeffort": 6696,
      "ta": 6697,
      "stud": 6698,
      "Ã¤ft": 6699,
      "wasser": 6700,
      "68": 6701,
      "ĠEuropean": 6702,
      "Ġbaby": 6703,
      "ĠSchlaf": 6704,
      "ola": 6705,
      "Ġwonderful": 6706,
      "ferenz": 6707,
      "ĠHum": 6708,
      "Ġdream": 6709,
      "ĠLeit": 6710,
      "Ġsports": 6711,
      "Ã¤ngt": 6712,
      "ĠDisc": 6713,
      "care": 6714,
      "ĠHD": 6715,
      "Ġeyes": 6716,
      "Ġpo": 6717,
      "Ã¼nstler": 6718,
      "ysteme": 6719,
      "Ġkomm": 6720,
      "rolle": 6721,
      "omet": 6722,
      "IF": 6723,
      "ls": 6724,
      "ultural": 6725,
      "ĠBoard": 6726,
      "kra": 6727,
      "ĠKarten": 6728,
      "ĠEnts": 6729,
      "Ġinstru": 6730,
      "Dr": 6731,
      "ĠDinge": 6732,
      "ĠĠ": 6733,
      "leistungen": 6734,
      "Ġaccom": 6735,
      "ĠManager": 6736,
      "Ġdemonstr": 6737,
      "timate": 6738,
      "Ġcat": 6739,
      "ĠDieses": 6740,
      "Ġfeeling": 6741,
      "apy": 6742,
      "fÃ¤hr": 6743,
      "miss": 6744,
      "gre": 6745,
      "place": 6746,
      "ĠEntscheidung": 6747,
      "Ġorganiz": 6748,
      "Ġentfernt": 6749,
      "grÃ¼nd": 6750,
      "Ġpor": 6751,
      "vement": 6752,
      "Ã¼tzen": 6753,
      "ĠAp": 6754,
      "Ġextremely": 6755,
      "Ġgenug": 6756,
      "2013": 6757,
      "orial": 6758,
      "arante": 6759,
      "ĠBetrieb": 6760,
      "âĢĭ": 6761,
      "lette": 6762,
      "ĠGames": 6763,
      "ipped": 6764,
      "ĠvÃ¶llig": 6765,
      "Ġnied": 6766,
      "udem": 6767,
      "Ġrelig": 6768,
      "Ġcateg": 6769,
      "ĠDazu": 6770,
      "ĠAuÃŁerdem": 6771,
      "ĠSamstag": 6772,
      "ĠGal": 6773,
      "ĠRegen": 6774,
      "EG": 6775,
      "ero": 6776,
      "Ġenthalten": 6777,
      "Ġowners": 6778,
      "ĠStraÃŁe": 6779,
      "ĠGemeinde": 6780,
      "ĠWirtschafts": 6781,
      "zeuge": 6782,
      "ĠMonat": 6783,
      "Ã¼rf": 6784,
      "ilft": 6785,
      "ĠUnternehmens": 6786,
      "Ġzwe": 6787,
      "ĠDein": 6788,
      "sport": 6789,
      "Ġassociated": 6790,
      "Ġsyn": 6791,
      "ĠPreise": 6792,
      "II": 6793,
      "Ġreduce": 6794,
      "overs": 6795,
      "Ġfurn": 6796,
      "ĠOF": 6797,
      "ĠNachrichten": 6798,
      "bezogen": 6799,
      "Ġprakt": 6800,
      "Ġconsult": 6801,
      "ented": 6802,
      "reu": 6803,
      "ĠLeistung": 6804,
      "Ġerwar": 6805,
      "Ġaccept": 6806,
      "folgen": 6807,
      "ĠPatienten": 6808,
      "NA": 6809,
      "Ġstage": 6810,
      "ĠWilliam": 6811,
      "Ġgrand": 6812,
      "Du": 6813,
      "tellte": 6814,
      "Ġlif": 6815,
      "Ġlots": 6816,
      "ĠEp": 6817,
      "Ġsogen": 6818,
      "ĠComputer": 6819,
      "ĠGame": 6820,
      "ĠHeil": 6821,
      "aries": 6822,
      "2014": 6823,
      "Ġecht": 6824,
      "rote": 6825,
      "Ġdur": 6826,
      "ĠFÃ¶rder": 6827,
      "67": 6828,
      "Ġgoals": 6829,
      "Ġdig": 6830,
      "Ã¶sungen": 6831,
      "ĠParty": 6832,
      "ĠÃ¼bers": 6833,
      "Ġpattern": 6834,
      "ĠVersand": 6835,
      "ĠAngel": 6836,
      "ĠMake": 6837,
      "That": 6838,
      "Ġsort": 6839,
      "Ġglass": 6840,
      "ickets": 6841,
      "Ġstorage": 6842,
      "Ã¤lter": 6843,
      "itzt": 6844,
      "Ġeurop": 6845,
      "ĠAnge": 6846,
      "Ġoffering": 6847,
      "ĠBesucher": 6848,
      "term": 6849,
      "Ġafford": 6850,
      "ĠBayern": 6851,
      "ĠInhalte": 6852,
      ".-": 6853,
      "ĠCH": 6854,
      "far": 6855,
      "ĠTelefon": 6856,
      "ĠtatsÃ¤chlich": 6857,
      "aces": 6858,
      "cul": 6859,
      "Reg": 6860,
      "ĠWieder": 6861,
      "Ġfab": 6862,
      "uchten": 6863,
      "inst": 6864,
      "daten": 6865,
      "Ġlernen": 6866,
      "oma": 6867,
      "Ġsand": 6868,
      "lerweile": 6869,
      "lies": 6870,
      "ĠerfÃ¼": 6871,
      "page": 6872,
      "IA": 6873,
      "ĠAdd": 6874,
      "mat": 6875,
      "Ġshown": 6876,
      "ĠMeinung": 6877,
      "erved": 6878,
      "2012": 6879,
      "Ġbeginning": 6880,
      "mlich": 6881,
      "SC": 6882,
      "ĠSunday": 6883,
      "Up": 6884,
      "Ġdamage": 6885,
      "Ġaren": 6886,
      "ĠEben": 6887,
      "ua": 6888,
      "hi": 6889,
      "ĠMonate": 6890,
      "ulf": 6891,
      "Ġreleased": 6892,
      "Ġseien": 6893,
      "Ġadvice": 6894,
      "Ġparticularly": 6895,
      "ĠFreitag": 6896,
      "otto": 6897,
      "Ġrob": 6898,
      "ĠDamen": 6899,
      "ĠVerkauf": 6900,
      "ĠFerien": 6901,
      "onen": 6902,
      "Ġsatisf": 6903,
      "ĠHeraus": 6904,
      "Ġmethods": 6905,
      "afe": 6906,
      "ept": 6907,
      "here": 6908,
      "aktiv": 6909,
      "annel": 6910,
      "atin": 6911,
      "ĠModell": 6912,
      "fert": 6913,
      "iken": 6914,
      "ĠTisch": 6915,
      "Ġactive": 6916,
      "wner": 6917,
      "ziehung": 6918,
      "53": 6919,
      "Ġculture": 6920,
      "Ã¼b": 6921,
      "ĠSaturday": 6922,
      "isher": 6923,
      "Ġcopy": 6924,
      "Ġdouble": 6925,
      "Ġpolice": 6926,
      "ĠBund": 6927,
      "pflich": 6928,
      "ĠBeach": 6929,
      "Ġwed": 6930,
      "Ġeasier": 6931,
      "Ġzweite": 6932,
      "ota": 6933,
      "ĠSicht": 6934,
      "Ġloved": 6935,
      "Ġdat": 6936,
      "ĠStudien": 6937,
      "Ġgesagt": 6938,
      "ĠMitglieder": 6939,
      "lax": 6940,
      "Ġeinzelnen": 6941,
      "Ġapprec": 6942,
      "Ġregarding": 6943,
      "ĠLED": 6944,
      "Ġbasis": 6945,
      "TC": 6946,
      "Ġcontinu": 6947,
      "Ġsurface": 6948,
      "Ġcapital": 6949,
      "ĠAusbildung": 6950,
      "Ġpayment": 6951,
      "dorf": 6952,
      "Ġincreasing": 6953,
      "kom": 6954,
      "TH": 6955,
      "54": 6956,
      "istan": 6957,
      "Ġspann": 6958,
      "Ġspielt": 6959,
      "henden": 6960,
      "ĠAustralia": 6961,
      "ĠGeburt": 6962,
      "Ġgesp": 6963,
      "ĠPsych": 6964,
      "Ġbrought": 6965,
      "Ġteams": 6966,
      "69": 6967,
      "Ġstraight": 6968,
      "Ġcards": 6969,
      "Ġattend": 6970,
      "ĠUnion": 6971,
      "ologies": 6972,
      "ĠMaster": 6973,
      "Ġdepos": 6974,
      "Ġ197": 6975,
      "Ġfinish": 6976,
      "ĠBeste": 6977,
      "Pre": 6978,
      "finden": 6979,
      "Ġimplement": 6980,
      "bew": 6981,
      "volle": 6982,
      "Ðµ": 6983,
      "Ġtruly": 6984,
      "fluss": 6985,
      "Ġpet": 6986,
      "ielle": 6987,
      "wig": 6988,
      "Ã¤mlich": 6989,
      "Ġelectric": 6990,
      "Ġoccur": 6991,
      "ption": 6992,
      "Ġchurch": 6993,
      "Ġ!": 6994,
      "ĠMÃ¤nner": 6995,
      "olly": 6996,
      "attform": 6997,
      "Ġinstitu": 6998,
      "Ġclient": 6999,
      "Ġsechs": 7000,
      "ĠLÃ¶sung": 7001,
      "ĠRoad": 7002,
      "Ġunit": 7003,
      "iture": 7004,
      "Ġnumbers": 7005,
      "Ġprimary": 7006,
      "ĠUnsere": 7007,
      "ĠWater": 7008,
      "ĠStaats": 7009,
      "ĠJed": 7010,
      "Ġsetzt": 7011,
      "ĠSun": 7012,
      "ĠfrÃ¼her": 7013,
      "ĠWashington": 7014,
      "Ġbeide": 7015,
      "Ġnov": 7016,
      "iment": 7017,
      "Ġclin": 7018,
      "Ġslot": 7019,
      "51": 7020,
      "ĠGlas": 7021,
      "-)": 7022,
      "ĠFlÃ¼": 7023,
      "Ġincreased": 7024,
      "ĠPack": 7025,
      "orgung": 7026,
      "kur": 7027,
      "hilfe": 7028,
      "mosph": 7029,
      "ĠBasis": 7030,
      "Ġtips": 7031,
      "Ġbekommt": 7032,
      "ĠunterstÃ¼tzen": 7033,
      "Ġbef": 7034,
      "person": 7035,
      "fa": 7036,
      "ĠJahrh": 7037,
      "Ġmis": 7038,
      "Ġhy": 7039,
      "uted": 7040,
      "anta": 7041,
      "Aber": 7042,
      "Ġfat": 7043,
      "Ġwelcher": 7044,
      "Ġdisease": 7045,
      "Ġconnect": 7046,
      "Ġscience": 7047,
      "ĠPraxis": 7048,
      "erous": 7049,
      "Ġstories": 7050,
      "ĠGren": 7051,
      "Ġband": 7052,
      "wechsel": 7053,
      "ĠunterstÃ¼tzt": 7054,
      "Ġbirth": 7055,
      "osoph": 7056,
      "Ġmeaning": 7057,
      "ĠDetails": 7058,
      "scheinlich": 7059,
      "ĠWebseite": 7060,
      "ections": 7061,
      "annen": 7062,
      "Ġmotor": 7063,
      "ĠBeginn": 7064,
      "Ġbeein": 7065,
      "ĠView": 7066,
      "Ġprincip": 7067,
      "Ġcomfortable": 7068,
      "Ġalthough": 7069,
      "ĠHund": 7070,
      "laden": 7071,
      "ĠhÃ¤lt": 7072,
      "unte": 7073,
      "Ġdadurch": 7074,
      "ĠKommentare": 7075,
      "ĠEngland": 7076,
      "ourney": 7077,
      "ehen": 7078,
      "Ġstream": 7079,
      "ĠkÃ¶nnten": 7080,
      "ĠGrand": 7081,
      "Ġ<": 7082,
      "Ġfamilies": 7083,
      "Ġstructure": 7084,
      "Ġthous": 7085,
      "ĠSituation": 7086,
      "ĠVo": 7087,
      "Mehr": 7088,
      "fÃ¤llt": 7089,
      "ĠSek": 7090,
      "ĠMonday": 7091,
      "ĠFood": 7092,
      "Ġrot": 7093,
      "ĠData": 7094,
      "52": 7095,
      "ĠKÃ¶nig": 7096,
      "ĠChamp": 7097,
      "Ġbald": 7098,
      "Ġphoto": 7099,
      "tritt": 7100,
      "Ġproduce": 7101,
      "fest": 7102,
      "Ġmat": 7103,
      "Ġ04": 7104,
      "ĠLeague": 7105,
      "Ã¤tigkeit": 7106,
      "Ġbatter": 7107,
      "Ġpot": 7108,
      "ĠMany": 7109,
      "wise": 7110,
      "orre": 7111,
      "hinder": 7112,
      "Ġnimmt": 7113,
      "ierter": 7114,
      "esis": 7115,
      "stoffe": 7116,
      "abet": 7117,
      "ĠPunkte": 7118,
      "ieten": 7119,
      "Ġspent": 7120,
      "PA": 7121,
      "Ġturned": 7122,
      "Ġhop": 7123,
      "afft": 7124,
      "Ġfinally": 7125,
      "nungs": 7126,
      "rÃ¤ger": 7127,
      "Ġwhe": 7128,
      "Ġcloth": 7129,
      "Don": 7130,
      "lla": 7131,
      "Ġ36": 7132,
      "ĠAlter": 7133,
      "iny": 7134,
      "Ġfran": 7135,
      "Ġtrotzdem": 7136,
      "Ġtitle": 7137,
      "ĠHard": 7138,
      "LC": 7139,
      "Ġrules": 7140,
      "leiter": 7141,
      "Ġuseful": 7142,
      "ĠFound": 7143,
      "ĠGesamt": 7144,
      "ĠNr": 7145,
      "ughter": 7146,
      "ĠFarbe": 7147,
      "Ġwants": 7148,
      "ĠClick": 7149,
      "ĠAufgaben": 7150,
      "hnt": 7151,
      "Ġagree": 7152,
      "ÃĦ": 7153,
      "ĠAuftrag": 7154,
      "Ġ2004": 7155,
      "Ġreasons": 7156,
      "oga": 7157,
      "Ġverbunden": 7158,
      "Ġrechts": 7159,
      "ĠYear": 7160,
      "Ġannounced": 7161,
      "ĠOrd": 7162,
      "schlÃ¤": 7163,
      "atever": 7164,
      "Ġtrust": 7165,
      "ĠBlut": 7166,
      "genden": 7167,
      "ĠGesetz": 7168,
      "ĠThanks": 7169,
      "UM": 7170,
      "osis": 7171,
      "ĠErgebnisse": 7172,
      "Ġangeboten": 7173,
      "Star": 7174,
      "jack": 7175,
      "ĠHersteller": 7176,
      "Ã¶lker": 7177,
      "Ġdraw": 7178,
      "Ġverein": 7179,
      "Ġcandid": 7180,
      "Ġknew": 7181,
      "ĠAny": 7182,
      "Ġerreicht": 7183,
      "ĠFind": 7184,
      "ĠReport": 7185,
      "Ġmicro": 7186,
      "ĠIdee": 7187,
      "Ġstudies": 7188,
      "waltung": 7189,
      "ĠStat": 7190,
      "Ġprin": 7191,
      "Ġhilft": 7192,
      "Ġsan": 7193,
      "ĠNE": 7194,
      "istent": 7195,
      "Ġspirit": 7196,
      "Ġsav": 7197,
      "liga": 7198,
      "uns": 7199,
      "organ": 7200,
      "ĠtÃ¤glich": 7201,
      "Ġtrading": 7202,
      "Also": 7203,
      "ĠAntwort": 7204,
      "osing": 7205,
      "ĠFuÃŁball": 7206,
      "Ġexperienced": 7207,
      "Produ": 7208,
      "ĠBehandlung": 7209,
      "ĠvollstÃ¤nd": 7210,
      "Ġhom": 7211,
      "sing": 7212,
      "ĠSup": 7213,
      "Ġnahe": 7214,
      "Ã¤ischen": 7215,
      "akers": 7216,
      "Ġdeta": 7217,
      "ectively": 7218,
      "achel": 7219,
      "spiele": 7220,
      "Ġkomplett": 7221,
      "Ġacadem": 7222,
      "ading": 7223,
      "Ġerforderlich": 7224,
      "ĠElect": 7225,
      "rum": 7226,
      "schw": 7227,
      "Ġevidence": 7228,
      "Ġtechnical": 7229,
      "schlieÃŁend": 7230,
      "ĠStad": 7231,
      "iles": 7232,
      "aneben": 7233,
      "ĠChin": 7234,
      "ĠAust": 7235,
      "ĠBewer": 7236,
      "Ġblue": 7237,
      "ĠRE": 7238,
      "Ġselten": 7239,
      "Ġern": 7240,
      "Ġperfekt": 7241,
      "ĠLast": 7242,
      "othek": 7243,
      "ĠPS": 7244,
      "ĠMÃ¤d": 7245,
      "ĠJames": 7246,
      "Ġgepl": 7247,
      "ouch": 7248,
      "Vers": 7249,
      "Ã¤uft": 7250,
      "Ġaktuelle": 7251,
      "ĠMonaten": 7252,
      "how": 7253,
      "Ġgreater": 7254,
      "Ġlooked": 7255,
      "grad": 7256,
      "Ġlargest": 7257,
      "Ġbudget": 7258,
      "overy": 7259,
      "Ġstation": 7260,
      "ziell": 7261,
      "html": 7262,
      "Mod": 7263,
      "iglich": 7264,
      "Ġpromo": 7265,
      "Ġscheint": 7266,
      "ĠPDF": 7267,
      "erschaft": 7268,
      "Ġ05": 7269,
      "Ġdelivery": 7270,
      "iell": 7271,
      "Ġsteps": 7272,
      "Ġgenerally": 7273,
      "ĠOther": 7274,
      "twoch": 7275,
      "ĠnÃ¤mlich": 7276,
      "Ġwindow": 7277,
      "Ġarm": 7278,
      "Ġpictures": 7279,
      "Ġcompared": 7280,
      "Ġimmediately": 7281,
      "Ġopin": 7282,
      "ĠListe": 7283,
      "Ġsup": 7284,
      "ky": 7285,
      "pot": 7286,
      "Ġrichtige": 7287,
      "rough": 7288,
      "ancen": 7289,
      "Ġviews": 7290,
      "verse": 7291,
      "Ġentscheiden": 7292,
      "umn": 7293,
      "ĠgrÃ¼": 7294,
      "ibe": 7295,
      "Ġearlier": 7296,
      "urm": 7297,
      "inken": 7298,
      "schrift": 7299,
      "ĠTurn": 7300,
      "ava": 7301,
      "Ġrelevant": 7302,
      "ĠLet": 7303,
      "Ġbeyond": 7304,
      "icon": 7305,
      "Ġincome": 7306,
      "prÃ¤": 7307,
      "Book": 7308,
      "ohann": 7309,
      "Ã¤her": 7310,
      "Ġaccur": 7311,
      "DP": 7312,
      "ĠBlue": 7313,
      "attet": 7314,
      "ĠScience": 7315,
      "ĠTim": 7316,
      "Ġdress": 7317,
      "akte": 7318,
      "ĠZeich": 7319,
      "Ġsetting": 7320,
      "Ġreports": 7321,
      "teuer": 7322,
      "uesday": 7323,
      "Ġsteel": 7324,
      "Ġmonitor": 7325,
      "Ġfell": 7326,
      "Con": 7327,
      "ĠLear": 7328,
      "emat": 7329,
      "ĠInteresse": 7330,
      "Ã¼m": 7331,
      "ĠMuseum": 7332,
      "ĠFarben": 7333,
      "Ġlines": 7334,
      "Ob": 7335,
      "ursday": 7336,
      "iders": 7337,
      "riften": 7338,
      "Do": 7339,
      "ĠEducation": 7340,
      "Ġcells": 7341,
      "ĠRÃ¤": 7342,
      "riff": 7343,
      "Ġitem": 7344,
      "TE": 7345,
      "ometer": 7346,
      "Ġaward": 7347,
      "Ġnearly": 7348,
      "Ġmotiv": 7349,
      "Ġweekend": 7350,
      "resp": 7351,
      "itiative": 7352,
      "Ã¶ffnet": 7353,
      "Ġhimself": 7354,
      "ĠBran": 7355,
      "obby": 7356,
      "las": 7357,
      "ĠPosition": 7358,
      "entrum": 7359,
      "ceed": 7360,
      "ĠRev": 7361,
      "Ġentscheid": 7362,
      "Ġeth": 7363,
      "gebiet": 7364,
      "ĠTexas": 7365,
      "Ind": 7366,
      "ĠCourt": 7367,
      "ĠRos": 7368,
      "Ġausgest": 7369,
      "Ġselection": 7370,
      "ĠChance": 7371,
      "Ġanges": 7372,
      "Ġwund": 7373,
      "ĠTon": 7374,
      "Ã¼sse": 7375,
      "telligen": 7376,
      "Ġmeasure": 7377,
      "itude": 7378,
      "Ġausgew": 7379,
      "Ġimag": 7380,
      "fast": 7381,
      "Ġgesetz": 7382,
      "abin": 7383,
      "Ġahead": 7384,
      "sie": 7385,
      "Ġfeet": 7386,
      "schieden": 7387,
      "Ġthreat": 7388,
      "ehmen": 7389,
      "ĠEnter": 7390,
      "xim": 7391,
      "Ġexisting": 7392,
      "ĠRoman": 7393,
      "ĠPublic": 7394,
      "Ġhelpful": 7395,
      "aled": 7396,
      "Ġbur": 7397,
      "gent": 7398,
      "ĠEss": 7399,
      "polit": 7400,
      "Ġchanged": 7401,
      "ĠCustom": 7402,
      "Ġstatement": 7403,
      "wÃ¼rd": 7404,
      "Ġexpand": 7405,
      "ĠFire": 7406,
      "itiz": 7407,
      "Ġalone": 7408,
      "Ġsuffer": 7409,
      "ĠAsp": 7410,
      "Ġgelten": 7411,
      "ĠâĨĴ": 7412,
      "Ġendlich": 7413,
      "VD": 7414,
      "They": 7415,
      "Ġbeant": 7416,
      "achs": 7417,
      "ĠFot": 7418,
      "Ġprotection": 7419,
      "Ã¤user": 7420,
      "Tube": 7421,
      "ĠRou": 7422,
      "Ġdurchge": 7423,
      "Ġfactors": 7424,
      "Ġpatient": 7425,
      "no": 7426,
      "Ġbroad": 7427,
      "izz": 7428,
      "ĠVerwendung": 7429,
      "key": 7430,
      "ĠCOVID": 7431,
      "angs": 7432,
      "itar": 7433,
      "idential": 7434,
      "Ġadvantage": 7435,
      "itis": 7436,
      "Ġnotice": 7437,
      "ĠGest": 7438,
      "bi": 7439,
      "ĠKurs": 7440,
      "Ġentry": 7441,
      "Ġwild": 7442,
      "Ġdanach": 7443,
      "ĠTime": 7444,
      "ĠVerbindung": 7445,
      "eff": 7446,
      "ĠVideos": 7447,
      "Ġorigin": 7448,
      "Ġunten": 7449,
      "Ġposted": 7450,
      "ype": 7451,
      "ded": 7452,
      "ĠCode": 7453,
      "CD": 7454,
      "ĠschÃ¶ne": 7455,
      "Ġ38": 7456,
      "Ġlimit": 7457,
      "Ġverstehen": 7458,
      "ĠViele": 7459,
      "Ġtalking": 7460,
      "ĠUmgebung": 7461,
      "iling": 7462,
      "ĠAller": 7463,
      "zul": 7464,
      "ĠHerren": 7465,
      "Ġjederzeit": 7466,
      "SE": 7467,
      "wegung": 7468,
      "Ġrespond": 7469,
      "Ġthank": 7470,
      "nerstag": 7471,
      "98": 7472,
      "van": 7473,
      "Ġwes": 7474,
      "ĠIdeen": 7475,
      "Ġrequires": 7476,
      "ĠÃĦr": 7477,
      "Ġsoft": 7478,
      "Ġgestellt": 7479,
      "ktiv": 7480,
      "Ġsurround": 7481,
      "ĠDat": 7482,
      "ĠAR": 7483,
      "asion": 7484,
      "tenance": 7485,
      "zeugt": 7486,
      "Ġschwier": 7487,
      "ĠWeihnachts": 7488,
      "sa": 7489,
      "aven": 7490,
      "Ġunbedingt": 7491,
      "ĠExp": 7492,
      "Ġtransport": 7493,
      "hausen": 7494,
      "ĠRot": 7495,
      "oppel": 7496,
      "Press": 7497,
      "Ġspread": 7498,
      "ibel": 7499,
      "Ð¸": 7500,
      "ĠErd": 7501,
      "Ġcritical": 7502,
      "Ġlength": 7503,
      "Ġguarante": 7504,
      "Ġfiles": 7505,
      "ieb": 7506,
      "Ġgleichzeitig": 7507,
      "Ġconfirm": 7508,
      "ielautomaten": 7509,
      "itect": 7510,
      "PC": 7511,
      "ĠStock": 7512,
      "Daten": 7513,
      "Ġallowed": 7514,
      "ĠPop": 7515,
      "zess": 7516,
      "Ġsorgen": 7517,
      "ĠBek": 7518,
      "istischen": 7519,
      "Ġtoll": 7520,
      "Ġsinn": 7521,
      "Ġwear": 7522,
      "umber": 7523,
      "Res": 7524,
      "Ġquarter": 7525,
      "ĠBitte": 7526,
      "ĠStein": 7527,
      "Ġwife": 7528,
      "mand": 7529,
      "Ġta": 7530,
      "fangen": 7531,
      "lan": 7532,
      "hold": 7533,
      "Ġfarm": 7534,
      "Ġresponsible": 7535,
      "pol": 7536,
      "Ġweather": 7537,
      "ĠCouncil": 7538,
      "Ġeat": 7539,
      "icer": 7540,
      "Ġqual": 7541,
      "Ġing": 7542,
      "nesday": 7543,
      "ĠMitte": 7544,
      "Ġpool": 7545,
      "Ġbillion": 7546,
      "icine": 7547,
      "ĠAdv": 7548,
      "64": 7549,
      "ĠAndre": 7550,
      "Ġslots": 7551,
      "Ġmiddle": 7552,
      "Ġserve": 7553,
      "Ġ150": 7554,
      "ĠKaff": 7555,
      "Ġrespect": 7556,
      "ema": 7557,
      "iency": 7558,
      "Read": 7559,
      "Ġestablish": 7560,
      "lingen": 7561,
      "Ġsustain": 7562,
      "Ġtreffen": 7563,
      "verband": 7564,
      "ierungen": 7565,
      "ĠFund": 7566,
      "Ġerh": 7567,
      "ĠVir": 7568,
      "ĠKrank": 7569,
      "garten": 7570,
      "Ġtragen": 7571,
      "ĠDach": 7572,
      "hy": 7573,
      "Ġgewinnen": 7574,
      "mo": 7575,
      "Ã¤nz": 7576,
      "Ġschaffen": 7577,
      "Ġselber": 7578,
      "entwicklung": 7579,
      "ĠHaar": 7580,
      "Ġ48": 7581,
      "rian": 7582,
      "Ġalternative": 7583,
      "Ġforce": 7584,
      "standing": 7585,
      "Ġstrugg": 7586,
      "athol": 7587,
      "formen": 7588,
      "ongress": 7589,
      "luss": 7590,
      "ĠStraÃŁen": 7591,
      "lymp": 7592,
      "Ġperhaps": 7593,
      "Ġappropriate": 7594,
      "seit": 7595,
      "merzen": 7596,
      "ĠRund": 7597,
      "ĠKons": 7598,
      "ĠJo": 7599,
      "jÃ¤hrige": 7600,
      "Ġhus": 7601,
      "CO": 7602,
      "Ġfahren": 7603,
      "TM": 7604,
      "Ġeinzig": 7605,
      "Ġpowerful": 7606,
      "uld": 7607,
      "ĠDra": 7608,
      "Ġpasst": 7609,
      "free": 7610,
      "lation": 7611,
      "ĠMusic": 7612,
      "kraft": 7613,
      "âĢľ,": 7614,
      "Ġcold": 7615,
      "Ġmanage": 7616,
      "Ġthanks": 7617,
      "ounds": 7618,
      "erklÃ¤rung": 7619,
      "Ġprotect": 7620,
      "ĠfrÃ¼h": 7621,
      "Med": 7622,
      "Ġrace": 7623,
      "inary": 7624,
      "Ġhospital": 7625,
      "Ġerkennen": 7626,
      "ĠAssociation": 7627,
      "Ġpoor": 7628,
      "ĠEst": 7629,
      "ĠFahrzeug": 7630,
      "ĠKÃ¼che": 7631,
      "Ġactual": 7632,
      "zir": 7633,
      "2022": 7634,
      "ĠVerantwort": 7635,
      "ĠGerman": 7636,
      "folge": 7637,
      "Ġ02": 7638,
      "ĠermÃ¶glicht": 7639,
      "ĠChem": 7640,
      "Ġmom": 7641,
      "Ġchallenge": 7642,
      "ĠDich": 7643,
      "tellten": 7644,
      "ĠAutor": 7645,
      "ĠPak": 7646,
      "ossen": 7647,
      "ĠProte": 7648,
      "freund": 7649,
      "ĠIhres": 7650,
      "ĠStoff": 7651,
      "lying": 7652,
      "imp": 7653,
      "Ġschreiben": 7654,
      "ĠbestÃ¤": 7655,
      "kÃ¼nf": 7656,
      "ĠWeitere": 7657,
      "Ġneuer": 7658,
      "Ġhundred": 7659,
      "ĠUse": 7660,
      "Top": 7661,
      "ĠRobert": 7662,
      "Ġjeweiligen": 7663,
      "lebnis": 7664,
      "ĠHig": 7665,
      "ĠGutsch": 7666,
      "Ġselect": 7667,
      "ĠFehler": 7668,
      "Ġzufrieden": 7669,
      "ĠAntworten": 7670,
      "Ġhelping": 7671,
      "Ġknapp": 7672,
      "ĠAngaben": 7673,
      "Ġdete": 7674,
      "Ġanz": 7675,
      "Ġhelped": 7676,
      "Ġstone": 7677,
      "Ġdecor": 7678,
      "ĠPunkt": 7679,
      "Ġmodels": 7680,
      "ielt": 7681,
      "nam": 7682,
      "leistung": 7683,
      "Ġehem": 7684,
      "ĠSupport": 7685,
      "Ġrech": 7686,
      "ĠTom": 7687,
      "Ġefficient": 7688,
      "zwischen": 7689,
      "SA": 7690,
      "Ġtarget": 7691,
      "bek": 7692,
      "Ġbewer": 7693,
      "asts": 7694,
      "Ġzumindest": 7695,
      "amous": 7696,
      "elten": 7697,
      "Ġziemlich": 7698,
      "ĠOder": 7699,
      "ĠKa": 7700,
      "ĠTat": 7701,
      "Ġindepend": 7702,
      "rt": 7703,
      "ĠKit": 7704,
      "ĠKer": 7705,
      "Ġrat": 7706,
      "ĠCard": 7707,
      "ĠWall": 7708,
      "Ġweltweit": 7709,
      "Ġ2003": 7710,
      "ĠMeer": 7711,
      "ĠEqu": 7712,
      "pielt": 7713,
      "Ġbrauchen": 7714,
      "ĠInstagram": 7715,
      "Ġcancer": 7716,
      "Ġwichtige": 7717,
      "orben": 7718,
      "ĠSche": 7719,
      "ĠZeitpunkt": 7720,
      "UL": 7721,
      "ĠHann": 7722,
      "Ġcoach": 7723,
      "leitet": 7724,
      "Fre": 7725,
      "ĠAnwend": 7726,
      "DE": 7727,
      "Ġ03": 7728,
      "Ġexcl": 7729,
      "Ġster": 7730,
      "Ġunc": 7731,
      "SG": 7732,
      "ktor": 7733,
      "ĠProm": 7734,
      "ikt": 7735,
      "bsites": 7736,
      "tseite": 7737,
      "Ġsolid": 7738,
      "ĠMÃ¶": 7739,
      "ĠAlltag": 7740,
      "Ġwider": 7741,
      "Ġliebe": 7742,
      "ĠStÃ¤d": 7743,
      "ĠPrivat": 7744,
      "ively": 7745,
      "Ġrichtigen": 7746,
      "ĠbeschÃ¤f": 7747,
      "Ġwrote": 7748,
      "ĠKrieg": 7749,
      "Ġelements": 7750,
      "ĠGruppen": 7751,
      "Ġbackground": 7752,
      "Ġsurv": 7753,
      "ĠBetriebs": 7754,
      "ĠGeh": 7755,
      "ĠWood": 7756,
      "ucky": 7757,
      "ĠVolks": 7758,
      "ĠFrankfurt": 7759,
      "Ġmining": 7760,
      "Ġcapacity": 7761,
      "NE": 7762,
      "ĠFirma": 7763,
      "iance": 7764,
      "Ġbottom": 7765,
      "ĠverÃ¶ffentlicht": 7766,
      "ii": 7767,
      "ala": 7768,
      "Ġfans": 7769,
      "ĠChurch": 7770,
      "Ġintrodu": 7771,
      "ĠRestaurant": 7772,
      "arth": 7773,
      "Ġalte": 7774,
      "ĠIsland": 7775,
      "ĠSor": 7776,
      "ĠReihe": 7777,
      "ĠGlobal": 7778,
      "acts": 7779,
      "oles": 7780,
      "Ġcommunication": 7781,
      "ĠCy": 7782,
      "Ġdamals": 7783,
      "ĠWirtschaft": 7784,
      "ĠMos": 7785,
      "Ġnorm": 7786,
      "Ġtrial": 7787,
      "Ġgift": 7788,
      "ĠFirmen": 7789,
      "ieÃŁ": 7790,
      "Ġfather": 7791,
      "Ġschn": 7792,
      "Ġvertra": 7793,
      "Ġrelax": 7794,
      "ĠAnzahl": 7795,
      "ĠMail": 7796,
      "Ġconnection": 7797,
      "Ġfinding": 7798,
      "aint": 7799,
      "Ġseven": 7800,
      "Ġgraph": 7801,
      "Ġap": 7802,
      "Ġtherefore": 7803,
      "ftung": 7804,
      "ĠGermany": 7805,
      "Ġdriving": 7806,
      "uting": 7807,
      "Ġassign": 7808,
      "ĠBerufs": 7809,
      "ĠDevelopment": 7810,
      "Ġscen": 7811,
      "Ġsecure": 7812,
      "ĠAuÃŁen": 7813,
      "endet": 7814,
      "Ġmiles": 7815,
      "ĠPeople": 7816,
      "timmt": 7817,
      "ĠFunktionen": 7818,
      "Ġbehand": 7819,
      "tigten": 7820,
      "Ġannual": 7821,
      "fassung": 7822,
      "ĠVerbrauch": 7823,
      "uster": 7824,
      "Ġbelieb": 7825,
      "va": 7826,
      "zÃ¶s": 7827,
      "Ġincred": 7828,
      "was": 7829,
      "Ġdynam": 7830,
      "ĠProv": 7831,
      "ĠRoy": 7832,
      "Ġgenommen": 7833,
      "erner": 7834,
      "ĠAccess": 7835,
      "Ġletter": 7836,
      "gu": 7837,
      "ĠInform": 7838,
      "ĠNun": 7839,
      "tte": 7840,
      "ĠJose": 7841,
      "ora": 7842,
      "FA": 7843,
      "allo": 7844,
      "ĠParis": 7845,
      "zif": 7846,
      "Ġcreative": 7847,
      "Ġmaster": 7848,
      "uro": 7849,
      "formationen": 7850,
      "kir": 7851,
      "ĠKÃ¶ln": 7852,
      "ĠMas": 7853,
      "ĠMoment": 7854,
      "Ġconcept": 7855,
      "Ġtraffic": 7856,
      "Ġachieve": 7857,
      "ĠStaff": 7858,
      "ĠNetwork": 7859,
      "lieben": 7860,
      "Ġcouldn": 7861,
      "ĠÃ¼bern": 7862,
      "friend": 7863,
      "ĠlÃ¤uft": 7864,
      "Ġcollabor": 7865,
      "ĠWunsch": 7866,
      "unternehmen": 7867,
      "Ġshared": 7868,
      "ĠLight": 7869,
      "Ġfear": 7870,
      "Ġestablished": 7871,
      "ĠGedanken": 7872,
      "heb": 7873,
      "verkehr": 7874,
      "ĠKra": 7875,
      "ĠLove": 7876,
      "ĠgÃ¼nstig": 7877,
      "LA": 7878,
      "2011": 7879,
      "Get": 7880,
      "atzen": 7881,
      "Ġnegative": 7882,
      "Now": 7883,
      "Ġgeschrieben": 7884,
      "Ġadop": 7885,
      "zustellen": 7886,
      "ĠMobil": 7887,
      "ĠMitglied": 7888,
      "Ġgern": 7889,
      "ny": 7890,
      "ĠWhy": 7891,
      "ĠWÃ¤hrend": 7892,
      "ĠZudem": 7893,
      "ĠFel": 7894,
      "actions": 7895,
      "Ġretail": 7896,
      "ĠSpecial": 7897,
      "Ġsusp": 7898,
      "ĠZahn": 7899,
      "onym": 7900,
      "ĠMeter": 7901,
      "Â·": 7902,
      "Some": 7903,
      "Unsere": 7904,
      "ĠTO": 7905,
      "Bes": 7906,
      "Ġdeinen": 7907,
      "itors": 7908,
      "ĠAnt": 7909,
      "laufen": 7910,
      "Ġowner": 7911,
      "Ġerziel": 7912,
      "richtungen": 7913,
      "ĠwÃ¤hlen": 7914,
      "achst": 7915,
      "While": 7916,
      "auso": 7917,
      "Ġeconomy": 7918,
      "ĠFrench": 7919,
      "Kon": 7920,
      "Ġgleichen": 7921,
      "ĠgewÃ¤hr": 7922,
      "ĠAbout": 7923,
      "Stud": 7924,
      "ĠZeiten": 7925,
      "Ġhomes": 7926,
      "Ġpeace": 7927,
      "ĠComments": 7928,
      "SV": 7929,
      "LAN": 7930,
      "ĠAfrica": 7931,
      "iques": 7932,
      "Ġentertain": 7933,
      "Comp": 7934,
      "Ġpush": 7935,
      "Ġdennoch": 7936,
      "Ġcompleted": 7937,
      "ĠSchwer": 7938,
      "Ġdirector": 7939,
      "stattung": 7940,
      "anke": 7941,
      "Ġprepar": 7942,
      "ipes": 7943,
      "formance": 7944,
      "Ġcoffee": 7945,
      "ĠRen": 7946,
      "ennung": 7947,
      "ĠDirector": 7948,
      "kr": 7949,
      "Ġwinter": 7950,
      "ellow": 7951,
      "verein": 7952,
      "Ġletzte": 7953,
      "ĠHerzen": 7954,
      "97": 7955,
      "Ġbetre": 7956,
      "uern": 7957,
      "ĠMie": 7958,
      "ĠInn": 7959,
      "ĠMontag": 7960,
      "âĨ": 7961,
      "Ġlaws": 7962,
      "orb": 7963,
      "Ġbuying": 7964,
      "lemen": 7965,
      "lieb": 7966,
      "Ġupdate": 7967,
      "Ġerinn": 7968,
      "ĠImmobilien": 7969,
      "Ġbess": 7970,
      "ĠMex": 7971,
      "Ġ400": 7972,
      "ĠRab": 7973,
      "gelt": 7974,
      "okal": 7975,
      "ĠTechnik": 7976,
      "omain": 7977,
      "Ġdetermine": 7978,
      "Ġmoved": 7979,
      "ĠQue": 7980,
      "td": 7981,
      "Ġanderes": 7982,
      "Ġcheap": 7983,
      "Ġpresident": 7984,
      "azine": 7985,
      "Ġmentioned": 7986,
      "ĠRhein": 7987,
      "ĠConn": 7988,
      "ĠHot": 7989,
      "ĠÃĸl": 7990,
      "ĠAngst": 7991,
      "aters": 7992,
      "operation": 7993,
      "Ġlarger": 7994,
      "ĠAnmeldung": 7995,
      "EST": 7996,
      "ayer": 7997,
      "dr": 7998,
      "Ġspring": 7999,
      "Ġgenutzt": 8000,
      "].": 8001,
      "ĠBis": 8002,
      "verb": 8003,
      "Ġestate": 8004,
      "ĠKirche": 8005,
      "orrow": 8006,
      "icious": 8007,
      "ĠLos": 8008,
      "Chr": 8009,
      "Ġshot": 8010,
      "ĠSong": 8011,
      "Ġ:)": 8012,
      "Ġbeliebt": 8013,
      "anda": 8014,
      "ĠÃĦnder": 8015,
      "pping": 8016,
      "ĠBritish": 8017,
      "ĠverfÃ¼gbar": 8018,
      "ĠschÃ¶nen": 8019,
      "jen": 8020,
      "technik": 8021,
      "leidung": 8022,
      "Ġtesting": 8023,
      "Ġnorth": 8024,
      "reit": 8025,
      "Ġvideos": 8026,
      "azz": 8027,
      "Ġwichtigsten": 8028,
      "ĠLu": 8029,
      "Ġcontract": 8030,
      "Ġuner": 8031,
      "Ġpul": 8032,
      "ĠschlieÃŁlich": 8033,
      "Tr": 8034,
      "Ġzahlreiche": 8035,
      "Ã¶p": 8036,
      "Ġseines": 8037,
      "BS": 8038,
      "ĠFried": 8039,
      "!)": 8040,
      "gart": 8041,
      "Per": 8042,
      "izeit": 8043,
      "ih": 8044,
      "wers": 8045,
      "apers": 8046,
      "ustice": 8047,
      "ilden": 8048,
      "Ġvoice": 8049,
      "Ġfreund": 8050,
      "More": 8051,
      "ĠBrowser": 8052,
      "enses": 8053,
      "Ġjourney": 8054,
      "Ġnumerous": 8055,
      "Ġhandle": 8056,
      "Ġ75": 8057,
      "ĠInnov": 8058,
      "Ġrepair": 8059,
      "fan": 8060,
      "Ġsorgt": 8061,
      "ario": 8062,
      "Inter": 8063,
      "Ġdaneben": 8064,
      "Ġcry": 8065,
      "Ġseeing": 8066,
      "Ġhighl": 8067,
      "ĠIll": 8068,
      "Online": 8069,
      "Ġcourses": 8070,
      "Ġoffiz": 8071,
      "ĠTechnology": 8072,
      "ĠInstall": 8073,
      "Ġbestimmten": 8074,
      "ĠTemperatur": 8075,
      "ommod": 8076,
      "ĠInsel": 8077,
      "Ġhusband": 8078,
      "ĠPor": 8079,
      "Ġbeginnt": 8080,
      "Ġhighest": 8081,
      "lor": 8082,
      "ĠTuesday": 8083,
      "ĠSports": 8084,
      "Ger": 8085,
      "lete": 8086,
      "ĠAff": 8087,
      "iller": 8088,
      "ĠSache": 8089,
      "ĠVert": 8090,
      "ĠausschlieÃŁlich": 8091,
      "Ġdiagn": 8092,
      "Ġefforts": 8093,
      "Ġroll": 8094,
      "ĠSenior": 8095,
      "wohner": 8096,
      "ĠNote": 8097,
      "Ġrom": 8098,
      "Ġnah": 8099,
      "ĠZusammenarbeit": 8100,
      "Ġwhose": 8101,
      "tierte": 8102,
      "Ġimpress": 8103,
      "ete": 8104,
      "pflicht": 8105,
      "iki": 8106,
      "ĠGefÃ¼hl": 8107,
      "Ġlediglich": 8108,
      "icies": 8109,
      "Ġheu": 8110,
      "ĠSecurity": 8111,
      "mittag": 8112,
      "bruch": 8113,
      "Ġhinzu": 8114,
      "Ġenable": 8115,
      "Ġbefinden": 8116,
      "ĠBlock": 8117,
      "Ġplants": 8118,
      "Ġopening": 8119,
      "ĠAtt": 8120,
      "Ġbedroom": 8121,
      "Ġtroub": 8122,
      "ĠServer": 8123,
      "ĠnÃ¤chste": 8124,
      "Ġunterwegs": 8125,
      "ĠzusÃ¤tzlich": 8126,
      "Ġshopping": 8127,
      "ĠUSB": 8128,
      "ĠSpr": 8129,
      "Ġfro": 8130,
      "ohnt": 8131,
      "ethoden": 8132,
      "Ġbeachten": 8133,
      "Ġaf": 8134,
      "schau": 8135,
      "Ġdurchaus": 8136,
      "Ġworkers": 8137,
      "istische": 8138,
      "ĠSach": 8139,
      "Ġsources": 8140,
      "Ġnachdem": 8141,
      "uters": 8142,
      "Ġwebsites": 8143,
      "Ġdram": 8144,
      "ĠHoff": 8145,
      "ĠLong": 8146,
      "Ġgran": 8147,
      "Ġdisp": 8148,
      "tivity": 8149,
      "Ġanzeigen": 8150,
      "ĠLord": 8151,
      "iefer": 8152,
      "gericht": 8153,
      "ĠReich": 8154,
      "ĠSound": 8155,
      "ĠfÃ¤llt": 8156,
      "These": 8157,
      "Deutsch": 8158,
      "ellen": 8159,
      "Nov": 8160,
      "ĠOnce": 8161,
      "iro": 8162,
      "ambling": 8163,
      "Ġign": 8164,
      "ĠRiver": 8165,
      "ĠRegierung": 8166,
      "Ġprocessing": 8167,
      "MA": 8168,
      "ming": 8169,
      "achte": 8170,
      "edy": 8171,
      "iquid": 8172,
      "ĠLager": 8173,
      "ĠFlorida": 8174,
      "Ġrank": 8175,
      "zip": 8176,
      "ĠBett": 8177,
      "Ġflu": 8178,
      "Ġgone": 8179,
      "ĠAutom": 8180,
      "west": 8181,
      "asp": 8182,
      "ĠFenster": 8183,
      "May": 8184,
      "ĠAnspruch": 8185,
      "Ġbiggest": 8186,
      "FL": 8187,
      "ws": 8188,
      "Ġerneut": 8189,
      "ĠLou": 8190,
      "rete": 8191,
      "Ġok": 8192,
      "chem": 8193,
      "deck": 8194,
      "ĠhÃ¤tten": 8195,
      "ĠSatz": 8196,
      "Ġlose": 8197,
      "Zu": 8198,
      "Ġclasses": 8199,
      "ternal": 8200,
      "ĠInstitute": 8201,
      "karten": 8202,
      "ĠauÃŁerdem": 8203,
      "CC": 8204,
      "Ġrooms": 8205,
      "werte": 8206,
      "Gesch": 8207,
      "ĠSalz": 8208,
      "ĠCam": 8209,
      "ĠThursday": 8210,
      "ĠGesundheits": 8211,
      "ipl": 8212,
      "gment": 8213,
      "Zum": 8214,
      "ĠSinn": 8215,
      "Ġziehen": 8216,
      "Ġbequem": 8217,
      "etzte": 8218,
      "ĠProzess": 8219,
      "MP": 8220,
      "Ġsodass": 8221,
      "Ġdirection": 8222,
      "Ġchallenges": 8223,
      "Ġswitch": 8224,
      "Acc": 8225,
      "Ġbestimmt": 8226,
      "Ġwedding": 8227,
      "Ġmanager": 8228,
      "ĠThank": 8229,
      "Ġserver": 8230,
      "Ġserved": 8231,
      "reme": 8232,
      "ĠLÃ¶": 8233,
      "ĠVerkehrs": 8234,
      "Ġ33": 8235,
      "Ġmovement": 8236,
      "ĠMaÃŁnahmen": 8237,
      "ĠRepublic": 8238,
      "ĠMary": 8239,
      "uests": 8240,
      "Ġfigure": 8241,
      "rate": 8242,
      "ĠJohann": 8243,
      "Ġheavy": 8244,
      "ĠBil": 8245,
      "Ġcamera": 8246,
      "alley": 8247,
      "ĠgrÃ¶ÃŁten": 8248,
      "Ġsharing": 8249,
      "Ġobvious": 8250,
      "Ġdriver": 8251,
      "sÃ¤tzlich": 8252,
      "ĠSicherheits": 8253,
      "Ġehemal": 8254,
      "ĠMobile": 8255,
      "wirkungen": 8256,
      "ĠPR": 8257,
      "berger": 8258,
      "Ġstets": 8259,
      "Ġoperations": 8260,
      "anned": 8261,
      "ĠÂ©": 8262,
      "ĠSchwarz": 8263,
      "ĠCra": 8264,
      "Spiel": 8265,
      "ĠId": 8266,
      "Ġfunds": 8267,
      "ĠKommentar": 8268,
      "Ġhappened": 8269,
      "ĠPil": 8270,
      "Ġslight": 8271,
      "ĠYouTube": 8272,
      "Ġobj": 8273,
      "abend": 8274,
      "ĠInfos": 8275,
      "ĠKarte": 8276,
      "system": 8277,
      "Your": 8278,
      "Ġ37": 8279,
      "iminal": 8280,
      "ĠgroÃŁer": 8281,
      "Ġexperiences": 8282,
      "Ġdrug": 8283,
      "Fra": 8284,
      "log": 8285,
      "ĠpersÃ¶nlichen": 8286,
      "Ġlieber": 8287,
      "ĠChild": 8288,
      "Ġproduced": 8289,
      "Ġfederal": 8290,
      "ziert": 8291,
      "ĠFull": 8292,
      "scher": 8293,
      "ĠBio": 8294,
      "ĠKunde": 8295,
      "Ġraus": 8296,
      "Ġadjust": 8297,
      "Ġfashion": 8298,
      "ĠLinks": 8299,
      "Ġabsolutely": 8300,
      "Ġaufs": 8301,
      "ĠBon": 8302,
      "zwe": 8303,
      "ĠTests": 8304,
      "ĠFÃ¼": 8305,
      "ĠSince": 8306,
      "fense": 8307,
      "Qu": 8308,
      "Ġdrop": 8309,
      "ĠKomb": 8310,
      "Ġmetal": 8311,
      "Ġfallen": 8312,
      "ĠBern": 8313,
      "ĠGerÃ¤t": 8314,
      "prise": 8315,
      "ĠKampf": 8316,
      "Ġthr": 8317,
      "ĠSprache": 8318,
      "Ã¼tzt": 8319,
      "Ġlearned": 8320,
      "Ġadvanced": 8321,
      "Ġpow": 8322,
      "Ġtruth": 8323,
      "weit": 8324,
      "Ġfolgende": 8325,
      "Ġvan": 8326,
      "ĠWeek": 8327,
      "jÃ¤hrigen": 8328,
      "Ġdiet": 8329,
      "ĠDE": 8330,
      "Ġprosp": 8331,
      "active": 8332,
      "Ġfollowed": 8333,
      "rome": 8334,
      "ye": 8335,
      "Ġresist": 8336,
      "ĠJa": 8337,
      "Ġhaven": 8338,
      "das": 8339,
      "ĠRand": 8340,
      "Ġusw": 8341,
      "etzungen": 8342,
      "Ġmemory": 8343,
      "Ġtask": 8344,
      "inzip": 8345,
      "ĠPage": 8346,
      "olz": 8347,
      "Ġguys": 8348,
      "ĠAllerdings": 8349,
      "entliche": 8350,
      "Hotel": 8351,
      "Ġkrit": 8352,
      "heits": 8353,
      "Ġschlecht": 8354,
      "unction": 8355,
      "entur": 8356,
      "fÃ¤higkeit": 8357,
      "Ġorganizations": 8358,
      "deutsch": 8359,
      "ĠLux": 8360,
      "ĠBeratung": 8361,
      "Ġcentral": 8362,
      "Ã¶rter": 8363,
      "Ġhalt": 8364,
      "ĠMarken": 8365,
      "ĠOriginal": 8366,
      "unately": 8367,
      "Ġsprechen": 8368,
      "Ġremove": 8369,
      "Ġzuletzt": 8370,
      "ĠmÃ¶glichst": 8371,
      "prech": 8372,
      "ĠMÃ¤dchen": 8373,
      "Ġpieces": 8374,
      "Ġruh": 8375,
      "Ġunterschiedlichen": 8376,
      "War": 8377,
      "ĠMik": 8378,
      "Ġfriendly": 8379,
      "tigte": 8380,
      "Ġleader": 8381,
      "Ġdarin": 8382,
      "ĠOh": 8383,
      "Ġsociety": 8384,
      "hende": 8385,
      "ĠMund": 8386,
      "ĠnÃ¶": 8387,
      "ĠHill": 8388,
      "merz": 8389,
      "Ġtolle": 8390,
      "ĠSoll": 8391,
      "hern": 8392,
      "Bet": 8393,
      "Ġinspir": 8394,
      "ĠBrÃ¼": 8395,
      "gien": 8396,
      "Ġpull": 8397,
      "Ġstick": 8398,
      "vÃ¶lker": 8399,
      "lern": 8400,
      "ĠVerd": 8401,
      "Ġwobei": 8402,
      "ĠVarian": 8403,
      "ĠLake": 8404,
      "Ġseparate": 8405,
      "Ġkos": 8406,
      "Ġaffect": 8407,
      "ĠHandy": 8408,
      "Ġtopic": 8409,
      "Ġbag": 8410,
      "Ġhyd": 8411,
      "Ġ34": 8412,
      "ĠChinese": 8413,
      "ĠBewertung": 8414,
      "Ġborn": 8415,
      "ĠMatt": 8416,
      "viel": 8417,
      "Ġsty": 8418,
      "Ser": 8419,
      "Ġmittlerweile": 8420,
      "ĠWednesday": 8421,
      "lebt": 8422,
      "enken": 8423,
      "Ġstandards": 8424,
      "erseits": 8425,
      "ĠKey": 8426,
      "ĠverfÃ¼gt": 8427,
      "cript": 8428,
      "iÃŁen": 8429,
      "Ġfan": 8430,
      "ucker": 8431,
      "ĠEth": 8432,
      "management": 8433,
      "ixt": 8434,
      "Ġexperts": 8435,
      "Ġpopulation": 8436,
      "Ġposts": 8437,
      "merksam": 8438,
      "Ġspiele": 8439,
      "Post": 8440,
      "ĠTar": 8441,
      "rehens": 8442,
      "Ġsem": 8443,
      "Ġerwartet": 8444,
      "lare": 8445,
      "ĠGeorg": 8446,
      "ĠWÃ¼r": 8447,
      "ÑĤ": 8448,
      "Ġburn": 8449,
      "oral": 8450,
      "gesehen": 8451,
      "Ġzuvor": 8452,
      "Ġbreat": 8453,
      "utzen": 8454,
      "mund": 8455,
      "ĠAbschluss": 8456,
      "isode": 8457,
      "ĠAnwendung": 8458,
      "Techn": 8459,
      "Ġrent": 8460,
      "Ġgesamte": 8461,
      "Ġdeveloping": 8462,
      "immel": 8463,
      "ĠHan": 8464,
      "ĠlÃ¤ng": 8465,
      "ĠRom": 8466,
      "Ġwaste": 8467,
      "ĠBÃ¼ro": 8468,
      "rock": 8469,
      "ĠAND": 8470,
      "Ġsitu": 8471,
      "Ġbestimmte": 8472,
      "ĠÃľb": 8473,
      "enzen": 8474,
      "rick": 8475,
      "Ġfinished": 8476,
      "Ġrestaurant": 8477,
      "ĠVier": 8478,
      "ĠEach": 8479,
      "ĠFeld": 8480,
      "istet": 8481,
      "star": 8482,
      "Ġsector": 8483,
      "Ġkept": 8484,
      "Ġmilitary": 8485,
      "Ġprint": 8486,
      "Ġbalance": 8487,
      "Ġthoughts": 8488,
      "lisch": 8489,
      "ĠÃ¤ndern": 8490,
      "ĠBeding": 8491,
      "onom": 8492,
      "ĠGesprÃ¤ch": 8493,
      "ĠBeim": 8494,
      "okrat": 8495,
      "Ġunseres": 8496,
      "urb": 8497,
      "Beit": 8498,
      "ICH": 8499,
      "Ġgesamten": 8500,
      "Ã¤ten": 8501,
      "Ġvalues": 8502,
      "grade": 8503,
      "Ġwirt": 8504,
      "Ġfacilities": 8505,
      "Ġsolchen": 8506,
      "Ġforms": 8507,
      "ĠEind": 8508,
      "ĠermÃ¶glichen": 8509,
      "TA": 8510,
      "artige": 8511,
      "ochter": 8512,
      "Ġsuggest": 8513,
      "Ġnamed": 8514,
      "Ġfootball": 8515,
      "\"-": 8516,
      "ĠArzt": 8517,
      "Ġgebracht": 8518,
      "inks": 8519,
      "Ġcompar": 8520,
      "Ġplenty": 8521,
      "Ġdisapp": 8522,
      "estyle": 8523,
      "ĠPrice": 8524,
      "ĠVal": 8525,
      "igungs": 8526,
      "Ġwouldn": 8527,
      "ĠTransport": 8528,
      "auch": 8529,
      "Innen": 8530,
      "Ġnotwendig": 8531,
      "Ġcars": 8532,
      "Ġ00": 8533,
      "vo": 8534,
      "gener": 8535,
      "Ġverantwort": 8536,
      "ĠCall": 8537,
      "teid": 8538,
      "eline": 8539,
      "agra": 8540,
      "Ġcook": 8541,
      "Here": 8542,
      "=\"": 8543,
      "enture": 8544,
      "Ġtypically": 8545,
      "ilding": 8546,
      "She": 8547,
      "ĠHans": 8548,
      "not": 8549,
      "kÃ¼": 8550,
      "Ġload": 8551,
      "Ġdecide": 8552,
      "Ġguess": 8553,
      "Ġversuchen": 8554,
      "ĠSÃ¼": 8555,
      "ĠSpezial": 8556,
      "Com": 8557,
      "Ġcatch": 8558,
      "Ġwaiting": 8559,
      "gro": 8560,
      "waren": 8561,
      "unkten": 8562,
      "ĠBor": 8563,
      "schung": 8564,
      "ĠIntegr": 8565,
      "Ġverbessern": 8566,
      "ĠLeistungen": 8567,
      "funktion": 8568,
      "steuer": 8569,
      "ĠGebÃ¤ude": 8570,
      "ĠSC": 8571,
      "ĠSchluss": 8572,
      "ĠMittwoch": 8573,
      "ĠVerk": 8574,
      "Ġdarum": 8575,
      "2010": 8576,
      "Ã¶tz": 8577,
      "ĠWissenschaft": 8578,
      "unning": 8579,
      "illage": 8580,
      "Ġkeeping": 8581,
      "liste": 8582,
      "Ġnachhal": 8583,
      "ĠIndustrie": 8584,
      "',": 8585,
      "ĠUnder": 8586,
      "Ġfaith": 8587,
      "ĠFrÃ¼": 8588,
      "zentrum": 8589,
      "Ġjunge": 8590,
      "itionen": 8591,
      "ĠPolicy": 8592,
      "agegen": 8593,
      "ĠJew": 8594,
      "sburg": 8595,
      "Ġsweet": 8596,
      "ierenden": 8597,
      "Ġautomatisch": 8598,
      "ierende": 8599,
      "Ġcounter": 8600,
      "ĠCookie": 8601,
      "rd": 8602,
      "Ġonto": 8603,
      "Ġprepared": 8604,
      "Ġlieb": 8605,
      "Ġstatus": 8606,
      "ĠMulti": 8607,
      "Ġcapt": 8608,
      "ĠVater": 8609,
      "ickt": 8610,
      "Ġ1000": 8611,
      "Ġexchange": 8612,
      "uhl": 8613,
      "Ġindic": 8614,
      "asure": 8615,
      "Ġreality": 8616,
      "uzz": 8617,
      "Ġanderer": 8618,
      "Ġentsprechend": 8619,
      "Ġ2002": 8620,
      "ĠStutt": 8621,
      "Ġproperties": 8622,
      "ĠBezug": 8623,
      "ĠLaut": 8624,
      "Ġcleaning": 8625,
      "Ġconnected": 8626,
      "oline": 8627,
      "ĠFamily": 8628,
      "ĠGuide": 8629,
      "hoben": 8630,
      "rasch": 8631,
      "fragt": 8632,
      "Part": 8633,
      "ĠkÃ¶nnt": 8634,
      "ĠVen": 8635,
      "Ġrap": 8636,
      "ĠSinne": 8637,
      "ĠToday": 8638,
      "Ġlux": 8639,
      "ĠBÃ¼cher": 8640,
      "ĠiP": 8641,
      "Ġolder": 8642,
      "Ġexercise": 8643,
      "Ġtag": 8644,
      "ĠBM": 8645,
      "ationale": 8646,
      "Ġmission": 8647,
      "CE": 8648,
      "beg": 8649,
      "Ġforeign": 8650,
      "Ġeingesetzt": 8651,
      "Ġmanchmal": 8652,
      "Ġmachines": 8653,
      "Ġgather": 8654,
      "ĠÃ¼brigen": 8655,
      "ĠItalien": 8656,
      "ĠPhys": 8657,
      "ĠSonder": 8658,
      "Ġangen": 8659,
      "zeichnung": 8660,
      "Ġimpl": 8661,
      "rid": 8662,
      "ĠKenn": 8663,
      "ĠGut": 8664,
      "Ġcontains": 8665,
      "Ġaware": 8666,
      "Ġbutton": 8667,
      "ĠFreude": 8668,
      "zepte": 8669,
      "ĠVorauss": 8670,
      "oting": 8671,
      "ĠOlymp": 8672,
      "ethode": 8673,
      "Ġcompla": 8674,
      "Ġholiday": 8675,
      "fÃ¼hren": 8676,
      "Ġwest": 8677,
      "ĠSens": 8678,
      "iums": 8679,
      "tierung": 8680,
      "Ġmist": 8681,
      "urers": 8682,
      "Ġpaint": 8683,
      "ĠGrad": 8684,
      "Ġaudience": 8685,
      "\")": 8686,
      "ĠDeine": 8687,
      "zte": 8688,
      "Ġvisitors": 8689,
      "ĠAnforderungen": 8690,
      "ikes": 8691,
      "Ġlag": 8692,
      "Ġwhatever": 8693,
      "ĠHead": 8694,
      "abetes": 8695,
      "rÃ¤f": 8696,
      "Ġgekommen": 8697,
      "ĠEvent": 8698,
      "ĠKrit": 8699,
      "Ġpresented": 8700,
      "icago": 8701,
      "ĠMov": 8702,
      "Ġacademic": 8703,
      "Ġcast": 8704,
      "Ġcovered": 8705,
      "Ġteaching": 8706,
      "à¤": 8707,
      "ĠMeister": 8708,
      "Ġ39": 8709,
      "oup": 8710,
      "udd": 8711,
      "Ġerwarten": 8712,
      "ĠID": 8713,
      "Ġcalls": 8714,
      "ervation": 8715,
      "Ġwelcome": 8716,
      "Ġlisted": 8717,
      "Ġerkl": 8718,
      "ĠProject": 8719,
      "ĠSlots": 8720,
      "ĠHalb": 8721,
      "ili": 8722,
      "Ã¶t": 8723,
      "Ġoperating": 8724,
      "ĠFreunde": 8725,
      "rogen": 8726,
      "Ġdetail": 8727,
      "lapp": 8728,
      "ĠSar": 8729,
      "ĠenthÃ¤lt": 8730,
      "bieten": 8731,
      "Ġfram": 8732,
      "ĠUrs": 8733,
      "Adresse": 8734,
      "Ġsucht": 8735,
      "blog": 8736,
      "ĠCentral": 8737,
      "Ġwenige": 8738,
      "Ġsubsc": 8739,
      "Ġ120": 8740,
      "nungen": 8741,
      "Ġherr": 8742,
      "ĠOld": 8743,
      "isco": 8744,
      "Ġsmaller": 8745,
      "Ġdish": 8746,
      "ĠZusch": 8747,
      "ĠSaf": 8748,
      "ĠAufgabe": 8749,
      "Ġbow": 8750,
      "Ġshape": 8751,
      "rical": 8752,
      "Ġ(\"": 8753,
      "ĠColor": 8754,
      "ĠFÃ¤llen": 8755,
      "ĠDonnerstag": 8756,
      "programm": 8757,
      "tten": 8758,
      "Ġbrain": 8759,
      "linik": 8760,
      "Ġdescribed": 8761,
      "ault": 8762,
      "ifer": 8763,
      "63": 8764,
      "Ã¶ne": 8765,
      "ĠInterview": 8766,
      "........": 8767,
      "gende": 8768,
      "Ã¤den": 8769,
      "ĠEinsch": 8770,
      "ĠSchÃ¶n": 8771,
      "ĠGraf": 8772,
      "Ġdepartment": 8773,
      "Ġexhib": 8774,
      "enntnis": 8775,
      "wal": 8776,
      "schriften": 8777,
      "folio": 8778,
      "Ġapps": 8779,
      "Ġschedule": 8780,
      "zielle": 8781,
      "ĠStil": 8782,
      "Ġcharacters": 8783,
      "Ġmajority": 8784,
      "ĠSn": 8785,
      "uert": 8786,
      "TER": 8787,
      "Ġattach": 8788,
      "Ġtend": 8789,
      "Ġherunter": 8790,
      "ĠHen": 8791,
      "ĠAcadem": 8792,
      "Ã¶se": 8793,
      "zÃ¼glich": 8794,
      "Not": 8795,
      "UNG": 8796,
      "ĠZusammenhang": 8797,
      "lingt": 8798,
      "Ġeight": 8799,
      "Ġplaced": 8800,
      "ĠFakt": 8801,
      "ĠVertre": 8802,
      "âĢŀ": 8803,
      "iellen": 8804,
      "Ġassistance": 8805,
      "Ġod": 8806,
      "undert": 8807,
      "ĠunabhÃ¤ng": 8808,
      "Ġerstellen": 8809,
      "uber": 8810,
      "Ġscore": 8811,
      "ĠCup": 8812,
      "Ġvorbei": 8813,
      "ĠHon": 8814,
      "Ġarticles": 8815,
      "car": 8816,
      "Ġdenke": 8817,
      "INE": 8818,
      "ĠResp": 8819,
      "Ġcoverage": 8820,
      "Ġsah": 8821,
      "OD": 8822,
      "Ġfindest": 8823,
      "Ġshoot": 8824,
      "Ġfish": 8825,
      "ĠLook": 8826,
      "Ġschwarz": 8827,
      "ĠgenieÃŁen": 8828,
      "Ġgenauso": 8829,
      "gebaut": 8830,
      "ĠTraum": 8831,
      "ĠFahrrad": 8832,
      "ĠUnser": 8833,
      "Ġfrag": 8834,
      "ĠVit": 8835,
      "ĠKnow": 8836,
      "Ġhappens": 8837,
      "Ġfabric": 8838,
      "Ġdiverse": 8839,
      "Ġprofessionals": 8840,
      "Ġversucht": 8841,
      "ĠVersicher": 8842,
      "ĠKreuz": 8843,
      "ĠZahlen": 8844,
      "ĠKonz": 8845,
      "rist": 8846,
      "itts": 8847,
      "werke": 8848,
      "Ġmarkets": 8849,
      "Ġpassed": 8850,
      "Ġteilweise": 8851,
      "orte": 8852,
      "Ġinnovative": 8853,
      "ĠIslam": 8854,
      "Ġthus": 8855,
      "ĠWin": 8856,
      "gewÃ¶hn": 8857,
      "aks": 8858,
      "wald": 8859,
      "ĠBecause": 8860,
      "ãĢ": 8861,
      "Ġleb": 8862,
      "iciency": 8863,
      "ĠFore": 8864,
      "Ġ55": 8865,
      "geschichte": 8866,
      "ĠAlles": 8867,
      "stÃ¤nde": 8868,
      "ĠMetall": 8869,
      "KE": 8870,
      "fs": 8871,
      "ictor": 8872,
      "Ġ2001": 8873,
      "ĠSpring": 8874,
      "ĠZweck": 8875,
      "Ġconcentr": 8876,
      "Ġcentury": 8877,
      "Ġpassion": 8878,
      "Ġsymbol": 8879,
      "ĠUniversitÃ¤t": 8880,
      "ĠExperten": 8881,
      "61": 8882,
      "wesen": 8883,
      "ĠMP": 8884,
      "ĠHerbst": 8885,
      "ĠAlthough": 8886,
      "Fin": 8887,
      "Ġnames": 8888,
      "Bild": 8889,
      "wel": 8890,
      "Ġearth": 8891,
      "ae": 8892,
      "bereitung": 8893,
      "Ġoperation": 8894,
      "Ġelement": 8895,
      "versch": 8896,
      "ĠâĢº": 8897,
      "ĠregelmÃ¤ÃŁig": 8898,
      "Car": 8899,
      "ĠStrand": 8900,
      "life": 8901,
      "zÃ¤hl": 8902,
      "Ġobwohl": 8903,
      "ĠCommission": 8904,
      "kurs": 8905,
      "ĠÃ¶ffentlichen": 8906,
      "ĠVan": 8907,
      "itÃ¤r": 8908,
      "nern": 8909,
      "asks": 8910,
      "ĠJobs": 8911,
      "ĠHochzeit": 8912,
      "Â´": 8913,
      "Ġbecomes": 8914,
      "Ġfees": 8915,
      "stands": 8916,
      "ĠMorgen": 8917,
      "ĠRadio": 8918,
      "has": 8919,
      "CA": 8920,
      "ĠCA": 8921,
      "Ġsmooth": 8922,
      "ĠVorteile": 8923,
      "erman": 8924,
      "ĠGeschmack": 8925,
      "ĠWirkung": 8926,
      "light": 8927,
      "Ġbought": 8928,
      "Ġpractices": 8929,
      "erem": 8930,
      "ĠDeshalb": 8931,
      "Ġihres": 8932,
      "enntnisse": 8933,
      "Ġgaran": 8934,
      "eler": 8935,
      "Ġdistance": 8936,
      "legenheit": 8937,
      "Ġgratis": 8938,
      "vol": 8939,
      "linge": 8940,
      "Ġrepe": 8941,
      "Ġaccep": 8942,
      "ĠCloud": 8943,
      "Ġober": 8944,
      "Hand": 8945,
      "Ġwire": 8946,
      "85": 8947,
      "Ġcommunities": 8948,
      "Ġphil": 8949,
      "Ġspl": 8950,
      "ĠGarden": 8951,
      "ĠInhalt": 8952,
      "Ġwindows": 8953,
      "ĠElektro": 8954,
      "hrt": 8955,
      "Ġnavig": 8956,
      "Ġsession": 8957,
      "Ġrare": 8958,
      "Seit": 8959,
      "Ġtree": 8960,
      "Ġselling": 8961,
      "Ġpassiert": 8962,
      "ĠVertra": 8963,
      "Ġentwickeln": 8964,
      "ĠTrain": 8965,
      "ĠEuch": 8966,
      "Jan": 8967,
      "Ġfill": 8968,
      "Ġpossibly": 8969,
      "merikan": 8970,
      "Ġbul": 8971,
      "ĠEis": 8972,
      "Ġdiss": 8973,
      "ĠHintergrund": 8974,
      "ĠWatch": 8975,
      "ĠRisiko": 8976,
      "Ġquant": 8977,
      "Weiter": 8978,
      "look": 8979,
      "Ġtests": 8980,
      "ÑĢ": 8981,
      "esome": 8982,
      "ĠgewÃ¼n": 8983,
      "iga": 8984,
      "JÃ¤hr": 8985,
      "SU": 8986,
      "Ġegal": 8987,
      "Ġentw": 8988,
      "stÃ¤t": 8989,
      "agers": 8990,
      "ĠSom": 8991,
      "Ġven": 8992,
      "Ġcaused": 8993,
      "gehend": 8994,
      "ĠGerÃ¤te": 8995,
      "Ġengineering": 8996,
      "ifts": 8997,
      "annung": 8998,
      "ĠTrainer": 8999,
      "Ġausreich": 9000,
      "egas": 9001,
      "Ġparties": 9002,
      "Zur": 9003,
      "Ġmehreren": 9004,
      "Durch": 9005,
      "gern": 9006,
      "versicherung": 9007,
      "Ġformat": 9008,
      "ructure": 9009,
      "ĠWider": 9010,
      "Ġverloren": 9011,
      "Ġtruck": 9012,
      "kont": 9013,
      "Ġ250": 9014,
      "rem": 9015,
      "Ġlabor": 9016,
      "avirus": 9017,
      "Ġmaintenance": 9018,
      "flug": 9019,
      "ĠON": 9020,
      "emit": 9021,
      "ĠFab": 9022,
      "Ġproperly": 9023,
      "Ð½": 9024,
      "ĠMA": 9025,
      "Ġcontinued": 9026,
      "zent": 9027,
      "eme": 9028,
      "Ġexpensive": 9029,
      "Ġtemperature": 9030,
      "Ġdoctor": 9031,
      "Ġdeiner": 9032,
      "Ġpurs": 9033,
      "with": 9034,
      "imension": 9035,
      "Ġfle": 9036,
      "ato": 9037,
      "mÃ¼": 9038,
      "Ġwenigen": 9039,
      "Ã¼sseld": 9040,
      "schuhe": 9041,
      "ĠWander": 9042,
      "ĠDev": 9043,
      "Ġthousands": 9044,
      "Ġguter": 9045,
      "Ġremains": 9046,
      "FC": 9047,
      "wart": 9048,
      "Ġton": 9049,
      "gyp": 9050,
      "Ġcompetition": 9051,
      "athemat": 9052,
      "Ġselected": 9053,
      "Ġjournal": 9054,
      "Ġfalls": 9055,
      "ĠGovernment": 9056,
      "Den": 9057,
      "ordnet": 9058,
      "Ġfee": 9059,
      "zahlt": 9060,
      "Ġbisschen": 9061,
      "ript": 9062,
      "ialog": 9063,
      "Ġdunk": 9064,
      "ĠbenÃ¶tigt": 9065,
      "ĠTit": 9066,
      "Ġknows": 9067,
      "ĠFreizeit": 9068,
      "Ġnor": 9069,
      "ĠTradition": 9070,
      "Ġtechniques": 9071,
      "sprÃ¼n": 9072,
      "ĠTimes": 9073,
      "Ġaccommod": 9074,
      "ffer": 9075,
      "Ġstrategies": 9076,
      "ĠAntrag": 9077,
      "front": 9078,
      "Ġingred": 9079,
      "Ġsenior": 9080,
      "Ġdedicated": 9081,
      "ĠMode": 9082,
      "essions": 9083,
      "abilities": 9084,
      "Ġadding": 9085,
      "Ġmap": 9086,
      "mittelt": 9087,
      "verlÃ¤ss": 9088,
      "Ġgutes": 9089,
      "Ġpal": 9090,
      "alls": 9091,
      "ramm": 9092,
      "iences": 9093,
      "ĠWÃ¤r": 9094,
      "Ġbestellen": 9095,
      "famil": 9096,
      "Ġpoker": 9097,
      "merk": 9098,
      "Ġclosed": 9099,
      "Ġlab": 9100,
      "Ġveget": 9101,
      "Ges": 9102,
      "Ġprocesses": 9103,
      "Ġmort": 9104,
      "ĠInsp": 9105,
      "ĠHeiz": 9106,
      "Ġbesondere": 9107,
      "einer": 9108,
      "rast": 9109,
      "ĠArbeiten": 9110,
      "Ġdanger": 9111,
      "Ġkid": 9112,
      "Ġrepl": 9113,
      "Ġloans": 9114,
      "ĠLÃ¤ndern": 9115,
      "ĠTermin": 9116,
      "Ġgirls": 9117,
      "ehÃ¶r": 9118,
      "punkte": 9119,
      "Ġerster": 9120,
      "ura": 9121,
      "Ġwunder": 9122,
      "umente": 9123,
      "Ġidentify": 9124,
      "ĠDoppel": 9125,
      "79": 9126,
      "going": 9127,
      "Ġvari": 9128,
      "300": 9129,
      "ĠKlasse": 9130,
      "gangs": 9131,
      "Ġfav": 9132,
      "Ġvision": 9133,
      "edom": 9134,
      "Ġsympt": 9135,
      "Ġdecisions": 9136,
      "host": 9137,
      "anlagen": 9138,
      "aptop": 9139,
      "Ġstreet": 9140,
      "Ġcris": 9141,
      "Ġstars": 9142,
      "Ġindependent": 9143,
      "gner": 9144,
      "ĠStore": 9145,
      "ĠPrÃ¤sident": 9146,
      "Ġherz": 9147,
      "Ġï¿½": 9148,
      "lect": 9149,
      "Ġsouth": 9150,
      "ĠLeistungs": 9151,
      "'.": 9152,
      "Ġexter": 9153,
      "Weitere": 9154,
      "ĠHandel": 9155,
      "Ġentgegen": 9156,
      "sb": 9157,
      "ĠWohl": 9158,
      "ĠVorteil": 9159,
      "Ed": 9160,
      "losen": 9161,
      "Ġfantastic": 9162,
      "\":": 9163,
      "ĠStaat": 9164,
      "gery": 9165,
      "Ġwahrscheinlich": 9166,
      "ĠVerhalten": 9167,
      "Ġwirkt": 9168,
      "linie": 9169,
      "Ġevening": 9170,
      "mier": 9171,
      "Ġclaims": 9172,
      "Ġiron": 9173,
      "maÃŁ": 9174,
      "det": 9175,
      "Ġlit": 9176,
      "iern": 9177,
      "Ġfamous": 9178,
      "last": 9179,
      "Ġzuerst": 9180,
      "ĠSyn": 9181,
      "ĠAD": 9182,
      "ĠBeitrÃ¤ge": 9183,
      "Ġspending": 9184,
      "ĠVerÃ¤nder": 9185,
      "ĠWomen": 9186,
      "Ġauto": 9187,
      "ulations": 9188,
      "Ġdebt": 9189,
      "ĠMand": 9190,
      "ĠErwachsen": 9191,
      "ernt": 9192,
      "ĠDiv": 9193,
      "rs": 9194,
      "ĠFoundation": 9195,
      "ĠWochenende": 9196,
      "ĠUkra": 9197,
      "rein": 9198,
      "nel": 9199,
      "Ġdaughter": 9200,
      "ĠSystems": 9201,
      "Ġinstr": 9202,
      "outs": 9203,
      "ĠbenÃ¶tigen": 9204,
      "ĠÃ¤lter": 9205,
      "rap": 9206,
      "ĠGeorge": 9207,
      "ulated": 9208,
      "Ġhervorrag": 9209,
      "ikal": 9210,
      "Ġcontinues": 9211,
      "ĠValley": 9212,
      "gruppen": 9213,
      "known": 9214,
      "Ġmental": 9215,
      "ĠDienstag": 9216,
      "Ġestim": 9217,
      "vors": 9218,
      "Ġcore": 9219,
      "ĠAktion": 9220,
      "onavirus": 9221,
      "Ġmorgen": 9222,
      "linien": 9223,
      "ĠLeser": 9224,
      "Ġamb": 9225,
      "ĠBuy": 9226,
      "ĠSmith": 9227,
      "ĠProfession": 9228,
      "Ġalter": 9229,
      "Ġwarten": 9230,
      "pressum": 9231,
      "opped": 9232,
      "isa": 9233,
      "ĠdurchgefÃ¼hrt": 9234,
      "bringen": 9235,
      "teten": 9236,
      "ĠTab": 9237,
      "Â©": 9238,
      "Hallo": 9239,
      "Ġgeschlossen": 9240,
      "Ġwirtschaft": 9241,
      "Ġroof": 9242,
      "Ġguy": 9243,
      "ĠCEO": 9244,
      "ĠFans": 9245,
      "ĠKommunikation": 9246,
      "ĠSlot": 9247,
      "Ġunterschiedliche": 9248,
      "Ġworry": 9249,
      "ĠSearch": 9250,
      "ĠHeute": 9251,
      "Ġcomponents": 9252,
      "enswert": 9253,
      "ĠDaher": 9254,
      "Ġschne": 9255,
      "Ġcombination": 9256,
      "Ġleadership": 9257,
      "Ġbecoming": 9258,
      "Ġconference": 9259,
      "ĠFig": 9260,
      "rency": 9261,
      "Ġfuel": 9262,
      "Ã³": 9263,
      "itale": 9264,
      "verstÃ¤ndlich": 9265,
      "cean": 9266,
      "auern": 9267,
      "ĠPflanzen": 9268,
      "From": 9269,
      "Ġumfass": 9270,
      "ĠpersÃ¶nlich": 9271,
      "Ġeinzige": 9272,
      "ÃŃ": 9273,
      "ĠSieg": 9274,
      "Ġverlassen": 9275,
      "Ġcategory": 9276,
      "bell": 9277,
      "Ġdoll": 9278,
      "Ġclassic": 9279,
      "ĠSale": 9280,
      "ĠSerie": 9281,
      "89": 9282,
      "ticle": 9283,
      "Ġbrowser": 9284,
      "list": 9285,
      "Ġwechsel": 9286,
      "Ġactions": 9287,
      "cking": 9288,
      "Ġalbum": 9289,
      "chester": 9290,
      "osh": 9291,
      "reuung": 9292,
      "Ġabges": 9293,
      "ĠClin": 9294,
      "Ġdomin": 9295,
      "ĠVerarbeitung": 9296,
      "Ġagreement": 9297,
      "Ġwann": 9298,
      "Ġprofile": 9299,
      "Best": 9300,
      "Ġerreich": 9301,
      "ducts": 9302,
      "Ġ49": 9303,
      "pet": 9304,
      "ichert": 9305,
      "ĠMedical": 9306,
      "Ġrestric": 9307,
      "ĠHÃ¼": 9308,
      "rats": 9309,
      "ĠProduk": 9310,
      "ĠBrown": 9311,
      "kan": 9312,
      "forderung": 9313,
      "Ġshowed": 9314,
      "ĠZwischen": 9315,
      "Ġclearly": 9316,
      "ĠSchlag": 9317,
      "ticip": 9318,
      "ĠIts": 9319,
      "Ja": 9320,
      "Ġrelationships": 9321,
      "ĠKund": 9322,
      "Ġminimum": 9323,
      "ĠgefÃ¤hr": 9324,
      "riage": 9325,
      "zz": 9326,
      "Ġpositiv": 9327,
      "Ġaid": 9328,
      "ĠTrip": 9329,
      "ĠUntersuch": 9330,
      "Ġchanging": 9331,
      "Ġdeposit": 9332,
      "ĠTel": 9333,
      "ĠZugang": 9334,
      "ĠMS": 9335,
      "partner": 9336,
      "arkt": 9337,
      "ĠFA": 9338,
      "law": 9339,
      "ĠglÃ¼ck": 9340,
      "umps": 9341,
      "Ġboy": 9342,
      "ĠReviews": 9343,
      "ĠPen": 9344,
      "istics": 9345,
      "ĠDorf": 9346,
      "ichern": 9347,
      "Ġmail": 9348,
      "Ġpolicies": 9349,
      "usted": 9350,
      "ĠFranc": 9351,
      "weet": 9352,
      "Ġvalid": 9353,
      "ĠMini": 9354,
      "lichkeiten": 9355,
      "Â²": 9356,
      "Ġpersonen": 9357,
      "Ġsounds": 9358,
      "ĠSeries": 9359,
      "Ã¤mt": 9360,
      "Ġpersp": 9361,
      "ĠMachine": 9362,
      "Ġspricht": 9363,
      "ĠTÃ¤tigkeit": 9364,
      "ĠSE": 9365,
      "Ġruns": 9366,
      "Why": 9367,
      "ĠControl": 9368,
      "ĠSky": 9369,
      "ĠFrankreich": 9370,
      "Ġvalu": 9371,
      "essel": 9372,
      "Ġesc": 9373,
      "Ġlaufen": 9374,
      "vertrag": 9375,
      "ĠKomm": 9376,
      "add": 9377,
      "Ġrecords": 9378,
      "ĠFestival": 9379,
      "kle": 9380,
      "Ñģ": 9381,
      "62": 9382,
      "nden": 9383,
      "Ġdeinem": 9384,
      "Ġinn": 9385,
      "teln": 9386,
      "Ġerror": 9387,
      "Ġdagegen": 9388,
      "ĠGolf": 9389,
      "Ġhonest": 9390,
      "Ġdeals": 9391,
      "ulate": 9392,
      "Ġpresence": 9393,
      "ĠEnergy": 9394,
      "ĠPfer": 9395,
      "ĠKÃ¼nstler": 9396,
      "Ġ42": 9397,
      "Ġfunctions": 9398,
      "Ġteachers": 9399,
      "ĠWechsel": 9400,
      "ĠTravel": 9401,
      "wa": 9402,
      "ĠVeranstaltung": 9403,
      "Ġcorporate": 9404,
      "Ġakzep": 9405,
      "ĠHighl": 9406,
      "cious": 9407,
      "ĠerwÃ¤": 9408,
      "but": 9409,
      "unehmen": 9410,
      "ĠTheater": 9411,
      "Ġopt": 9412,
      "Ġpackage": 9413,
      "riterien": 9414,
      "alty": 9415,
      "ng": 9416,
      "win": 9417,
      "ĠTwo": 9418,
      "Can": 9419,
      "Dec": 9420,
      "lernen": 9421,
      "Ġsieben": 9422,
      "Ġcolors": 9423,
      "Ġfurniture": 9424,
      "Ġguests": 9425,
      "Ġjack": 9426,
      "angebote": 9427,
      "PR": 9428,
      "Ġotherwise": 9429,
      "ĠWestern": 9430,
      "ĠPod": 9431,
      "Ġident": 9432,
      "ĠBedÃ¼rf": 9433,
      "Ġopinion": 9434,
      "schuss": 9435,
      "Ġapplied": 9436,
      "Ġexcited": 9437,
[...]
