{
  "version": "1.0",
  "truncation": null,
  "padding": null,
  "added_tokens": [
    {
      "id": 0,
      "content": "<s>",
      "single_word": false,
      "lstrip": false,
      "rstrip": false,
      "normalized": true,
      "special": true
    },
    {
      "id": 1,
      "content": "<pad>",
      "single_word": false,
      "lstrip": false,
      "rstrip": false,
      "normalized": true,
      "special": true
    },
    {
      "id": 2,
      "content": "</s>",
      "single_word": false,
      "lstrip": false,
      "rstrip": false,
      "normalized": true,
      "special": true
    },
    {
      "id": 3,
      "content": "<unk>",
      "single_word": false,
      "lstrip": false,
      "rstrip": false,
      "normalized": true,
      "special": true
    },
    {
      "id": 4,
      "content": "<mask>",
      "single_word": false,
      "lstrip": true,
      "rstrip": false,
      "normalized": false,
      "special": true
    }
  ],
  "normalizer": null,
  "pre_tokenizer": {
    "type": "ByteLevel",
    "add_prefix_space": false,
    "trim_offsets": true,
    "use_regex": true
  },
  "post_processor": {
    "type": "RobertaProcessing",
    "sep": [
      "</s>",
      2
    ],
    "cls": [
      "<s>",
      0
    ],
    "trim_offsets": true,
    "add_prefix_space": false
  },
  "decoder": {
    "type": "ByteLevel",
    "add_prefix_space": true,
    "trim_offsets": true,
    "use_regex": true
  },
  "model": {
    "type": "BPE",
    "dropout": null,
    "unk_token": null,
    "continuing_subword_prefix": "",
    "end_of_word_suffix": "",
    "fuse_unk": false,
    "byte_fallback": false,
    "vocab": {
      "<s>": 0,
      "<pad>": 1,
      "</s>": 2,
      "<unk>": 3,
      "<mask>": 4,
      "!": 5,
      "\"": 6,
      "#": 7,
      "$": 8,
      "%": 9,
      "&": 10,
      "'": 11,
      "(": 12,
      ")": 13,
      "*": 14,
      "+": 15,
      ",": 16,
      "-": 17,
      ".": 18,
      "/": 19,
      "0": 20,
      "1": 21,
      "2": 22,
      "3": 23,
      "4": 24,
      "5": 25,
      "6": 26,
      "7": 27,
      "8": 28,
      "9": 29,
      ":": 30,
      ";": 31,
      "<": 32,
      "=": 33,
      ">": 34,
      "?": 35,
      "@": 36,
      "A": 37,
      "B": 38,
      "C": 39,
      "D": 40,
      "E": 41,
      "F": 42,
      "G": 43,
      "H": 44,
      "I": 45,
      "J": 46,
      "K": 47,
      "L": 48,
      "M": 49,
      "N": 50,
      "O": 51,
      "P": 52,
      "Q": 53,
      "R": 54,
      "S": 55,
      "T": 56,
      "U": 57,
      "V": 58,
      "W": 59,
      "X": 60,
      "Y": 61,
      "Z": 62,
      "[": 63,
      "\\": 64,
      "]": 65,
      "^": 66,
      "_": 67,
      "`": 68,
      "a": 69,
      "b": 70,
      "c": 71,
      "d": 72,
      "e": 73,
      "f": 74,
      "g": 75,
      "h": 76,
      "i": 77,
      "j": 78,
      "k": 79,
      "l": 80,
      "m": 81,
      "n": 82,
      "o": 83,
      "p": 84,
      "q": 85,
      "r": 86,
      "s": 87,
      "t": 88,
      "u": 89,
      "v": 90,
      "w": 91,
      "x": 92,
      "y": 93,
      "z": 94,
      "{": 95,
      "|": 96,
      "}": 97,
      "~": 98,
      "¡": 99,
      "¢": 100,
      "£": 101,
      "¤": 102,
      "¥": 103,
      "¦": 104,
      "§": 105,
      "¨": 106,
      "©": 107,
      "ª": 108,
      "«": 109,
      "¬": 110,
      "®": 111,
      "¯": 112,
      "°": 113,
      "±": 114,
      "²": 115,
      "³": 116,
      "´": 117,
      "µ": 118,
      "¶": 119,
      "·": 120,
      "¸": 121,
      "¹": 122,
      "º": 123,
      "»": 124,
      "¼": 125,
      "½": 126,
      "¾": 127,
      "¿": 128,
      "À": 129,
      "Á": 130,
      "Â": 131,
      "Ã": 132,
      "Ä": 133,
      "Å": 134,
      "Æ": 135,
      "Ç": 136,
      "È": 137,
      "É": 138,
      "Ê": 139,
      "Ë": 140,
      "Ì": 141,
      "Í": 142,
      "Î": 143,
      "Ï": 144,
      "Ð": 145,
      "Ñ": 146,
      "Ò": 147,
      "Ó": 148,
      "Ô": 149,
      "Õ": 150,
      "Ö": 151,
      "×": 152,
      "Ø": 153,
      "Ù": 154,
      "Ú": 155,
      "Û": 156,
      "Ü": 157,
      "Ý": 158,
      "Þ": 159,
      "ß": 160,
      "à": 161,
      "á": 162,
      "â": 163,
      "ã": 164,
      "ä": 165,
      "å": 166,
      "æ": 167,
      "ç": 168,
      "è": 169,
      "é": 170,
      "ê": 171,
      "ë": 172,
      "ì": 173,
      "í": 174,
      "î": 175,
      "ï": 176,
      "ð": 177,
      "ñ": 178,
      "ò": 179,
      "ó": 180,
      "ô": 181,
      "õ": 182,
      "ö": 183,
      "÷": 184,
      "ø": 185,
      "ù": 186,
      "ú": 187,
      "û": 188,
      "ü": 189,
      "ý": 190,
      "þ": 191,
      "ÿ": 192,
      "Ā": 193,
      "ā": 194,
      "Ă": 195,
      "ă": 196,
      "Ą": 197,
      "ą": 198,
      "Ć": 199,
      "ć": 200,
      "Ĉ": 201,
      "ĉ": 202,
      "Ċ": 203,
      "ċ": 204,
      "Č": 205,
      "č": 206,
      "Ď": 207,
      "ď": 208,
      "Đ": 209,
      "đ": 210,
      "Ē": 211,
      "ē": 212,
      "Ĕ": 213,
      "ĕ": 214,
      "Ė": 215,
      "ė": 216,
      "Ę": 217,
      "ę": 218,
      "Ě": 219,
      "ě": 220,
      "Ĝ": 221,
      "ĝ": 222,
      "Ğ": 223,
      "ğ": 224,
      "Ġ": 225,
      "ġ": 226,
      "Ģ": 227,
      "ģ": 228,
      "Ĥ": 229,
      "ĥ": 230,
      "Ħ": 231,
      "ħ": 232,
      "Ĩ": 233,
      "ĩ": 234,
      "Ī": 235,
      "ī": 236,
      "Ĭ": 237,
      "ĭ": 238,
      "Į": 239,
      "į": 240,
      "İ": 241,
      "ı": 242,
      "Ĳ": 243,
      "ĳ": 244,
      "Ĵ": 245,
      "ĵ": 246,
      "Ķ": 247,
      "ķ": 248,
      "ĸ": 249,
      "Ĺ": 250,
      "ĺ": 251,
      "Ļ": 252,
      "ļ": 253,
      "Ľ": 254,
      "ľ": 255,
      "Ŀ": 256,
      "ŀ": 257,
      "Ł": 258,
      "ł": 259,
      "Ń": 260,
      "Ġa": 261,
      "Ġt": 262,
      "en": 263,
      "es": 264,
      "er": 265,
      "Ġd": 266,
      "in": 267,
      "on": 268,
      "Ġc": 269,
      "Ġp": 270,
      "Ġs": 271,
      "or": 272,
      "ar": 273,
      "Ġl": 274,
      "Ġde": 275,
      "os": 276,
      "an": 277,
      "as": 278,
      "Ġth": 279,
      "re": 280,
      "Ġm": 281,
      "al": 282,
      "at": 283,
      "is": 284,
      "it": 285,
      "el": 286,
      "ic": 287,
      "Ġo": 288,
      "Ġf": 289,
      "Ġthe": 290,
      "ent": 291,
      "ad": 292,
      "Ġh": 293,
      "Ġw": 294,
      "ed": 295,
      "un": 296,
      "Ġb": 297,
      "ci": 298,
      "Ġy": 299,
      "qu": 300,
      "ro": 301,
      "ing": 302,
      "Ġin": 303,
      "Ġan": 304,
      "om": 305,
      "Ġto": 306,
      "Ġn": 307,
      "Ġla": 308,
      "id": 309,
      "Ġqu": 310,
      "Ġen": 311,
      "ou": 312,
      "Ã³": 313,
      "il": 314,
      "Ġof": 315,
      "Ġand": 316,
      "est": 317,
      "le": 318,
      "Ġque": 319,
      "Ġe": 320,
      "Ġel": 321,
      "Ġcon": 322,
      "am": 323,
      "ion": 324,
      "ct": 325,
      "us": 326,
      "Ġre": 327,
      "ĠC": 328,
      "Ġg": 329,
      "Ġun": 330,
      "ol": 331,
      "im": 332,
      "ur": 333,
      "ĠS": 334,
      "Ġv": 335,
      "ÃŃ": 336,
      "et": 337,
      "Ã¡": 338,
      "ĠA": 339,
      "Ã³n": 340,
      "iv": 341,
      "ch": 342,
      "Ġse": 343,
      "ra": 344,
      "ĠT": 345,
      "ĠI": 346,
      "ig": 347,
      "ut": 348,
      "ĠP": 349,
      "ot": 350,
      "ĠM": 351,
      "em": 352,
      "Ġal": 353,
      "ir": 354,
      "Ġcom": 355,
      "ab": 356,
      "ul": 357,
      "Ġpar": 358,
      "aci": 359,
      "ĠE": 360,
      "ay": 361,
      "Ġpro": 362,
      "res": 363,
      "ers": 364,
      "Ġfor": 365,
      "Ġes": 366,
      "ant": 367,
      "Ġyou": 368,
      "Ġlos": 369,
      "ce": 370,
      "Ġsu": 371,
      "ist": 372,
      "Ġis": 373,
      "Ġest": 374,
      "do": 375,
      "st": 376,
      "Ġon": 377,
      "Ġ2": 378,
      "ĠD": 379,
      "ĠL": 380,
      "Ã©": 381,
      "ĠB": 382,
      "ly": 383,
      "Ġbe": 384,
      "Ġdel": 385,
      "ow": 386,
      "ter": 387,
      "âĢ": 388,
      "Ġ1": 389,
      "ado": 390,
      "he": 391,
      "Ġha": 392,
      "od": 393,
      "ĠR": 394,
      "ith": 395,
      "ve": 396,
      "ation": 397,
      "if": 398,
      "Ġas": 399,
      "Ġlas": 400,
      "Ġpor": 401,
      "ill": 402,
      "ĠF": 403,
      "Ġpara": 404,
      "io": 405,
      "Ġthat": 406,
      "Ġex": 407,
      "ia": 408,
      "Ġst": 409,
      "Ġwh": 410,
      "Ġ(": 411,
      "aciÃ³n": 412,
      "ien": 413,
      "ente": 414,
      "Ġlo": 415,
      "um": 416,
      "ect": 417,
      "Ġwith": 418,
      "ĠH": 419,
      "ag": 420,
      "ĠG": 421,
      "ort": 422,
      "Ġno": 423,
      "ud": 424,
      "iz": 425,
      "Ġr": 426,
      "ĠN": 427,
      "ver": 428,
      "Ġit": 429,
      "Ã±": 430,
      "ac": 431,
      "ue": 432,
      "Ġuna": 433,
      "ec": 434,
      "ib": 435,
      "and": 436,
      "ta": 437,
      "ÃŃa": 438,
      "th": 439,
      "ĠW": 440,
      "Ġor": 441,
      "lo": 442,
      "ere": 443,
      "ip": 444,
      "Ġ20": 445,
      "..": 446,
      "per": 447,
      "idad": 448,
      "Ġare": 449,
      "Ġj": 450,
      "Ã¡s": 451,
      "Ġat": 452,
      "eg": 453,
      "Ġdes": 454,
      "ient": 455,
      "Ġso": 456,
      "end": 457,
      "ke": 458,
      "to": 459,
      "Ġtr": 460,
      "ess": 461,
      "Ġcomp": 462,
      "ust": 463,
      "ĠO": 464,
      "Ġper": 465,
      "op": 466,
      "ap": 467,
      "up": 468,
      "ada": 469,
      "Ġme": 470,
      "Ġpr": 471,
      "oc": 472,
      "ier": 473,
      "ĠJ": 474,
      "ate": 475,
      "igh": 476,
      "Ġ\"": 477,
      "ew": 478,
      "Ġpl": 479,
      "Ġcu": 480,
      "ear": 481,
      "pl": 482,
      "Ġus": 483,
      "rom": 484,
      "'s": 485,
      "ost": 486,
      "Ãº": 487,
      "Ġac": 488,
      "ies": 489,
      "te": 490,
      "Ġwe": 491,
      "for": 492,
      "ld": 493,
      "Ġser": 494,
      "ĠU": 495,
      "ica": 496,
      "ones": 497,
      "Ġres": 498,
      "Ġyour": 499,
      "all": 500,
      "port": 501,
      "enci": 502,
      "de": 503,
      "ity": 504,
      "se": 505,
      "00": 506,
      "Ġab": 507,
      "Ġch": 508,
      "Ġmu": 509,
      "ĠThe": 510,
      "ales": 511,
      "Ġim": 512,
      "Ġad": 513,
      "ug": 514,
      "Ġcan": 515,
      "ment": 516,
      "Ġcont": 517,
      "und": 518,
      "ive": 519,
      "ĠIn": 520,
      "Ġpu": 521,
      "ĠV": 522,
      "aj": 523,
      "du": 524,
      "Ġhave": 525,
      "pe": 526,
      "ios": 527,
      "Ġap": 528,
      "Ġnot": 529,
      "ell": 530,
      "iÃ³n": 531,
      "Ġwas": 532,
      "ando": 533,
      "og": 534,
      "ard": 535,
      "Ġle": 536,
      "ine": 537,
      "Ġthis": 538,
      "Ġcomo": 539,
      "ĠmÃ¡s": 540,
      "able": 541,
      "Ġsh": 542,
      "ido": 543,
      "Ġby": 544,
      "Ġfrom": 545,
      "ok": 546,
      "Ġpre": 547,
      "ide": 548,
      "ciÃ³n": 549,
      "ore": 550,
      "Ġhe": 551,
      "ĠâĢ": 552,
      "ico": 553,
      "Ġent": 554,
      "Ġcl": 555,
      "Ġ-": 556,
      "ome": 557,
      "art": 558,
      "ens": 559,
      "Ġ201": 560,
      "ight": 561,
      "ual": 562,
      "ult": 563,
      "Ġem": 564,
      "Ġhas": 565,
      "Ġdis": 566,
      "ire": 567,
      "cl": 568,
      "ados": 569,
      "bre": 570,
      "go": 571,
      "Ġar": 572,
      "tr": 573,
      "Ġwill": 574,
      "Ã¡n": 575,
      "Ġman": 576,
      "ores": 577,
      "ma": 578,
      "ie": 579,
      "ice": 580,
      "era": 581,
      "bl": 582,
      "mo": 583,
      "our": 584,
      "ial": 585,
      "Ġrec": 586,
      "av": 587,
      "Ġte": 588,
      "ould": 589,
      "que": 590,
      "so": 591,
      "Ġ3": 592,
      "ĠY": 593,
      "ante": 594,
      "ast": 595,
      "Ġco": 596,
      "out": 597,
      "Ġgo": 598,
      "ĠTh": 599,
      "ure": 600,
      "Ġma": 601,
      "Ġtra": 602,
      "Ġall": 603,
      "ans": 604,
      "ge": 605,
      "ich": 606,
      "Ġk": 607,
      "fer": 608,
      "Ġgr": 609,
      "form": 610,
      "ber": 611,
      "uest": 612,
      "Ġwor": 613,
      "Ġinter": 614,
      "one": 615,
      "act": 616,
      "ero": 617,
      "pt": 618,
      "Ġdo": 619,
      "co": 620,
      "Ġcar": 621,
      "Ġpart": 622,
      "Ġact": 623,
      "ite": 624,
      "Ġcons": 625,
      "Ġfin": 626,
      "Ġam": 627,
      "cial": 628,
      "amb": 629,
      "Ġag": 630,
      "ces": 631,
      "ener": 632,
      "ions": 633,
      "ack": 634,
      "erson": 635,
      "con": 636,
      "ĠK": 637,
      "Ġne": 638,
      "iento": 639,
      "her": 640,
      "Ġpres": 641,
      "ca": 642,
      "ign": 643,
      "ff": 644,
      "Ġcas": 645,
      "ical": 646,
      "ong": 647,
      "ros": 648,
      "pa": 649,
      "Ġver": 650,
      "emp": 651,
      "...": 652,
      "âĢĻ": 653,
      "Ġcre": 654,
      "Ġsus": 655,
      "age": 656,
      "Ġreal": 657,
      "Ġbut": 658,
      "pres": 659,
      "int": 660,
      "ina": 661,
      "Ġout": 662,
      "ll": 663,
      "Ġpued": 664,
      "Ġro": 665,
      "amos": 666,
      "Ġsi": 667,
      "ĠCh": 668,
      "ach": 669,
      "Ġup": 670,
      "ru": 671,
      "ven": 672,
      "ated": 673,
      "ĠÂ": 674,
      "ian": 675,
      "Ã©n": 676,
      "king": 677,
      "Ġperson": 678,
      "unt": 679,
      "encia": 680,
      "ida": 681,
      "ime": 682,
      "der": 683,
      "ĠAn": 684,
      "ĠEn": 685,
      "cho": 686,
      "ep": 687,
      "Ġmar": 688,
      "ub": 689,
      "Ġmore": 690,
      "Ġthey": 691,
      "cer": 692,
      "The": 693,
      "Ġtod": 694,
      "ous": 695,
      "Ġprodu": 696,
      "Ġtheir": 697,
      "ase": 698,
      "20": 699,
      "Ġmay": 700,
      "oy": 701,
      "ks": 702,
      "amente": 703,
      "Ġsol": 704,
      "Ġsin": 705,
      "ov": 706,
      "les": 707,
      "ĠUn": 708,
      "Ġ4": 709,
      "ance": 710,
      "are": 711,
      "Ġmed": 712,
      "aciones": 713,
      "ose": 714,
      "Ġmy": 715,
      "Ġeste": 716,
      "la": 717,
      "ora": 718,
      "gr": 719,
      "Ġcol": 720,
      "Ġ5": 721,
      "Ġone": 722,
      "ific": 723,
      "ĠLa": 724,
      "uer": 725,
      "ord": 726,
      "ater": 727,
      "rit": 728,
      "Ġob": 729,
      "ras": 730,
      "za": 731,
      "ple": 732,
      "Ġour": 733,
      "ĠEl": 734,
      "ame": 735,
      "vel": 736,
      "com": 737,
      "ĠaÃ±": 738,
      "ary": 739,
      "ther": 740,
      "ike": 741,
      "El": 742,
      "ĠCon": 743,
      "Ġabout": 744,
      "pon": 745,
      "fic": 746,
      "Ġpos": 747,
      "ario": 748,
      "ish": 749,
      "Ġpe": 750,
      "ile": 751,
      "Ġhab": 752,
      "emos": 753,
      "Ġpas": 754,
      "ura": 755,
      "Ġreg": 756,
      "Ġwhich": 757,
      "Ġbu": 758,
      "Ġson": 759,
      "ations": 760,
      "adas": 761,
      "'t": 762,
      "min": 763,
      "Ġseg": 764,
      "ck": 765,
      "ely": 766,
      "Ġdif": 767,
      "vi": 768,
      "ular": 769,
      "ne": 770,
      "Ġtien": 771,
      "ree": 772,
      "ĠSt": 773,
      "Ġserv": 774,
      "Ã©s": 775,
      "Ġinv": 776,
      "ran": 777,
      "ry": 778,
      "ambi": 779,
      "ĠCom": 780,
      ").": 781,
      "Ġincl": 782,
      "ays": 783,
      "Ġalso": 784,
      "ible": 785,
      "mente": 786,
      "Ġind": 787,
      "ias": 788,
      "Ġfe": 789,
      "ind": 790,
      "Ġint": 791,
      "ob": 792,
      "man": 793,
      "ese": 794,
      "Ġsa": 795,
      "uev": 796,
      "Ġmis": 797,
      "Ġsal": 798,
      "ional": 799,
      "Ġpero": 800,
      "ric": 801,
      "ĠâĢĵ": 802,
      "ement": 803,
      "cre": 804,
      "ain": 805,
      "cu": 806,
      "ara": 807,
      "Ġget": 808,
      "Ġdon": 809,
      "ĠIt": 810,
      "Ġwho": 811,
      "Ġhis": 812,
      "Ġtime": 813,
      "ace": 814,
      "Ġher": 815,
      "ak": 816,
      "Ġpod": 817,
      "Ġany": 818,
      "Ġaf": 819,
      "ĠEst": 820,
      "pect": 821,
      "Ġ|": 822,
      "cia": 823,
      "ivo": 824,
      "ĠAl": 825,
      "Ġsobre": 826,
      "own": 827,
      "ĠRe": 828,
      "ail": 829,
      "Ġinform": 830,
      "ugh": 831,
      "Ãºn": 832,
      "Ġentre": 833,
      "Ġmuch": 834,
      "ador": 835,
      "Ġesta": 836,
      "gan": 837,
      "Ġ19": 838,
      "Ġrel": 839,
      "ings": 840,
      "no": 841,
      "Ġop": 842,
      "La": 843,
      "Ġnew": 844,
      "ick": 845,
      "ors": 846,
      "Ġyear": 847,
      "Ġsome": 848,
      "Ġev": 849,
      "ied": 850,
      "cul": 851,
      "ento": 852,
      "ook": 853,
      "Ġlle": 854,
      "Ġthem": 855,
      "Ġcor": 856,
      "baj": 857,
      "oci": 858,
      "ble": 859,
      "),": 860,
      "ang": 861,
      "Ġthere": 862,
      "Ġproduct": 863,
      "ced": 864,
      "entes": 865,
      "reat": 866,
      "Ġfr": 867,
      "Ġpol": 868,
      "Ġaut": 869,
      "Ġprim": 870,
      "pr": 871,
      "Ġpa": 872,
      "ez": 873,
      "acion": 874,
      "Ġinst": 875,
      "ior": 876,
      "ambiÃ©n": 877,
      "Ġjust": 878,
      "ĠEs": 879,
      "Ġlike": 880,
      "ivers": 881,
      "eces": 882,
      "cess": 883,
      "ino": 884,
      "Ġif": 885,
      "Ġkn": 886,
      "Ġprov": 887,
      "Ġ6": 888,
      "rat": 889,
      "Ġwhen": 890,
      "tra": 891,
      "Ġother": 892,
      "ence": 893,
      "Ġexper": 894,
      "Ġmin": 895,
      "Ġneed": 896,
      "dit": 897,
      "Ġtu": 898,
      "eb": 899,
      "rib": 900,
      "ista": 901,
      "olog": 902,
      "Ġter": 903,
      "Ġbeen": 904,
      "ĠMar": 905,
      "pos": 906,
      "iones": 907,
      "Ġnuest": 908,
      "wn": 909,
      "ents": 910,
      "En": 911,
      "Ġya": 912,
      "ade": 913,
      "erv": 914,
      "Ġfir": 915,
      "pro": 916,
      "use": 917,
      "mer": 918,
      "ass": 919,
      "Ġwhat": 920,
      "gh": 921,
      "Ġmej": 922,
      "Ġdeb": 923,
      "icos": 924,
      "Ġmi": 925,
      "Ġwould": 926,
      "Ġhel": 927,
      "Ġbus": 928,
      "enta": 929,
      "Ġover": 930,
      "icas": 931,
      "cal": 932,
      "jo": 933,
      "Ġten": 934,
      "Ġnos": 935,
      "par": 936,
      "tain": 937,
      "Ġed": 938,
      "ild": 939,
      "ĠPro": 940,
      "ata": 941,
      "Ġmod": 942,
      "antes": 943,
      "ĠAr": 944,
      "Ġthan": 945,
      "Ġmuy": 946,
      "cion": 947,
      "iÃ³": 948,
      "Ġtrans": 949,
      "Ġhad": 950,
      "Ġtodo": 951,
      "âĢ¦": 952,
      "ough": 953,
      "ory": 954,
      "uc": 955,
      "ciones": 956,
      "arios": 957,
      "Ġwere": 958,
      "Ġwork": 959,
      "Ġimport": 960,
      "Ġhow": 961,
      "very": 962,
      "Ġnuev": 963,
      "aron": 964,
      "Ġ10": 965,
      "Ġmost": 966,
      "plic": 967,
      "Ġits": 968,
      "ana": 969,
      "Ġcam": 970,
      "Ġcap": 971,
      "ft": 972,
      "amil": 973,
      "Ġdur": 974,
      "idades": 975,
      "Ġcal": 976,
      "az": 977,
      "irect": 978,
      "ople": 979,
      "Ġsup": 980,
      "Ġsp": 981,
      "ÃŃas": 982,
      "Ġ7": 983,
      "Ġpo": 984,
      "ren": 985,
      "Ġta": 986,
      "Ġtrabaj": 987,
      "aba": 988,
      "Ġalg": 989,
      "ph": 990,
      "ĠDe": 991,
      "Ġart": 992,
      "In": 993,
      "atur": 994,
      "ĠestÃ¡": 995,
      "ert": 996,
      "uro": 997,
      "ĠAs": 998,
      "Ġinto": 999,
      "iendo": 1000,
      "Ġsit": 1001,
      "ood": 1002,
      "mit": 1003,
      "gram": 1004,
      "ning": 1005,
      "Th": 1006,
      "ĠWh": 1007,
      "Ġform": 1008,
      "uel": 1009,
      "Ġprop": 1010,
      "iva": 1011,
      "ER": 1012,
      "Ġgener": 1013,
      "ating": 1014,
      "ĠtambiÃ©n": 1015,
      "Ġ8": 1016,
      "rough": 1017,
      "Ã±o": 1018,
      "Ġins": 1019,
      "amiento": 1020,
      "Ġcr": 1021,
      "Ġfun": 1022,
      "ena": 1023,
      "ink": 1024,
      "Ġmon": 1025,
      "Ġpuede": 1026,
      "Ġ0": 1027,
      "car": 1028,
      "ÃŃs": 1029,
      "ates": 1030,
      "pecial": 1031,
      "idos": 1032,
      "Ġvis": 1033,
      "Ġprof": 1034,
      "blic": 1035,
      "Ġhelp": 1036,
      "ĠThis": 1037,
      "Ġequ": 1038,
      "Ġra": 1039,
      "Ġsub": 1040,
      "ket": 1041,
      "Ġ200": 1042,
      "rol": 1043,
      "ital": 1044,
      "ĠWe": 1045,
      "fect": 1046,
      "tern": 1047,
      "Ġant": 1048,
      "Ġ'": 1049,
      "Ġpeople": 1050,
      "Ġhay": 1051,
      "line": 1052,
      "Ġuse": 1053,
      "ĠSe": 1054,
      "Ġsim": 1055,
      "ga": 1056,
      "ful": 1057,
      "ise": 1058,
      "Ġdi": 1059,
      "\",": 1060,
      "Ġbr": 1061,
      "low": 1062,
      "âĢĿ": 1063,
      "Ġmake": 1064,
      "cid": 1065,
      "Ġca": 1066,
      "ĠaÃ±os": 1067,
      "Ġcomple": 1068,
      "paÃ±": 1069,
      "xt": 1070,
      "iente": 1071,
      "ano": 1072,
      "arÃ¡": 1073,
      "Ġbet": 1074,
      "ond": 1075,
      "ES": 1076,
      "Ġtw": 1077,
      "Ġgu": 1078,
      "Ġav": 1079,
      "cur": 1080,
      "ices": 1081,
      "icip": 1082,
      "Ġ9": 1083,
      "Ġlook": 1084,
      "Ġweb": 1085,
      "ict": 1086,
      "Ġfue": 1087,
      "Ġknow": 1088,
      "Ġdesde": 1089,
      "Ġwell": 1090,
      "Ġmet": 1091,
      "orm": 1092,
      "Ġmen": 1093,
      "Ġoff": 1094,
      "ÃŃt": 1095,
      "Ġval": 1096,
      "Ġti": 1097,
      "ito": 1098,
      "Ġotr": 1099,
      "old": 1100,
      "Ġconf": 1101,
      "Ġfamil": 1102,
      "ĠQ": 1103,
      "Ġdem": 1104,
      "Ġdos": 1105,
      "\".": 1106,
      "Ġhigh": 1107,
      "Ġonly": 1108,
      "iel": 1109,
      "los": 1110,
      "Ġdist": 1111,
      "ĠHe": 1112,
      "Ġni": 1113,
      "ene": 1114,
      "Ġfirst": 1115,
      "Ġ&": 1116,
      "ting": 1117,
      "oth": 1118,
      "Ġdef": 1119,
      "Ġtiene": 1120,
      "izar": 1121,
      "jer": 1122,
      "Ġrequ": 1123,
      "Ġgro": 1124,
      "Ġph": 1125,
      "ction": 1126,
      "fr": 1127,
      "ress": 1128,
      "Ġcent": 1129,
      "ider": 1130,
      "ÃŃn": 1131,
      "Ġevery": 1132,
      "iness": 1133,
      "Ġesc": 1134,
      "Ġinclud": 1135,
      "Ġthrough": 1136,
      "ject": 1137,
      "Ġmejor": 1138,
      "Ġsaid": 1139,
      "itar": 1140,
      "Ġhacer": 1141,
      "Ġneces": 1142,
      "ĠAd": 1143,
      "ities": 1144,
      "Ġvery": 1145,
      "Ġexperien": 1146,
      "Ġwant": 1147,
      "ari": 1148,
      "we": 1149,
      "Ġthese": 1150,
      "ĠYou": 1151,
      "Ġback": 1152,
      "cciÃ³n": 1153,
      "iciÃ³n": 1154,
      "Ġcuando": 1155,
      "AR": 1156,
      "Ġplay": 1157,
      "ON": 1158,
      "Ġtodos": 1159,
      "erg": 1160,
      "ipo": 1161,
      "anto": 1162,
      "ath": 1163,
      "adores": 1164,
      "urn": 1165,
      "Ġhan": 1166,
      "Ġprogram": 1167,
      "Ġconst": 1168,
      "Ġsee": 1169,
      "ĠAnd": 1170,
      "Ġdirect": 1171,
      "yst": 1172,
      "ound": 1173,
      "Ġcer": 1174,
      "Ġcual": 1175,
      "undo": 1176,
      "tt": 1177,
      "ĠLe": 1178,
      "EN": 1179,
      "Ġcur": 1180,
      "ten": 1181,
      "ys": 1182,
      "000": 1183,
      "Ġgood": 1184,
      "ivos": 1185,
      "cis": 1186,
      "hing": 1187,
      "Ġbas": 1188,
      "ife": 1189,
      "Ġcomm": 1190,
      "Ġhasta": 1191,
      "ĠâĢľ": 1192,
      "Ġinf": 1193,
      "ĠCo": 1194,
      "Ġproble": 1195,
      "Ġdr": 1196,
      "arse": 1197,
      "ita": 1198,
      "Ġ$": 1199,
      "ave": 1200,
      "ik": 1201,
      "ds": 1202,
      "dad": 1203,
      "Ġresult": 1204,
      "da": 1205,
      "ember": 1206,
      "ĠNo": 1207,
      "10": 1208,
      "abil": 1209,
      "Ġmany": 1210,
      "Ġorgan": 1211,
      "Ġparte": 1212,
      "ja": 1213,
      "Ġfl": 1214,
      "Ġstud": 1215,
      "ues": 1216,
      "Ġtiemp": 1217,
      "Ġcould": 1218,
      "Ġtwo": 1219,
      "ational": 1220,
      "Ġplan": 1221,
      "19": 1222,
      "Ġafter": 1223,
      "uy": 1224,
      "po": 1225,
      "ics": 1226,
      "ĠSh": 1227,
      "tal": 1228,
      "Ġbien": 1229,
      "Ġlib": 1230,
      "cept": 1231,
      "Ġide": 1232,
      "ident": 1233,
      "oria": 1234,
      "any": 1235,
      "elf": 1236,
      "ps": 1237,
      "ral": 1238,
      "ments": 1239,
      "cha": 1240,
      "Ġke": 1241,
      "Ġmom": 1242,
      "med": 1243,
      "icio": 1244,
      "OS": 1245,
      "lam": 1246,
      "fore": 1247,
      "acional": 1248,
      "Ġway": 1249,
      "Ġalgun": 1250,
      "Ġshould": 1251,
      "Ġdonde": 1252,
      "ts": 1253,
      "ĠCar": 1254,
      "Ġimp": 1255,
      "omb": 1256,
      "Ġsign": 1257,
      "Ġsur": 1258,
      "round": 1259,
      "imo": 1260,
      "AN": 1261,
      "ema": 1262,
      "Ġhist": 1263,
      "Ġmill": 1264,
      "ower": 1265,
      "Ġut": 1266,
      "ern": 1267,
      "Ġrest": 1268,
      "21": 1269,
      "rar": 1270,
      "Ġshe": 1271,
      "Ġcontin": 1272,
      "Ġeven": 1273,
      "ystem": 1274,
      "inci": 1275,
      "ĠÃ©": 1276,
      "Ġbest": 1277,
      "Ġyears": 1278,
      "Ġlar": 1279,
      "ton": 1280,
      "ĠDE": 1281,
      "AS": 1282,
      "ract": 1283,
      "Ġdown": 1284,
      "Ġpresent": 1285,
      "igu": 1286,
      "Ġactiv": 1287,
      "pp": 1288,
      "ato": 1289,
      "ismo": 1290,
      "Ġactual": 1291,
      "Ġrespon": 1292,
      "ÃŃcul": 1293,
      "als": 1294,
      "ĠZ": 1295,
      "OR": 1296,
      "Ġcada": 1297,
      "Ã©r": 1298,
      "Ġprot": 1299,
      "Ġbl": 1300,
      "Ġvez": 1301,
      "vis": 1302,
      "Ġ12": 1303,
      "Ġwhere": 1304,
      "ugar": 1305,
      "ĠFor": 1306,
      "alth": 1307,
      "ĠÂ¿": 1308,
      "ĠPl": 1309,
      "Ġthen": 1310,
      "ĠCl": 1311,
      ".\"": 1312,
      "lt": 1313,
      "ona": 1314,
      "Ġset": 1315,
      "atch": 1316,
      "ition": 1317,
      "Ġ.": 1318,
      "Ġnow": 1319,
      "ici": 1320,
      "Ġtiempo": 1321,
      "Ġgra": 1322,
      "ĠTr": 1323,
      "Ġporque": 1324,
      "omet": 1325,
      "CI": 1326,
      "Ġutil": 1327,
      "tro": 1328,
      "ull": 1329,
      "ward": 1330,
      "Ġstart": 1331,
      "iud": 1332,
      "ins": 1333,
      "ĠNew": 1334,
      "view": 1335,
      "get": 1336,
      "Ġown": 1337,
      "ww": 1338,
      "Ġz": 1339,
      "eros": 1340,
      "tle": 1341,
      "hip": 1342,
      "Ġbeca": 1343,
      "ork": 1344,
      "velop": 1345,
      "iudad": 1346,
      "gar": 1347,
      "unto": 1348,
      "Ġdiffer": 1349,
      "Ġeff": 1350,
      "ĠEx": 1351,
      "Ġvi": 1352,
      "Ġintern": 1353,
      "Ġhum": 1354,
      "idas": 1355,
      "ima": 1356,
      "ason": 1357,
      "istas": 1358,
      "Ġbecause": 1359,
      "atos": 1360,
      "entos": 1361,
      "pend": 1362,
      "Ġ/": 1363,
      "Ġread": 1364,
      "ĠasÃŃ": 1365,
      "its": 1366,
      "Ġsab": 1367,
      "Ġfind": 1368,
      "Ġsuch": 1369,
      "imos": 1370,
      "Ġ15": 1371,
      "Ġsm": 1372,
      "cy": 1373,
      "Ġfinal": 1374,
      "Ġpersonal": 1375,
      "Ġempres": 1376,
      "red": 1377,
      "Ġesp": 1378,
      "Ġpost": 1379,
      "Ġass": 1380,
      "AL": 1381,
      "inal": 1382,
      "arm": 1383,
      "Ġgreat": 1384,
      "izaciÃ³n": 1385,
      "ont": 1386,
      "Ġmov": 1387,
      "ange": 1388,
      "ĠCol": 1389,
      "Ġpat": 1390,
      "chn": 1391,
      "Ġreci": 1392,
      "Ġvol": 1393,
      "orn": 1394,
      "Ġright": 1395,
      "Ġelect": 1396,
      "iss": 1397,
      "ĠPr": 1398,
      "Ġinvest": 1399,
      "cel": 1400,
      "IN": 1401,
      "Ġblo": 1402,
      "ek": 1403,
      "ĠLos": 1404,
      "Ġah": 1405,
      "Ã±os": 1406,
      "Ġsuper": 1407,
      "Ġspe": 1408,
      "Ġlong": 1409,
      "ex": 1410,
      "cr": 1411,
      "Ġbel": 1412,
      "ientes": 1413,
      "ĠaÃ±o": 1414,
      "Wh": 1415,
      "Ġpublic": 1416,
      "Est": 1417,
      "Ġpersonas": 1418,
      "Ã¡t": 1419,
      "Ġay": 1420,
      "quier": 1421,
      "ĠdÃŃa": 1422,
      "Ġlit": 1423,
      "Ġforma": 1424,
      "Ġneg": 1425,
      "ĠÃº": 1426,
      "cias": 1427,
      "Ġbusiness": 1428,
      "Ġconv": 1429,
      "jet": 1430,
      "ative": 1431,
      "Ġnum": 1432,
      "ĠIf": 1433,
      "Ġuno": 1434,
      "Ġsent": 1435,
      "Ġonline": 1436,
      "Ġgran": 1437,
      "Ã³m": 1438,
      "ited": 1439,
      "Ġdid": 1440,
      "Ġoc": 1441,
      "ved": 1442,
      "Ġtake": 1443,
      "emÃ¡s": 1444,
      "Ġref": 1445,
      "Ġmas": 1446,
      "iles": 1447,
      "aje": 1448,
      "Ġvida": 1449,
      "Ġbar": 1450,
      "ctor": 1451,
      "Ġbo": 1452,
      "Ġday": 1453,
      "Ġapp": 1454,
      "ĠSo": 1455,
      "oco": 1456,
      "Ġprinci": 1457,
      "Ġdest": 1458,
      "Ġoper": 1459,
      "pu": 1460,
      "Ġmater": 1461,
      "Ġmo": 1462,
      "Ġused": 1463,
      "cir": 1464,
      "other": 1465,
      "Ġllev": 1466,
      "Ġhome": 1467,
      "Ġproblem": 1468,
      "zo": 1469,
      "ÃŃan": 1470,
      "Ġdesign": 1471,
      "Ġtal": 1472,
      "imiento": 1473,
      "ibil": 1474,
      "Ġaqu": 1475,
      "Ġ18": 1476,
      "ua": 1477,
      "br": 1478,
      "ever": 1479,
      "Ġmayor": 1480,
      "ner": 1481,
      "Ġconsider": 1482,
      "uir": 1483,
      "Ġfol": 1484,
      "Ġi": 1485,
      "Ġcall": 1486,
      "Ġcos": 1487,
      "ines": 1488,
      "bar": 1489,
      "Ġ[": 1490,
      "ender": 1491,
      "Ġ,": 1492,
      "por": 1493,
      "Ġadd": 1494,
      "ĠpaÃŃs": 1495,
      "Ġcost": 1496,
      "land": 1497,
      "Ġfuer": 1498,
      "chool": 1499,
      "cent": 1500,
      "uego": 1501,
      "ives": 1502,
      "rem": 1503,
      "Ġcomun": 1504,
      "Ġdoes": 1505,
      "illa": 1506,
      "Ġ11": 1507,
      "Ġmarket": 1508,
      "Ġbeing": 1509,
      "Ġhere": 1510,
      "ieron": 1511,
      "Ġincre": 1512,
      "Ġext": 1513,
      "ental": 1514,
      "Ġfact": 1515,
      "ama": 1516,
      "ize": 1517,
      "way": 1518,
      "Ãºbl": 1519,
      "ĠMan": 1520,
      "Ġhace": 1521,
      "Ġsystem": 1522,
      "Ġshow": 1523,
      "cio": 1524,
      "entro": 1525,
      "Ġespecial": 1526,
      "iar": 1527,
      "Ġecon": 1528,
      "!!": 1529,
      "201": 1530,
      "Ġagain": 1531,
      "uciÃ³n": 1532,
      "den": 1533,
      "Ġmade": 1534,
      "ouse": 1535,
      "Ġleg": 1536,
      "las": 1537,
      "els": 1538,
      "Ġsolo": 1539,
      "emb": 1540,
      "iver": 1541,
      "ĠestÃ¡n": 1542,
      "Ġotros": 1543,
      "ĠDes": 1544,
      "An": 1545,
      "Ġlugar": 1546,
      "Ġprincip": 1547,
      "Ġhim": 1548,
      "Ġbefore": 1549,
      "ty": 1550,
      "erc": 1551,
      "dic": 1552,
      "ustom": 1553,
      "Ġmes": 1554,
      "Ġthose": 1555,
      "Ġve": 1556,
      "Â»": 1557,
      "vo": 1558,
      "Ġhor": 1559,
      "ator": 1560,
      "Ġopt": 1561,
      "day": 1562,
      "Ġpodr": 1563,
      "Ġdevelop": 1564,
      "Ġdifer": 1565,
      "Ġworld": 1566,
      "ruct": 1567,
      "ĠPar": 1568,
      "embre": 1569,
      "ages": 1570,
      "ĠX": 1571,
      "Ġlocal": 1572,
      "Ġinformation": 1573,
      "22": 1574,
      "na": 1575,
      "Con": 1576,
      "Ġvari": 1577,
      "ientos": 1578,
      "ĠÃºlt": 1579,
      "che": 1580,
      "Ġret": 1581,
      "Ġmismo": 1582,
      "eng": 1583,
      "ale": 1584,
      "Ġche": 1585,
      "Ġej": 1586,
      "Ġcab": 1587,
      "Ġdurante": 1588,
      "empre": 1589,
      "ix": 1590,
      "lar": 1591,
      "yect": 1592,
      "rist": 1593,
      "Ġatt": 1594,
      "lect": 1595,
      "Ġ...": 1596,
      "tact": 1597,
      "Ġciudad": 1598,
      "Ġhand": 1599,
      "rid": 1600,
      "be": 1601,
      "Ã³mo": 1602,
      "Ġunder": 1603,
      "Ġlim": 1604,
      "Ġsitu": 1605,
      "Ġadv": 1606,
      "ws": 1607,
      "Ġmundo": 1608,
      "Ġreally": 1609,
      "earch": 1610,
      "ĠOr": 1611,
      "amp": 1612,
      "anos": 1613,
      "Ġdifferent": 1614,
      "Ġlu": 1615,
      "Ġexist": 1616,
      "Ġsocial": 1617,
      "Ġsc": 1618,
      "Ġgeneral": 1619,
      "Ġparticip": 1620,
      "Ġtanto": 1621,
      "Ġdesar": 1622,
      "ivid": 1623,
      "'re": 1624,
      "//": 1625,
      "Ġeas": 1626,
      "Ġtener": 1627,
      "aria": 1628,
      "anz": 1629,
      "bo": 1630,
      "ĠOn": 1631,
      "endo": 1632,
      "Ġtrad": 1633,
      "ather": 1634,
      "Ã±a": 1635,
      "ceso": 1636,
      "Ġmot": 1637,
      "Ġlife": 1638,
      "ank": 1639,
      "eno": 1640,
      "Ġtrabajo": 1641,
      "read": 1642,
      "Ġfil": 1643,
      "Ġlist": 1644,
      "Ġcuenta": 1645,
      "Ġsoci": 1646,
      "50": 1647,
      "Ġthink": 1648,
      "cil": 1649,
      "Ġ30": 1650,
      "Ġyo": 1651,
      "ets": 1652,
      "Ġtom": 1653,
      "Ġexpl": 1654,
      "Los": 1655,
      "Ġsomet": 1656,
      "Ġet": 1657,
      "jos": 1658,
      "IC": 1659,
      "mar": 1660,
      "imes": 1661,
      "Ġer": 1662,
      "Ġlot": 1663,
      "Ġsist": 1664,
      "Ġmucho": 1665,
      "Ġend": 1666,
      "ves": 1667,
      "Ġfree": 1668,
      "Ġear": 1669,
      "Ġpel": 1670,
      "ĠIs": 1671,
      "Ġayud": 1672,
      "Ġencon": 1673,
      "ĠUnivers": 1674,
      "://": 1675,
      "iving": 1676,
      "Ġeach": 1677,
      "Ġwhile": 1678,
      "Ġbaj": 1679,
      "Ġred": 1680,
      "30": 1681,
      "encias": 1682,
      "Ġcontrol": 1683,
      "ables": 1684,
      "ba": 1685,
      "AD": 1686,
      "Ġlead": 1687,
      "Ġbook": 1688,
      "Ġsupport": 1689,
      "ĠTe": 1690,
      "Ġcle": 1691,
      "ware": 1692,
      "ĠTo": 1693,
      "Ġcontra": 1694,
      "ently": 1695,
      "urs": 1696,
      "icios": 1697,
      "ness": 1698,
      "ures": 1699,
      "Ġir": 1700,
      "Ġchar": 1701,
      "puÃ©s": 1702,
      "Ġemp": 1703,
      "AT": 1704,
      "ized": 1705,
      "Ġera": 1706,
      "Ġquien": 1707,
      "af": 1708,
      "Ġprocess": 1709,
      "unity": 1710,
      "ung": 1711,
      "ierno": 1712,
      "ĠPor": 1713,
      "Ġpueden": 1714,
      "ving": 1715,
      "Ġestud": 1716,
      "Ġcour": 1717,
      "ĠRes": 1718,
      "Ġles": 1719,
      "Ġaround": 1720,
      "Ġbene": 1721,
      "Ġprovid": 1722,
      "come": 1723,
      "ames": 1724,
      "Â¿": 1725,
      "ombre": 1726,
      "eta": 1727,
      "Ġdej": 1728,
      "ustr": 1729,
      "Ġsea": 1730,
      "Ġtotal": 1731,
      "ĠSu": 1732,
      "Ġlast": 1733,
      "Ġsel": 1734,
      "ining": 1735,
      "Ġpes": 1736,
      "mos": 1737,
      "Ġtop": 1738,
      ",\"": 1739,
      "ense": 1740,
      "Ġdesc": 1741,
      "Ġsiempre": 1742,
      "Ġcare": 1743,
      "Ġsk": 1744,
      "ĠlÃŃ": 1745,
      "Ġfollow": 1746,
      "Ġexp": 1747,
      "minist": 1748,
      "Ġgoing": 1749,
      "Ġeso": 1750,
      "Ġvide": 1751,
      "Ġtras": 1752,
      "Ġcaso": 1753,
      "Ġplant": 1754,
      "Ġfund": 1755,
      "Ġthough": 1756,
      "ute": 1757,
      "Ġing": 1758,
      "ology": 1759,
      "unque": 1760,
      "Ġteam": 1761,
      "ically": 1762,
      "Ġcat": 1763,
      "roll": 1764,
      "Ġty": 1765,
      "ween": 1766,
      "Ġtest": 1767,
      "ĠÂ«": 1768,
      "Ġdar": 1769,
      "Ġeduc": 1770,
      "Com": 1771,
      "enciÃ³n": 1772,
      "11": 1773,
      "Ġqued": 1774,
      "terior": 1775,
      "We": 1776,
      "vert": 1777,
      "ature": 1778,
      "ĠÃ¡": 1779,
      "paÃ±a": 1780,
      "ivas": 1781,
      "ID": 1782,
      "igo": 1783,
      "Ġrepres": 1784,
      "ways": 1785,
      "Ġsame": 1786,
      "miento": 1787,
      "Ġ14": 1788,
      "Ġtem": 1789,
      "Ġloc": 1790,
      "Ġpop": 1791,
      "inos": 1792,
      "ades": 1793,
      "ola": 1794,
      "ancia": 1795,
      "Ġfav": 1796,
      "air": 1797,
      "Ġgrand": 1798,
      "Ġcoun": 1799,
      "ĠCan": 1800,
      "ution": 1801,
      "iqu": 1802,
      "leg": 1803,
      "Ġestos": 1804,
      "Ġencu": 1805,
      "Ġfut": 1806,
      "Ġoffer": 1807,
      "Ġmenos": 1808,
      "Ġrecom": 1809,
      "ased": 1810,
      "led": 1811,
      "Ġnatur": 1812,
      "Ġusing": 1813,
      "Ġstill": 1814,
      "Ãºs": 1815,
      "ecciÃ³n": 1816,
      "Ġcustom": 1817,
      "Ġpot": 1818,
      "Ġ#": 1819,
      "ĠInd": 1820,
      "Ġtechn": 1821,
      "ety": 1822,
      "Ġ16": 1823,
      "This": 1824,
      "Ġenc": 1825,
      "Ġencontr": 1826,
      "Ġmus": 1827,
      "Ã³lo": 1828,
      "ders": 1829,
      "Ġese": 1830,
      "ĠBar": 1831,
      "Ġmil": 1832,
      "Ġmomento": 1833,
      "ah": 1834,
      "gen": 1835,
      "Ġbro": 1836,
      "ĠBut": 1837,
      "Ġtel": 1838,
      "ash": 1839,
      "ĠUS": 1840,
      "Ġexam": 1841,
      "ote": 1842,
      "ron": 1843,
      "Ġplace": 1844,
      "Ġmal": 1845,
      "nos": 1846,
      "Ġtend": 1847,
      "Ġstr": 1848,
      "Ġbetween": 1849,
      "Ġrealiz": 1850,
      "Ġtrav": 1851,
      "Ġotro": 1852,
      "Ġboth": 1853,
      "let": 1854,
      "gos": 1855,
      "Ġwin": 1856,
      "Ġcult": 1857,
      "Ġcualquier": 1858,
      "ying": 1859,
      "oto": 1860,
      "12": 1861,
      "As": 1862,
      "Ġtar": 1863,
      "cor": 1864,
      "ÃŃst": 1865,
      "Ġvia": 1866,
      "ĠGu": 1867,
      "Ġpoint": 1868,
      "ï¿": 1869,
      "inas": 1870,
      "acter": 1871,
      "ï¿½": 1872,
      "Ġorig": 1873,
      "Ġcel": 1874,
      "IS": 1875,
      "ĠBe": 1876,
      "orth": 1877,
      "Ġreport": 1878,
      "eral": 1879,
      "Ġda": 1880,
      "vent": 1881,
      "Ġmat": 1882,
      "ĠBl": 1883,
      "ĠAm": 1884,
      "Ġsido": 1885,
      "Ġfound": 1886,
      "Ġfew": 1887,
      "ired": 1888,
      "Ġnuevo": 1889,
      "Es": 1890,
      "bor": 1891,
      "ĠGo": 1892,
      "reg": 1893,
      "ms": 1894,
      "ody": 1895,
      "Ġtan": 1896,
      "Ġchild": 1897,
      "erse": 1898,
      "Ġpur": 1899,
      "Ġmujer": 1900,
      "Ġamb": 1901,
      "itos": 1902,
      "crip": 1903,
      "Ġmanera": 1904,
      "Ġofre": 1905,
      "ĠSal": 1906,
      "uso": 1907,
      "Ġtoo": 1908,
      "Ġpay": 1909,
      "Ġcompany": 1910,
      "ret": 1911,
      "ĠThey": 1912,
      "ĠquÃ©": 1913,
      "Ġposs": 1914,
      "Ġhealth": 1915,
      "Ġnuestro": 1916,
      "Ġmonth": 1917,
      "Ġredu": 1918,
      "ram": 1919,
      "Ġ13": 1920,
      "ĠSi": 1921,
      "Ġdoc": 1922,
      "uss": 1923,
      "Al": 1924,
      "ĠAc": 1925,
      "abor": 1926,
      "Ġmant": 1927,
      "me": 1928,
      "count": 1929,
      "ailable": 1930,
      "ĠRo": 1931,
      "Ġvisit": 1932,
      "Ġllam": 1933,
      "Ġrun": 1934,
      "Ġproyect": 1935,
      "Ã³g": 1936,
      "ĠinformaciÃ³n": 1937,
      "ique": 1938,
      "Ġpoco": 1939,
      "icular": 1940,
      "Ġdom": 1941,
      "Ġpriv": 1942,
      "ĠpolÃŃt": 1943,
      "Ġfu": 1944,
      "Ġhaci": 1945,
      "Ġalgo": 1946,
      "Ġesper": 1947,
      "Ġ17": 1948,
      "ĠMed": 1949,
      "Ġextra": 1950,
      "Ġhear": 1951,
      "Ġcomb": 1952,
      "ĠSan": 1953,
      "oney": 1954,
      "ĠÃ": 1955,
      "Por": 1956,
      "Ã©c": 1957,
      "Ġdise": 1958,
      "oles": 1959,
      "ĠJo": 1960,
      "Ġcho": 1961,
      "ĠIntern": 1962,
      "bal": 1963,
      "Re": 1964,
      "Ġtodas": 1965,
      "....": 1966,
      "Ġtipo": 1967,
      "Ġ2018": 1968,
      "ument": 1969,
      "Ġanal": 1970,
      "Ġhapp": 1971,
      "ted": 1972,
      "Ġcorre": 1973,
      "cas": 1974,
      "Ġ2020": 1975,
      "Ġexperience": 1976,
      "otel": 1977,
      "ister": 1978,
      "Ġesto": 1979,
      "ĠPh": 1980,
      "ĠHow": 1981,
      "Ġsay": 1982,
      "Ġkeep": 1983,
      "Ġnuestra": 1984,
      "Ġrespons": 1985,
      "Ġestar": 1986,
      "Ġweek": 1987,
      "Ġlear": 1988,
      "chos": 1989,
      "ĠPol": 1990,
      "lease": 1991,
      "Ġprimer": 1992,
      "ger": 1993,
      "ĠdÃŃas": 1994,
      "Ġwrit": 1995,
      "Ġthings": 1996,
      "Ġcompet": 1997,
      "ĠLas": 1998,
      "'ve": 1999,
      "Ġresp": 2000,
      "ivel": 2001,
      "Ġdata": 2002,
      "Ġantes": 2003,
      "RE": 2004,
      "Ġfeel": 2005,
      "Ġwebs": 2006,
      "Ġprofes": 2007,
      "Ġlet": 2008,
      "No": 2009,
      "iene": 2010,
      "ĠThere": 2011,
      "ĠtravÃ©s": 2012,
      "Ġtienen": 2013,
      "ĠpÃºbl": 2014,
      "ality": 2015,
      "thing": 2016,
      "ock": 2017,
      "Ã¡l": 2018,
      "loy": 2019,
      "ĠâĢĶ": 2020,
      "ross": 2021,
      "Ġappro": 2022,
      "Ġservice": 2023,
      "Ġcontact": 2024,
      "vern": 2025,
      "duct": 2026,
      "Ġmodel": 2027,
      "Ġobjet": 2028,
      "Ġfinan": 2029,
      "Ġpal": 2030,
      "Ġminut": 2031,
      "Ġdefin": 2032,
      "Ġtres": 2033,
      "Ġput": 2034,
      "Ġperfect": 2035,
      "It": 2036,
      "Ġ:": 2037,
      "'m": 2038,
      "Ġ2017": 2039,
      "less": 2040,
      "ump": 2041,
      "Ġvers": 2042,
      "Ġlove": 2043,
      "irt": 2044,
      "Ġindivid": 2045,
      "Ġorganiz": 2046,
      "ĠMin": 2047,
      "ĠAll": 2048,
      "Ġiss": 2049,
      "Ġident": 2050,
      "rÃ¡": 2051,
      "Ġpare": 2052,
      "Ġbetter": 2053,
      "ogra": 2054,
      "Ġpoder": 2055,
      "ilar": 2056,
      "Ġthree": 2057,
      "press": 2058,
      "Ġsmall": 2059,
      "Ġ24": 2060,
      "Ġinterest": 2061,
      "ued": 2062,
      "Ġahora": 2063,
      "Ġgan": 2064,
      "Ġprimera": 2065,
      "of": 2066,
      "load": 2067,
      "Ġschool": 2068,
      "Ġduring": 2069,
      "aban": 2070,
      "Ġenerg": 2071,
      "ium": 2072,
      "Ġavailable": 2073,
      "ĠdespuÃ©s": 2074,
      "itch": 2075,
      "je": 2076,
      "Ġallow": 2077,
      "ĠEuro": 2078,
      "Ġinvestig": 2079,
      "Ġdisc": 2080,
      "Ġeffect": 2081,
      "Ġdere": 2082,
      "ÃŃo": 2083,
      "Ġopen": 2084,
      "Ġmult": 2085,
      "Ġ2019": 2086,
      "Ġtrat": 2087,
      "Ġconsum": 2088,
      "idente": 2089,
      "book": 2090,
      "Ġproject": 2091,
      "ĠMay": 2092,
      "til": 2093,
      "Ġhecho": 2094,
      "Ġmaterial": 2095,
      "ĠAmer": 2096,
      "ĠInst": 2097,
      "ural": 2098,
      "Ġalways": 2099,
      "ĠMe": 2100,
      "Ġwithout": 2101,
      "Ġlittle": 2102,
      "Ġwater": 2103,
      "arias": 2104,
      "ished": 2105,
      "Ġmight": 2106,
      "Ġeng": 2107,
      "aut": 2108,
      "ativa": 2109,
      "Ġcome": 2110,
      "Ġnumber": 2111,
      "Ġcir": 2112,
      "Ġcamb": 2113,
      "Ġsigu": 2114,
      "Ġfavor": 2115,
      "Ġaplic": 2116,
      "Ġdet": 2117,
      "Ġfal": 2118,
      "Ġbuild": 2119,
      "Ġimportant": 2120,
      "ĠPer": 2121,
      "Ġquest": 2122,
      "Ġequip": 2123,
      "Ġsure": 2124,
      "Ġrecord": 2125,
      "lex": 2126,
      "Ġviv": 2127,
      "Ġprom": 2128,
      "ants": 2129,
      "icle": 2130,
      "Ġ100": 2131,
      "Ġdig": 2132,
      "row": 2133,
      "ential": 2134,
      "Ġnorm": 2135,
      "Ġbre": 2136,
      "ually": 2137,
      "part": 2138,
      "Ġmust": 2139,
      "Ġcaus": 2140,
      "Ġstand": 2141,
      "Ġmanag": 2142,
      "Ġlleg": 2143,
      "Ġpermit": 2144,
      "Ġotras": 2145,
      "Ġutiliz": 2146,
      "Ġsl": 2147,
      "Ġgrup": 2148,
      "Ġ2021": 2149,
      "Ġrece": 2150,
      "ons": 2151,
      "ards": 2152,
      "Ġseman": 2153,
      "una": 2154,
      "Ġincluding": 2155,
      "Ġ25": 2156,
      "Ġinteg": 2157,
      "yn": 2158,
      "Ġnivel": 2159,
      "Ġrespect": 2160,
      "Ġorder": 2161,
      "Ġgame": 2162,
      "fe": 2163,
      "raciÃ³n": 2164,
      "Ġotra": 2165,
      "âĢĶ": 2166,
      "Ġdecis": 2167,
      "ĠMa": 2168,
      "Ġconstru": 2169,
      "Ġmain": 2170,
      "ply": 2171,
      "gest": 2172,
      "IT": 2173,
      "Ã¡ct": 2174,
      "Ġparticular": 2175,
      "iod": 2176,
      "ols": 2177,
      "'ll": 2178,
      "ĠGr": 2179,
      "Ġfamily": 2180,
      "Ġbig": 2181,
      "Ġhard": 2182,
      "nect": 2183,
      "mas": 2184,
      "uridad": 2185,
      "Ġestado": 2186,
      "Ġpag": 2187,
      "self": 2188,
      "ĠLo": 2189,
      "AM": 2190,
      "Ġperform": 2191,
      "rop": 2192,
      "soci": 2193,
      "Ġdev": 2194,
      "ologÃŃa": 2195,
      "ientras": 2196,
      "esta": 2197,
      "adora": 2198,
      "ela": 2199,
      "Ġefect": 2200,
      "Ġable": 2201,
      "ĠMad": 2202,
      "Ġdeter": 2203,
      "Ġjo": 2204,
      "Ġ2016": 2205,
      "ĠCal": 2206,
      "atis": 2207,
      "Ġsomething": 2208,
      "Ġfrien": 2209,
      "Ġpower": 2210,
      "Ġpens": 2211,
      "Ġrefer": 2212,
      "Ġenv": 2213,
      "Se": 2214,
      "Ġclass": 2215,
      "Ġdebe": 2216,
      "Ġwon": 2217,
      "Ġgot": 2218,
      "Ġpass": 2219,
      "omen": 2220,
      "ists": 2221,
      "uras": 2222,
      "Ġrepresent": 2223,
      "tail": 2224,
      "Ġhoy": 2225,
      "15": 2226,
      "Ġcasa": 2227,
      "oot": 2228,
      "Ġproper": 2229,
      "Ġdecir": 2230,
      "uesta": 2231,
      ".,": 2232,
      "Un": 2233,
      "Ġaddit": 2234,
      "ush": 2235,
      "Ã¡m": 2236,
      "Ġesa": 2237,
      "ĠQu": 2238,
      "Ġpract": 2239,
      "ĠVal": 2240,
      "anta": 2241,
      "ients": 2242,
      "Ġprovide": 2243,
      "Ġva": 2244,
      "ĠAt": 2245,
      "ED": 2246,
      "Ġlevel": 2247,
      "Ġgroup": 2248,
      "ily": 2249,
      "Ġservices": 2250,
      "ĠCent": 2251,
      "Ġequipo": 2252,
      "Ġprob": 2253,
      "itud": 2254,
      "ĠseÃ±": 2255,
      "ete": 2256,
      "Ġnext": 2257,
      "Ġcook": 2258,
      "by": 2259,
      "ican": 2260,
      "otos": 2261,
      "Ġencuent": 2262,
      "Ġunders": 2263,
      "Ġpeque": 2264,
      "ĠCO": 2265,
      "ĠhabÃŃa": 2266,
      "Ġconoci": 2267,
      "Ġcomer": 2268,
      "empor": 2269,
      "Ġestas": 2270,
      "Ġbuen": 2271,
      "De": 2272,
      "Ġanother": 2273,
      "Ġmerc": 2274,
      "Ġellos": 2275,
      "ped": 2276,
      "ious": 2277,
      "Ġpon": 2278,
      "Ġcurr": 2279,
      "tand": 2280,
      "Ġwithin": 2281,
      "Ġembar": 2282,
      "Ġgive": 2283,
      "Ġnever": 2284,
      "ately": 2285,
      "ĠServ": 2286,
      "ĠEm": 2287,
      "Ġfuncion": 2288,
      "ono": 2289,
      "Ġcier": 2290,
      "Ġmillones": 2291,
      "Ã©t": 2292,
      "cen": 2293,
      "Ġsistema": 2294,
      "Ġetc": 2295,
      "ats": 2296,
      "rag": 2297,
      "rateg": 2298,
      "ĠsÃ³lo": 2299,
      "Ġimportante": 2300,
      "lu": 2301,
      "ield": 2302,
      "Ġvideo": 2303,
      "ping": 2304,
      "Ġsince": 2305,
      "ublic": 2306,
      "eter": 2307,
      "aÃ±": 2308,
      "Ġsecon": 2309,
      "put": 2310,
      "isis": 2311,
      "Ġcountr": 2312,
      "anc": 2313,
      "Ġceleb": 2314,
      "Ġvac": 2315,
      "AC": 2316,
      "Ġunos": 2317,
      "ĠcÃ³mo": 2318,
      "Ġexc": 2319,
      "Ġsite": 2320,
      "Qu": 2321,
      "hor": 2322,
      "ism": 2323,
      "iment": 2324,
      "ode": 2325,
      "Ġsimple": 2326,
      "Ġimag": 2327,
      "Ġcolor": 2328,
      "iere": 2329,
      "ym": 2330,
      "Ġdatos": 2331,
      "Ġfull": 2332,
      "Ã¡g": 2333,
      "Ġante": 2334,
      "Ġaunque": 2335,
      "RO": 2336,
      "Ġrem": 2337,
      "18": 2338,
      "Ġquier": 2339,
      "Ġjug": 2340,
      "Ġmad": 2341,
      "ecn": 2342,
      "ĠFran": 2343,
      "Ġcontinu": 2344,
      "icia": 2345,
      "Ġmoney": 2346,
      "Ġdays": 2347,
      "Ġwebsite": 2348,
      "Ġarea": 2349,
      "ula": 2350,
      "ĠademÃ¡s": 2351,
      "Ġdin": 2352,
      "Ġnada": 2353,
      "Ġfaci": 2354,
      "ĠTra": 2355,
      "ecut": 2356,
      "Ġsig": 2357,
      "Ġmedio": 2358,
      "Ġsino": 2359,
      "Ġsing": 2360,
      "uf": 2361,
      "icial": 2362,
      "gin": 2363,
      "unicip": 2364,
      "ĠserÃ¡": 2365,
      "Ġeconom": 2366,
      "aces": 2367,
      "Ġjob": 2368,
      "Ġcum": 2369,
      "tos": 2370,
      "EL": 2371,
      "Ã³r": 2372,
      "Ġfre": 2373,
      "ems": 2374,
      "Ġprepar": 2375,
      "Ġless": 2376,
      "Ġaccess": 2377,
      "Ġold": 2378,
      "Ġ50": 2379,
      "Ġrecib": 2380,
      "uros": 2381,
      "itor": 2382,
      "Ġspeci": 2383,
      "Ġroom": 2384,
      "Ġidea": 2385,
      "Ġ199": 2386,
      "ined": 2387,
      "Las": 2388,
      "rollo": 2389,
      "Ġmuchos": 2390,
      "uch": 2391,
      "unci": 2392,
      "kes": 2393,
      "Ġcoment": 2394,
      "ips": 2395,
      "Ġgl": 2396,
      "Si": 2397,
      "Ġgar": 2398,
      "ival": 2399,
      "Ġ2015": 2400,
      "If": 2401,
      "16": 2402,
      "osp": 2403,
      "iven": 2404,
      "outh": 2405,
      "Ġhead": 2406,
      "Ġens": 2407,
      "Ġview": 2408,
      "ley": 2409,
      "Ġspecial": 2410,
      "ĠAp": 2411,
      "Ġlight": 2412,
      "xim": 2413,
      "Ġnueva": 2414,
      "ĠAg": 2415,
      "Ġgrow": 2416,
      "ĠIm": 2417,
      "Ġcalidad": 2418,
      "ours": 2419,
      "Ġhi": 2420,
      "Ġresearch": 2421,
      "Ġsuc": 2422,
      "uerdo": 2423,
      "illo": 2424,
      "ĠCor": 2425,
      "ars": 2426,
      "orte": 2427,
      "bol": 2428,
      "maz": 2429,
      "nes": 2430,
      "Ch": 2431,
      "anda": 2432,
      "alu": 2433,
      "ecu": 2434,
      "Ġpasado": 2435,
      "imin": 2436,
      "ope": 2437,
      "âĢĵ": 2438,
      "ling": 2439,
      "Ġtoda": 2440,
      "oca": 2441,
      "Ġcant": 2442,
      "Ġconoc": 2443,
      "Ġapro": 2444,
      "14": 2445,
      "ĠEspaÃ±a": 2446,
      "Ġsoft": 2447,
      "ĠSin": 2448,
      "Ġsever": 2449,
      "Ġindividual": 2450,
      "ri": 2451,
      "ration": 2452,
      "ĠPara": 2453,
      "joy": 2454,
      "Ġimpro": 2455,
      "Des": 2456,
      "Ġrev": 2457,
      "ĠJun": 2458,
      "ĠNot": 2459,
      "Ġdecid": 2460,
      "ands": 2461,
      "Ġapplic": 2462,
      "Ġalgunos": 2463,
      "Ġreview": 2464,
      "arÃŃa": 2465,
      "200": 2466,
      "Ġven": 2467,
      "Ġnatural": 2468,
      "serv": 2469,
      "Ġworking": 2470,
      "Ġess": 2471,
      "ĠBr": 2472,
      "untos": 2473,
      "acidad": 2474,
      "ee": 2475,
      "wh": 2476,
      "Ġalm": 2477,
      "Ġ21": 2478,
      "ĠÃºn": 2479,
      "Ġhoras": 2480,
      "eras": 2481,
      "ories": 2482,
      "Ġsex": 2483,
      "ĠsÃŃ": 2484,
      "ĠLu": 2485,
      "portun": 2486,
      "EC": 2487,
      "rado": 2488,
      "ots": 2489,
      "Ġhtt": 2490,
      "Ġproductos": 2491,
      "Ad": 2492,
      "ases": 2493,
      "Ġlooking": 2494,
      "ror": 2495,
      "ention": 2496,
      "Ġmag": 2497,
      "ĠWith": 2498,
      "Ġempresa": 2499,
      "ane": 2500,
      "Ġ2013": 2501,
      "erÃŃa": 2502,
      "Ġ2012": 2503,
      "Ġunderstand": 2504,
      "Ġ2014": 2505,
      "ĠShe": 2506,
      "ENT": 2507,
      "Ġuso": 2508,
      "Ã©cn": 2509,
      "uesto": 2510,
      "ieve": 2511,
      "atro": 2512,
      "ably": 2513,
      "13": 2514,
      "itu": 2515,
      "Ġcosas": 2516,
      "essional": 2517,
      "Ġvent": 2518,
      "Ġaud": 2519,
      "ĠDr": 2520,
      "Ġdijo": 2521,
      "emplo": 2522,
      "Ġmaking": 2523,
      "iet": 2524,
      "Ġindic": 2525,
      "Ġinteres": 2526,
      "Ġinde": 2527,
      "ala": 2528,
      "Ġautor": 2529,
      "Ġexpect": 2530,
      "Ġfood": 2531,
      "ares": 2532,
      "Ġdepend": 2533,
      "Ġsalud": 2534,
      "clus": 2535,
      "ney": 2536,
      "Ġsens": 2537,
      "Ġpast": 2538,
      "cord": 2539,
      "Ġ22": 2540,
      "--": 2541,
      "ĠReg": 2542,
      "hn": 2543,
      "aro": 2544,
      "Ġanim": 2545,
      "Ġvuel": 2546,
      "Ġpreg": 2547,
      "Ġmeet": 2548,
      "ills": 2549,
      "ev": 2550,
      "isiÃ³n": 2551,
      "Ġgen": 2552,
      "ĠDec": 2553,
      "the": 2554,
      "ream": 2555,
      "ability": 2556,
      "Ġabr": 2557,
      "ĠÃ©l": 2558,
      "Ġtur": 2559,
      "Ġig": 2560,
      "Ġblog": 2561,
      "Ġstudents": 2562,
      "ĠJul": 2563,
      "ÃŃculo": 2564,
      "Ġagua": 2565,
      "Ġusu": 2566,
      "Ġembargo": 2567,
      "Ġden": 2568,
      "Ġhistoria": 2569,
      "Ġcase": 2570,
      "Ġquality": 2571,
      "Ġproducts": 2572,
      "ĠMon": 2573,
      "Ġdiferentes": 2574,
      "ĠPres": 2575,
      "Ġair": 2576,
      "Ġsecond": 2577,
      "Ġreason": 2578,
      "Ġtak": 2579,
      "Ġtoday": 2580,
      "Ġtus": 2581,
      "Ġstate": 2582,
      "lobal": 2583,
      "Ġfacil": 2584,
      "Ġsignific": 2585,
      "ĠPero": 2586,
      "olÃ³g": 2587,
      "ids": 2588,
      "ĠprÃ³": 2589,
      "Ġmor": 2590,
      "Ġâ": 2591,
      "arch": 2592,
      "ĠAb": 2593,
      "Ġabs": 2594,
      "Ġdiv": 2595,
      "ibles": 2596,
      "Ġadminist": 2597,
      "ulo": 2598,
      "You": 2599,
      "ended": 2600,
      "Ġpopular": 2601,
      "Ġelement": 2602,
      "acio": 2603,
      "vil": 2604,
      "gent": 2605,
      "Ġline": 2606,
      "ether": 2607,
      "Ġx": 2608,
      "Ġcompar": 2609,
      "Ġbase": 2610,
      "pes": 2611,
      "rea": 2612,
      "25": 2613,
      "Ġproceso": 2614,
      "Ġautom": 2615,
      "cript": 2616,
      "ified": 2617,
      "xico": 2618,
      "ĠÂ¡": 2619,
      "ira": 2620,
      "US": 2621,
      "otros": 2622,
      "17": 2623,
      "ĠCu": 2624,
      "Ġmientras": 2625,
      "Ġmejores": 2626,
      "Ġestable": 2627,
      "ived": 2628,
      "Ġaccount": 2629,
      "ked": 2630,
      "ĠJu": 2631,
      "ĠEng": 2632,
      "Ġunivers": 2633,
      "lic": 2634,
      "ĠChrist": 2635,
      "ery": 2636,
      "edad": 2637,
      "Ġposible": 2638,
      "ativo": 2639,
      "enz": 2640,
      "ides": 2641,
      "ĠPa": 2642,
      "Ġagainst": 2643,
      "vious": 2644,
      "ned": 2645,
      "www": 2646,
      "Ġturn": 2647,
      "Ġ23": 2648,
      "Ġchange": 2649,
      "Ġveh": 2650,
      "Ã¡nd": 2651,
      "Ġhouse": 2652,
      "Ġmedia": 2653,
      "ake": 2654,
      "Ġaway": 2655,
      "ĠnÃº": 2656,
      "ensa": 2657,
      "ĠDis": 2658,
      "pace": 2659,
      "Ġperiod": 2660,
      "ĠsegÃºn": 2661,
      "ĠmÃ¡": 2662,
      "Ġenter": 2663,
      "osa": 2664,
      "ocus": 2665,
      "thers": 2666,
      "Ġsum": 2667,
      "Ġnuestros": 2668,
      "Ġchang": 2669,
      "Ġimpact": 2670,
      "sh": 2671,
      "tes": 2672,
      "ĠMÃ©": 2673,
      "Ġning": 2674,
      "ibilidad": 2675,
      "ĠSp": 2676,
      "pez": 2677,
      "ĠAf": 2678,
      "Ġrecon": 2679,
      "Ġwhy": 2680,
      "ris": 2681,
      "arÃ¡n": 2682,
      "Ġrad": 2683,
      "Ġservicios": 2684,
      "Ġkind": 2685,
      "Ġescu": 2686,
      "Ġeasy": 2687,
      "ĠSec": 2688,
      "ury": 2689,
      "Ġdir": 2690,
      "unic": 2691,
      "Ġpie": 2692,
      "ched": 2693,
      "irm": 2694,
      "Ġservicio": 2695,
      "Ġgre": 2696,
      "Ġenjoy": 2697,
      "Ġnear": 2698,
      "Ġverdad": 2699,
      "Ġpan": 2700,
      "Ġdentro": 2701,
      "lor": 2702,
      "vernment": 2703,
      "ection": 2704,
      "Ġregist": 2705,
      "Ġposit": 2706,
      "Ġhaving": 2707,
      "Ġmuchas": 2708,
      "can": 2709,
      "Ġconnect": 2710,
      "ively": 2711,
      "lege": 2712,
      "atures": 2713,
      "Ġdecl": 2714,
      "ĠcompaÃ±": 2715,
      "Ġped": 2716,
      "Ġcourse": 2717,
      "ueb": 2718,
      "ĠThat": 2719,
      "Ġthing": 2720,
      "ogle": 2721,
      "Ġperm": 2722,
      "Ġdesarroll": 2723,
      "Ġejemplo": 2724,
      "ĠfÃ¡": 2725,
      "cido": 2726,
      "Ġpolic": 2727,
      "Ġdivers": 2728,
      "fort": 2729,
      "Ġentr": 2730,
      "cep": 2731,
      "Ġhabit": 2732,
      "Ġur": 2733,
      "Ġhacia": 2734,
      "log": 2735,
      "son": 2736,
      "ott": 2737,
      "Ġgente": 2738,
      "Ġbal": 2739,
      "Ġveces": 2740,
      "uto": 2741,
      "Ġcomunic": 2742,
      "ĠNov": 2743,
      "Ġneeds": 2744,
      "Ġcover": 2745,
      "iza": 2746,
      "Ġpad": 2747,
      "rÃ³n": 2748,
      "ĠGener": 2749,
      "Ġemploy": 2750,
      "Ġindustr": 2751,
      "Ġcertain": 2752,
      "Ġsuccess": 2753,
      "Ġbit": 2754,
      "Ġport": 2755,
      "ged": 2756,
      "Ġactually": 2757,
      "Ġsw": 2758,
      "Ġpersona": 2759,
      "plement": 2760,
      "hod": 2761,
      "medi": 2762,
      "aur": 2763,
      "Ġgest": 2764,
      "ĠRec": 2765,
      "alla": 2766,
      "Ġfour": 2767,
      "abilidad": 2768,
      "duc": 2769,
      "Ġsector": 2770,
      "Ġalong": 2771,
      "nov": 2772,
      "gether": 2773,
      "Ġchildren": 2774,
      "iera": 2775,
      "etw": 2776,
      "Ġello": 2777,
      "Ġevent": 2778,
      "ĠDo": 2779,
      "Ġlabor": 2780,
      "room": 2781,
      "Ġdeber": 2782,
      "itas": 2783,
      "yle": 2784,
      "vers": 2785,
      "ĠÂ»": 2786,
      "ief": 2787,
      "Ġtimes": 2788,
      "char": 2789,
      "ally": 2790,
      "ĠBu": 2791,
      "Ġcrit": 2792,
      "Ġstat": 2793,
      "ajor": 2794,
      "ĠIN": 2795,
      "Ġproyecto": 2796,
      "ĠâĢ¦": 2797,
      "ĠWhen": 2798,
      "Ġapoy": 2799,
      "Ġviol": 2800,
      "Ġgob": 2801,
      "Ġoften": 2802,
      "cle": 2803,
      "Ġpossible": 2804,
      "ĠComm": 2805,
      "ove": 2806,
      "org": 2807,
      "Ġbeh": 2808,
      "ird": 2809,
      "embers": 2810,
      "Ġtreat": 2811,
      "Ġseguridad": 2812,
      "Ġaseg": 2813,
      "Ġrequire": 2814,
      "Ġris": 2815,
      "Ġsays": 2816,
      "Ġbased": 2817,
      "ĠNacional": 2818,
      "peci": 2819,
      "ray": 2820,
      "ape": 2821,
      "ilo": 2822,
      "iron": 2823,
      "porte": 2824,
      "ĠBo": 2825,
      "illas": 2826,
      "ĠWor": 2827,
      "lish": 2828,
      "uda": 2829,
      "ET": 2830,
      "Ġrele": 2831,
      "ĠSol": 2832,
      "va": 2833,
      "Pro": 2834,
      "Ġpap": 2835,
      "24": 2836,
      "ĠUniversity": 2837,
      "Ġlarge": 2838,
      "Ġdetermin": 2839,
      "Ġinvol": 2840,
      "Ġcomplet": 2841,
      "Ġtit": 2842,
      "Ġsimilar": 2843,
      "ospital": 2844,
      "ĠMy": 2845,
      "ificaciÃ³n": 2846,
      "Ġprev": 2847,
      "ĠCas": 2848,
      "ĠPart": 2849,
      "Ġtermin": 2850,
      "Ġsac": 2851,
      "ĠaquÃŃ": 2852,
      "Ġprice": 2853,
      "ĠRep": 2854,
      "just": 2855,
      "Ġoriginal": 2856,
      "Ġos": 2857,
      "ecer": 2858,
      "Ġella": 2859,
      "Ġcop": 2860,
      "ances": 2861,
      "OL": 2862,
      "fo": 2863,
      "cos": 2864,
      "etas": 2865,
      "Ġvalor": 2866,
      "aw": 2867,
      "Ġempresas": 2868,
      "IL": 2869,
      "UR": 2870,
      "Ġinclude": 2871,
      "Ġ2011": 2872,
      "Ġgrupo": 2873,
      "Ġdese": 2874,
      "Ġcheck": 2875,
      "Ġtogether": 2876,
      "ĠtÃ©cn": 2877,
      "emente": 2878,
      "ota": 2879,
      "sw": 2880,
      "Ġren": 2881,
      "acebook": 2882,
      "Ġfar": 2883,
      "60": 2884,
      "Ġtecn": 2885,
      "Ġgrandes": 2886,
      "Ġsemana": 2887,
      "Ġdetail": 2888,
      "ĠlÃŃne": 2889,
      "Ġbenefic": 2890,
      "das": 2891,
      "Ġmach": 2892,
      "cimiento": 2893,
      "Ġley": 2894,
      "uring": 2895,
      "Ġlik": 2896,
      "ĠeconÃ³m": 2897,
      "Ġprofessional": 2898,
      "Ġdesarrollo": 2899,
      "rup": 2900,
      "Ġgas": 2901,
      "ĠmÃ©": 2902,
      "ustry": 2903,
      "ĠespaÃ±": 2904,
      "Ġfi": 2905,
      "Ġnegoci": 2906,
      "Ġshort": 2907,
      "ĠSte": 2908,
      "ĠLA": 2909,
      "ĠAct": 2910,
      "Ġopin": 2911,
      "Ġcin": 2912,
      "Ġ40": 2913,
      "Ġfueron": 2914,
      "Ġampl": 2915,
      "Para": 2916,
      "itter": 2917,
      "iam": 2918,
      "Ġ2022": 2919,
      "ĠSeg": 2920,
      "unda": 2921,
      "ches": 2922,
      "Ġrealizar": 2923,
      "Ãĵ": 2924,
      "tas": 2925,
      "Ġmisma": 2926,
      "__": 2927,
      "Ġproced": 2928,
      "icias": 2929,
      "Ġname": 2930,
      "Ġder": 2931,
      "esto": 2932,
      "Ġencontrar": 2933,
      "mero": 2934,
      "iano": 2935,
      "apt": 2936,
      "Ġmeans": 2937,
      "Ġnight": 2938,
      "Ġprem": 2939,
      "Ġdich": 2940,
      "ready": 2941,
      "Ġhuman": 2942,
      "Ġcuer": 2943,
      "ites": 2944,
      "Ġacuerdo": 2945,
      "Ġfel": 2946,
      "Ġigual": 2947,
      "jas": 2948,
      "Ġluego": 2949,
      "Ar": 2950,
      "Ġdeal": 2951,
      "Ġseason": 2952,
      "osted": 2953,
      "ĠniÃ±os": 2954,
      "Ġmercado": 2955,
      "ĠJos": 2956,
      "Ġquer": 2957,
      "side": 2958,
      "Ġgetting": 2959,
      "Ġhotel": 2960,
      "Ġapr": 2961,
      "Ġmakes": 2962,
      "Ġseveral": 2963,
      "ĠWhat": 2964,
      "Ġbuy": 2965,
      "Ġlogr": 2966,
      "oma": 2967,
      "Ġpresidente": 2968,
      "ĠComp": 2969,
      "sel": 2970,
      "Ġprincipal": 2971,
      "Ġpuedes": 2972,
      "iana": 2973,
      "ĠMÃ©xico": 2974,
      "Ġfocus": 2975,
      "Ġlat": 2976,
      "Ġban": 2977,
      "ordin": 2978,
      "40": 2979,
      "icamente": 2980,
      "Ġwr": 2981,
      "iales": 2982,
      "Ġsuel": 2983,
      "23": 2984,
      "Ġoffic": 2985,
      "Ġbat": 2986,
      "Ġcommunity": 2987,
      "Ġnon": 2988,
      "Ġlow": 2989,
      "ĠGod": 2990,
      "Ġdone": 2991,
      "iso": 2992,
      "Ġinstal": 2993,
      "Ġdue": 2994,
      "ĠWin": 2995,
      "ners": 2996,
      "ionales": 2997,
      "Ġil": 2998,
      "iting": 2999,
      "Ġbody": 3000,
      "ST": 3001,
      "Ġcarr": 3002,
      "Ã¡p": 3003,
      "Ġestaba": 3004,
      "Ġapar": 3005,
      "Ġmujeres": 3006,
      "Ġfab": 3007,
      "Ġexperiencia": 3008,
      "Ġ28": 3009,
      "Ġbecome": 3010,
      "unca": 3011,
      "Ġuntil": 3012,
      "Ġcumpl": 3013,
      "ending": 3014,
      "uales": 3015,
      "Ġbajo": 3016,
      "Ġcreate": 3017,
      "cording": 3018,
      "ires": 3019,
      "ission": 3020,
      "St": 3021,
      "Ġtas": 3022,
      "Ġtempor": 3023,
      "Ġpues": 3024,
      "Ġmeses": 3025,
      "Ġside": 3026,
      "Ġclear": 3027,
      "ĠCont": 3028,
      "izado": 3029,
      "ĠEN": 3030,
      "Ġcou": 3031,
      "Ġdispon": 3032,
      "Ġrep": 3033,
      "ha": 3034,
      "OT": 3035,
      "Ġdispos": 3036,
      "Ġpunto": 3037,
      "zas": 3038,
      "Ġcomput": 3039,
      "ximo": 3040,
      "ĠAM": 3041,
      "rad": 3042,
      "Ġwal": 3043,
      "Ġmajor": 3044,
      "ĠPre": 3045,
      "Ġpers": 3046,
      "Ġalready": 3047,
      "ured": 3048,
      "ĠMadrid": 3049,
      "ĠMo": 3050,
      "col": 3051,
      "blig": 3052,
      "Ġjue": 3053,
      "cto": 3054,
      "cing": 3055,
      "Ġcand": 3056,
      "Ġdevelopment": 3057,
      "Ġago": 3058,
      "Ġaff": 3059,
      "Ġcapital": 3060,
      "ĠEurope": 3061,
      "Ġbuena": 3062,
      "Ġenough": 3063,
      "Ġquick": 3064,
      "acy": 3065,
      "gra": 3066,
      "Ġtext": 3067,
      "ĠTw": 3068,
      "ufact": 3069,
      "anies": 3070,
      "arlo": 3071,
      "ajes": 3072,
      "Ġdestac": 3073,
      "Ġstep": 3074,
      "not": 3075,
      "ised": 3076,
      "Ġemple": 3077,
      "Ġsan": 3078,
      "Ġ27": 3079,
      "Ġmem": 3080,
      "ĠThese": 3081,
      "Ġleft": 3082,
      "aim": 3083,
      "Ġfollowing": 3084,
      "ya": 3085,
      "ĠArt": 3086,
      "Ġcard": 3087,
      "yl": 3088,
      "Ġcasi": 3089,
      "cios": 3090,
      "Ġdol": 3091,
      "Ġclean": 3092,
      "respon": 3093,
      "Ġcomes": 3094,
      "iante": 3095,
      "Ġconten": 3096,
      "Ġsoftware": 3097,
      "ource": 3098,
      "hib": 3099,
      "Ġexample": 3100,
      "utions": 3101,
      "Ġcondit": 3102,
      "Ġfig": 3103,
      "Ġworks": 3104,
      "Ġever": 3105,
      "Ġhaber": 3106,
      "otogra": 3107,
      "Ġrecog": 3108,
      "omin": 3109,
      "Ġothers": 3110,
      "Cu": 3111,
      "Ġteach": 3112,
      "Ġbeaut": 3113,
      "Ġ2010": 3114,
      "dos": 3115,
      "Ġprecio": 3116,
      "EM": 3117,
      "iencia": 3118,
      "Ġcru": 3119,
      "Ġhom": 3120,
      "Ġdoing": 3121,
      "Ġdigital": 3122,
      "Ġmunicip": 3123,
      "Ġmind": 3124,
      "ensive": 3125,
      "aps": 3126,
      "Ġcort": 3127,
      "Ã±as": 3128,
      "Ġarr": 3129,
      "Ġappear": 3130,
      "Ġeleg": 3131,
      "ĠPat": 3132,
      "Ġtry": 3133,
      "ĠsituaciÃ³n": 3134,
      "Ġdidn": 3135,
      "usted": 3136,
      "Ġemail": 3137,
      "Ġaspect": 3138,
      "zÃ³n": 3139,
      "Ã¡b": 3140,
      "Ġjuego": 3141,
      "80": 3142,
      "Ġ>": 3143,
      "Ġ26": 3144,
      "ĠDep": 3145,
      "eca": 3146,
      "ann": 3147,
      "Ġexplic": 3148,
      "Ġonce": 3149,
      "ency": 3150,
      "obierno": 3151,
      "dows": 3152,
      "fico": 3153,
      "ĠJohn": 3154,
      "ĠSer": 3155,
      "ironment": 3156,
      "umb": 3157,
      "For": 3158,
      "ift": 3159,
      "Ġdra": 3160,
      "elling": 3161,
      "Ġmean": 3162,
      "Ġobt": 3163,
      "Ġconocer": 3164,
      "urther": 3165,
      "ĠOne": 3166,
      "ĠYour": 3167,
      "Ġmembers": 3168,
      "Ġbenef": 3169,
      "Ġpurch": 3170,
      "Ġcontrib": 3171,
      "Ġtor": 3172,
      "ither": 3173,
      "uls": 3174,
      "Ġhemos": 3175,
      "enn": 3176,
      "ĠNe": 3177,
      "wards": 3178,
      "Ġresid": 3179,
      "Ġpage": 3180,
      "Ġzona": 3181,
      "izo": 3182,
      "ising": 3183,
      "Ex": 3184,
      "irl": 3185,
      "Ġincluso": 3186,
      "Ġnosotros": 3187,
      "Ġstay": 3188,
      "irus": 3189,
      "ativas": 3190,
      "Ġoblig": 3191,
      "isl": 3192,
      "Ġmethod": 3193,
      "Ġdeliver": 3194,
      "ule": 3195,
      "Ġsec": 3196,
      "Ġlive": 3197,
      "gas": 3198,
      "gel": 3199,
      "ĠMor": 3200,
      "alf": 3201,
      "Ġacross": 3202,
      "Ġcateg": 3203,
      "Ġlaw": 3204,
      "Ġlado": 3205,
      "ead": 3206,
      "Ġwa": 3207,
      "ford": 3208,
      "erte": 3209,
      "Ġrestaur": 3210,
      "Ġamo": 3211,
      "Ġmonths": 3212,
      "Ġkey": 3213,
      "ĠPal": 3214,
      "ctu": 3215,
      "ella": 3216,
      "ening": 3217,
      "Ġgames": 3218,
      "ĠPM": 3219,
      "Ġgracias": 3220,
      "Ġnec": 3221,
      "Ġintro": 3222,
      "Ġseguir": 3223,
      "Ġcountry": 3224,
      "edor": 3225,
      "ify": 3226,
      "Ġsearch": 3227,
      "ĠPe": 3228,
      "ources": 3229,
      "Ġbra": 3230,
      "ĠApr": 3231,
      "ences": 3232,
      "âĢľ": 3233,
      "Ġgobierno": 3234,
      "Ġnews": 3235,
      "Ġafect": 3236,
      "Ġexpres": 3237,
      "Ġmiss": 3238,
      "Ġnombre": 3239,
      "frut": 3240,
      "Ġtenemos": 3241,
      "Ġdice": 3242,
      "ĠGobierno": 3243,
      "ĠMart": 3244,
      "Ġproblemas": 3245,
      "Ġcambio": 3246,
      "aja": 3247,
      "Ġfamilia": 3248,
      "Ġpm": 3249,
      "ĠDel": 3250,
      "Ġhon": 3251,
      "ĠAut": 3252,
      "Ġsolic": 3253,
      "ĠpÃ¡g": 3254,
      "ports": 3255,
      "ĠUs": 3256,
      "II": 3257,
      "How": 3258,
      "Ġdedic": 3259,
      "Ġcalled": 3260,
      "ĠJan": 3261,
      "Ġincluy": 3262,
      "AP": 3263,
      "rim": 3264,
      "Ġdirig": 3265,
      "Ġindustry": 3266,
      "Ġconcer": 3267,
      "Ġpack": 3268,
      "ĠnÃºmero": 3269,
      "angu": 3270,
      "Ġflo": 3271,
      "imas": 3272,
      "ights": 3273,
      "htt": 3274,
      "Ġsaber": 3275,
      "Ġjun": 3276,
      "Ġleast": 3277,
      "ĠJust": 3278,
      "ĠGar": 3279,
      "ĠNews": 3280,
      "Ġdoesn": 3281,
      "ĠFr": 3282,
      "ĠUna": 3283,
      "Ġrecomm": 3284,
      "obile": 3285,
      "Ġllegar": 3286,
      "Ġstory": 3287,
      "ding": 3288,
      "Ġ+": 3289,
      "OM": 3290,
      "Ġmusic": 3291,
      "Ġpalab": 3292,
      "Ġoffers": 3293,
      "ball": 3294,
      "Ġvan": 3295,
      "ĠCam": 3296,
      "ĠRed": 3297,
      "aff": 3298,
      "Ġresol": 3299,
      "enas": 3300,
      "ĠGeneral": 3301,
      "forma": 3302,
      "Ġlater": 3303,
      "usta": 3304,
      "Ġcambi": 3305,
      "val": 3306,
      "ĠEste": 3307,
      "urance": 3308,
      "ĠEstado": 3309,
      "Ġrema": 3310,
      "Ġideas": 3311,
      "ĠOur": 3312,
      "Ġorden": 3313,
      "Ġprograma": 3314,
      "Ġsepar": 3315,
      "Ġnormal": 3316,
      "Ġdistrib": 3317,
      "ĠaÃºn": 3318,
      "Ġenfer": 3319,
      "ĠLib": 3320,
      "umento": 3321,
      "ACI": 3322,
      "UN": 3323,
      "Ġshare": 3324,
      "ĠHowever": 3325,
      "Ġclos": 3326,
      "Ġobserv": 3327,
      "pir": 3328,
      "aster": 3329,
      "Ġcentro": 3330,
      "Ġcookies": 3331,
      "ume": 3332,
      "Ġarch": 3333,
      "ĠprÃ¡ct": 3334,
      "Ġdisco": 3335,
      "iembre": 3336,
      "Ġsil": 3337,
      "eth": 3338,
      "ĠrÃ¡p": 3339,
      "Ġwar": 3340,
      "Ġaltern": 3341,
      "Ġfuture": 3342,
      "Ġsingle": 3343,
      "Ġsug": 3344,
      "iÃ©n": 3345,
      "So": 3346,
      "Ġcity": 3347,
      "Ġhold": 3348,
      "ube": 3349,
      "Ġgust": 3350,
      "Ġwatch": 3351,
      "igos": 3352,
      "IA": 3353,
      "Ġhours": 3354,
      "IV": 3355,
      "encial": 3356,
      "Ġtype": 3357,
      "He": 3358,
      "now": 3359,
      "Ġalgunas": 3360,
      "oper": 3361,
      "Ġdec": 3362,
      "Ġcompanies": 3363,
      "Sh": 3364,
      "Ġdia": 3365,
      "Ġsitio": 3366,
      "ĠHer": 3367,
      "What": 3368,
      "Ġstop": 3369,
      "ering": 3370,
      "Ġspace": 3371,
      "ĠCons": 3372,
      "Ġtax": 3373,
      "Ġfall": 3374,
      "ĠGoogle": 3375,
      "On": 3376,
      "IM": 3377,
      "Ġreturn": 3378,
      "ĠfÃ¡cil": 3379,
      "Ġinici": 3380,
      "olid": 3381,
      "Ġwomen": 3382,
      "Ġgovernment": 3383,
      "eda": 3384,
      "Ġcut": 3385,
      "Ġexact": 3386,
      "ĠÃģ": 3387,
      "Ġoportun": 3388,
      "tura": 3389,
      "Ġnunca": 3390,
      "Ġprefer": 3391,
      "Ġcompr": 3392,
      "Ġnacional": 3393,
      "Ġsecre": 3394,
      "ĠYork": 3395,
      "atura": 3396,
      "Ġcontent": 3397,
      "Ġdinero": 3398,
      "ĠOb": 3399,
      "iful": 3400,
      "Ġ*": 3401,
      "Ġol": 3402,
      "Ġmedic": 3403,
      "Ġproducto": 3404,
      "oz": 3405,
      "Ġamount": 3406,
      "Ġhora": 3407,
      "Ġtrata": 3408,
      "Ġfuera": 3409,
      ".-": 3410,
      "ples": 3411,
      "Ġ29": 3412,
      "ĠrelaciÃ³n": 3413,
      "ker": 3414,
      "Ġcasos": 3415,
      "Ġsociales": 3416,
      "odos": 3417,
      "Ġstrong": 3418,
      "iedad": 3419,
      "rict": 3420,
      "anza": 3421,
      "ivil": 3422,
      "Ġcompart": 3423,
      "Ġcaracter": 3424,
      "Ġtele": 3425,
      "ĠBro": 3426,
      "Ġll": 3427,
      "Ġmol": 3428,
      "Ġmillion": 3429,
      "ony": 3430,
      "cin": 3431,
      "Ġhombre": 3432,
      "Ġstarted": 3433,
      "ffic": 3434,
      "emas": 3435,
      "ĠVer": 3436,
      "orio": 3437,
      "des": 3438,
      "Ġglobal": 3439,
      "Ġjunto": 3440,
      "Ġthought": 3441,
      "27": 3442,
      "ester": 3443,
      "ĠTer": 3444,
      "unch": 3445,
      "ĠSup": 3446,
      "uper": 3447,
      "Ġstudy": 3448,
      "Ġcuatro": 3449,
      "ĠMore": 3450,
      "ierra": 3451,
      "iga": 3452,
      "Â¡": 3453,
      "Ġbegin": 3454,
      "Ġfeatures": 3455,
      "ility": 3456,
      "Ġalta": 3457,
      "erta": 3458,
      "au": 3459,
      "Ġcomenz": 3460,
      "Ġvarios": 3461,
      "Ġfabric": 3462,
      "Ġinternet": 3463,
      "26": 3464,
      "To": 3465,
      "Ġescrit": 3466,
      "Ġpartir": 3467,
      "ĠUnited": 3468,
      "Ġindepend": 3469,
      "azo": 3470,
      "Ġfrente": 3471,
      "Ġep": 3472,
      "Ġshop": 3473,
      "gu": 3474,
      "Ġdefinit": 3475,
      "There": 3476,
      "Ġprotect": 3477,
      "Ġdisfrut": 3478,
      "Ġasegur": 3479,
      "back": 3480,
      "ler": 3481,
      "ĠAmerican": 3482,
      "atic": 3483,
      "unta": 3484,
      "ago": 3485,
      "Ġey": 3486,
      "Ġyoung": 3487,
      "ĠDi": 3488,
      "99": 3489,
      "ĠseÃ±al": 3490,
      "Ġlearn": 3491,
      "Ġemb": 3492,
      "Ġmuest": 3493,
      "ende": 3494,
      "Ġcame": 3495,
      "Ġseries": 3496,
      "Ġpartido": 3497,
      "Ġregular": 3498,
      "Ġproblema": 3499,
      "Ġcontain": 3500,
      "Ġbring": 3501,
      "ĠEstados": 3502,
      "Ġcuerpo": 3503,
      "ombres": 3504,
      "Ġobjetivo": 3505,
      "Ġpress": 3506,
      "Ġvarious": 3507,
      "Ġresults": 3508,
      "Ġcorrespon": 3509,
      "ĠChina": 3510,
      "amento": 3511,
      "ĠÃºltimo": 3512,
      "ĠmÃºs": 3513,
      "Ġvalue": 3514,
      "empl": 3515,
      "Ġps": 3516,
      "Ġanterior": 3517,
      "Ġdiscuss": 3518,
      "Ġremo": 3519,
      "Ġmarketing": 3520,
      "ĠCity": 3521,
      "Ġlegal": 3522,
      "ĠAdemÃ¡s": 3523,
      "Ġmic": 3524,
      "Ġtema": 3525,
      "Ġdeclar": 3526,
      "ĠEduc": 3527,
      "Ġalum": 3528,
      "Ġstrateg": 3529,
      "Ġeverything": 3530,
      "Ġu": 3531,
      "iado": 3532,
      "Ġconsult": 3533,
      "28": 3534,
      "irÃ¡": 3535,
      "Ġyet": 3536,
      "onal": 3537,
      "eto": 3538,
      "ĠlÃŃnea": 3539,
      "Ġknown": 3540,
      "Ġcandid": 3541,
      "Ġscre": 3542,
      "curr": 3543,
      "ello": 3544,
      "Ġju": 3545,
      "reso": 3546,
      "Ġespeci": 3547,
      "Ġparece": 3548,
      "Ġfriends": 3549,
      "alt": 3550,
      "Ġchall": 3551,
      "Ġcredit": 3552,
      "Ġcontrat": 3553,
      "Ġpodemos": 3554,
      "ðŁ": 3555,
      "astic": 3556,
      "Ġlargo": 3557,
      "enos": 3558,
      "Ġprior": 3559,
      "Ġpaso": 3560,
      "Ġinstall": 3561,
      "ĠBus": 3562,
      "QuÃ©": 3563,
      "ĠatenciÃ³n": 3564,
      "Ġwriting": 3565,
      "ĠpelÃŃcul": 3566,
      "ster": 3567,
      "Ġ60": 3568,
      "ĠpÃºblico": 3569,
      "Una": 3570,
      "ĠDirect": 3571,
      ".âĢĿ": 3572,
      "ibility": 3573,
      "anco": 3574,
      "undial": 3575,
      "Ġdownload": 3576,
      "Ġcorrect": 3577,
      "ederal": 3578,
      "Ġconvert": 3579,
      "ĠUnidos": 3580,
      "ements": 3581,
      "ĠpodrÃŃa": 3582,
      "Ġrepl": 3583,
      "ÃĵN": 3584,
      "ells": 3585,
      "amientos": 3586,
      "Ġgarant": 3587,
      "Ġmanagement": 3588,
      "Ġdirector": 3589,
      "rÃ³": 3590,
      "Ġreun": 3591,
      "irse": 3592,
      "Ġcondic": 3593,
      "Ġinnov": 3594,
      "ĠBy": 3595,
      "Ġcurrent": 3596,
      "Ġcustomers": 3597,
      "Ġbed": 3598,
      "Ġfinanci": 3599,
      "ledge": 3600,
      "Ġearly": 3601,
      "adem": 3602,
      "Ġpubl": 3603,
      "Ġissues": 3604,
      "ctubre": 3605,
      "Ġintrodu": 3606,
      "Ġconsist": 3607,
      "omas": 3608,
      "Ġconseg": 3609,
      "ĠFeb": 3610,
      "Ġgiven": 3611,
      "Ġtechnology": 3612,
      "ĠWest": 3613,
      "Me": 3614,
      "jar": 3615,
      "Ġgol": 3616,
      "Ġdisp": 3617,
      "Ġpermite": 3618,
      "Ġaddress": 3619,
      "Ġrange": 3620,
      "ĠSm": 3621,
      "ĠJuan": 3622,
      "Ġalc": 3623,
      "Ġactividades": 3624,
      "Ġprest": 3625,
      "ters": 3626,
      "Ġincor": 3627,
      "ĠGe": 3628,
      "Ġserie": 3629,
      "Ġcommon": 3630,
      "Ġmodern": 3631,
      "Ġunas": 3632,
      "Ġespacio": 3633,
      "ÃŃm": 3634,
      "Ġlic": 3635,
      "Ġcert": 3636,
      "Ġevalu": 3637,
      "orÃŃa": 3638,
      "ĠWorld": 3639,
      "Ġselect": 3640,
      "Ġcra": 3641,
      "Ġsound": 3642,
      "Ġmens": 3643,
      "ĠpolÃŃtica": 3644,
      "Ġnuevos": 3645,
      "Ġminutos": 3646,
      "iciembre": 3647,
      "play": 3648,
      "ĠAug": 3649,
      "Ġplac": 3650,
      "Ġamong": 3651,
      "ization": 3652,
      "Ġconj": 3653,
      "ĠHar": 3654,
      "ifest": 3655,
      "ĠÂ·": 3656,
      "though": 3657,
      "ĠpaÃŃses": 3658,
      "Ġocas": 3659,
      "Ġejer": 3660,
      "ĠFin": 3661,
      "Ġrelations": 3662,
      "ienda": 3663,
      "ored": 3664,
      "aves": 3665,
      "ĠvÃŃ": 3666,
      "Ġtaking": 3667,
      "ĠWeb": 3668,
      "Ġalguna": 3669,
      "Ġnar": 3670,
      "crib": 3671,
      "Ġsor": 3672,
      "Ġtook": 3673,
      "Ġauthor": 3674,
      "Ġabove": 3675,
      "ai": 3676,
      "Ġ2009": 3677,
      "Ġpen": 3678,
      "Ġquestion": 3679,
      "ustral": 3680,
      "Ġmir": 3681,
      "inar": 3682,
      "Ġregul": 3683,
      "Ĥ¬": 3684,
      "Ġshar": 3685,
      "Ġfamiliar": 3686,
      "etwork": 3687,
      "ques": 3688,
      "ĠEL": 3689,
      "TA": 3690,
      "Ġbon": 3691,
      "Ġspecific": 3692,
      "45": 3693,
      "isto": 3694,
      "ĠGra": 3695,
      "Ġcapacidad": 3696,
      "29": 3697,
      "Ġsiendo": 3698,
      "Ġsomeone": 3699,
      "Ġproces": 3700,
      "Ġansw": 3701,
      "tre": 3702,
      "ivamente": 3703,
      "Ġbelow": 3704,
      "RA": 3705,
      "Ġwhether": 3706,
      "ĠOf": 3707,
      "Ġimplement": 3708,
      "UE": 3709,
      "ĠCap": 3710,
      "Ġmanufact": 3711,
      "Ġresist": 3712,
      "Ġenvironment": 3713,
      "Ġquestions": 3714,
      "atal": 3715,
      "Ġperd": 3716,
      "Ġlog": 3717,
      "Ġengine": 3718,
      "orr": 3719,
      "uck": 3720,
      "Ġpict": 3721,
      "Ã¡r": 3722,
      "ĠSant": 3723,
      "oo": 3724,
      "Ġpuntos": 3725,
      "ĠReal": 3726,
      "ilt": 3727,
      "Ġtravel": 3728,
      "ĠmayorÃŃa": 3729,
      "ĠâĢ¢": 3730,
      "ban": 3731,
      "Ġries": 3732,
      "iciones": 3733,
      "ham": 3734,
      "illed": 3735,
      "vest": 3736,
      "Ġrealidad": 3737,
      "Ġmess": 3738,
      "Ġcoc": 3739,
      "Ġste": 3740,
      "Ġfinancial": 3741,
      "Ġassist": 3742,
      "Ġenton": 3743,
      "etes": 3744,
      "Ġbast": 3745,
      "Ġcomprom": 3746,
      "Ġeuros": 3747,
      "Ġayuda": 3748,
      "Ġdistint": 3749,
      "Ġwent": 3750,
      "Ġmano": 3751,
      "Ġhub": 3752,
      "Ġrom": 3753,
      "Ġreach": 3754,
      "Este": 3755,
      "ursos": 3756,
      "Ġsatis": 3757,
      "ĠInternet": 3758,
      "Ġmid": 3759,
      "ĠState": 3760,
      "acionales": 3761,
      "ĠTV": 3762,
      "Ġprecis": 3763,
      "enda": 3764,
      "ĠJes": 3765,
      "gentina": 3766,
      "Ġusted": 3767,
      "ĠPort": 3768,
      "Ġencuentra": 3769,
      "Ġbuilding": 3770,
      "Ġfit": 3771,
      "Ġprovides": 3772,
      "Ġub": 3773,
      "Ġsegu": 3774,
      "IG": 3775,
      "Ġfres": 3776,
      "Ġmer": 3777,
      "Ġseen": 3778,
      "Ġsem": 3779,
      "rÃŃa": 3780,
      "Ġwhole": 3781,
      "Ġsale": 3782,
      "Ġupd": 3783,
      "fica": 3784,
      "ĠUN": 3785,
      "Ġtable": 3786,
      "oss": 3787,
      "Ġclub": 3788,
      "ÃŃculos": 3789,
      "Ġproperty": 3790,
      "eria": 3791,
      "Ġcomplete": 3792,
      "Ġdesp": 3793,
      "Ã¡tica": 3794,
      "point": 3795,
      "Ġconvers": 3796,
      "Ġenergy": 3797,
      "Ġminutes": 3798,
      "Ġcasino": 3799,
      "ficult": 3800,
      "01": 3801,
      "Ġsuggest": 3802,
      "aking": 3803,
      "Ġamor": 3804,
      "ĠDav": 3805,
      "ky": 3806,
      "mail": 3807,
      "Ġcontr": 3808,
      "Ġoil": 3809,
      "cional": 3810,
      "Ġacom": 3811,
      "asing": 3812,
      "ĠManag": 3813,
      "Ġtemper": 3814,
      "Ġentonces": 3815,
      "Ġjud": 3816,
      "Ġintegr": 3817,
      "Ġarm": 3818,
      "Ġnuevas": 3819,
      "irst": 3820,
      "ĠCON": 3821,
      "urch": 3822,
      "Ġplat": 3823,
      "imate": 3824,
      "fully": 3825,
      "Ġclaim": 3826,
      "Ġcomprar": 3827,
      "ened": 3828,
      "ĠMc": 3829,
      "Ġsimply": 3830,
      "irecciÃ³n": 3831,
      "35": 3832,
      "When": 3833,
      "Ġale": 3834,
      "Ġpet": 3835,
      "Ġdepart": 3836,
      "vant": 3837,
      "Ġvirt": 3838,
      "Le": 3839,
      "ÃŃsticas": 3840,
      "ĠChe": 3841,
      "Ġsentido": 3842,
      "Ġextrem": 3843,
      "ĠGre": 3844,
      "Ġreserv": 3845,
      "ĠEd": 3846,
      "Ġperman": 3847,
      "Ġpobl": 3848,
      "Ġrelacion": 3849,
      "Ġphys": 3850,
      "ificar": 3851,
      "Ġquite": 3852,
      "Ġperformance": 3853,
      "ience": 3854,
      "Ġdescrib": 3855,
      "Ġfive": 3856,
      "Ġrequired": 3857,
      "ination": 3858,
      "Ġhost": 3859,
      "orge": 3860,
      "Ġfurther": 3861,
      "Ġaddition": 3862,
      "ĠTrans": 3863,
      "Ph": 3864,
      "Ġsiguiente": 3865,
      "Ġfalta": 3866,
      "ĠFacebook": 3867,
      "Ġtengo": 3868,
      "cks": 3869,
      "yo": 3870,
      "Ġlibro": 3871,
      "uestas": 3872,
      "Ġclientes": 3873,
      "Ġsci": 3874,
      "Posted": 3875,
      "Ġbelieve": 3876,
      "Ġdifficult": 3877,
      "Ġhowever": 3878,
      "Ġoptions": 3879,
      "ĠOp": 3880,
      "ĠMich": 3881,
      "05": 3882,
      "Ġeither": 3883,
      "Ġsecur": 3884,
      "Ġmeas": 3885,
      "Ġhistory": 3886,
      "aving": 3887,
      "icles": 3888,
      "quil": 3889,
      "Ġconven": 3890,
      "ptiembre": 3891,
      "Ġestamos": 3892,
      "Ġfront": 3893,
      "Ġnecess": 3894,
      "uta": 3895,
      "Ġhizo": 3896,
      "ĠEsta": 3897,
      "Ġhy": 3898,
      "cular": 3899,
      "Ġtraining": 3900,
      "Ġwonder": 3901,
      "reet": 3902,
      "Ġfriend": 3903,
      "ĠmÃ©d": 3904,
      "oman": 3905,
      "reci": 3906,
      "ĠSc": 3907,
      "ateg": 3908,
      "Ġquienes": 3909,
      "Ġelimin": 3910,
      "Ġescrib": 3911,
      "Ġadditional": 3912,
      "Ġabsol": 3913,
      "Ġbeautiful": 3914,
      "Ġleng": 3915,
      "Ġstaff": 3916,
      "Ġsom": 3917,
      "Ġfundam": 3918,
      "uge": 3919,
      "Ġhope": 3920,
      "Ġintent": 3921,
      "oso": 3922,
      "Ġfran": 3923,
      "ĠJosÃ©": 3924,
      "Ġbreak": 3925,
      "Ġfilm": 3926,
      "Ġpromo": 3927,
      "ramient": 3928,
      "EO": 3929,
      "Ġresultados": 3930,
      "Ġpotential": 3931,
      "Ġdam": 3932,
      "Ġinvers": 3933,
      "ĠSouth": 3934,
      "Ġareas": 3935,
      "Ġfirm": 3936,
      "iple": 3937,
      "Ġaquell": 3938,
      "ification": 3939,
      "Ġanything": 3940,
      "Ġposition": 3941,
      "Ġcondiciones": 3942,
      "iores": 3943,
      "Ġapproach": 3944,
      "Ġdeg": 3945,
      "unty": 3946,
      "ĠWill": 3947,
      "inks": 3948,
      "Ġasist": 3949,
      "ĠInstit": 3950,
      "'d": 3951,
      "Ġsegundo": 3952,
      "Ġactividad": 3953,
      "lla": 3954,
      "ulta": 3955,
      "Ġpolit": 3956,
      "Ġempez": 3957,
      "uff": 3958,
      "Ġhabl": 3959,
      "Ġagre": 3960,
      "ele": 3961,
      "ĠTambiÃ©n": 3962,
      "Ġapart": 3963,
      "ĠStud": 3964,
      "Ġnecesario": 3965,
      "Ġcompon": 3966,
      "Ġnovi": 3967,
      "inking": 3968,
      "Ġclose": 3969,
      "eza": 3970,
      "Ġideal": 3971,
      "Ġexclus": 3972,
      "usher": 3973,
      "Ġprog": 3974,
      "ison": 3975,
      "Ã³l": 3976,
      "ĠCre": 3977,
      "âĢ¢": 3978,
      "Ġvict": 3979,
      "Ġnoche": 3980,
      "Ġobra": 3981,
      "Ġusuarios": 3982,
      "vid": 3983,
      "ĠDios": 3984,
      "Ġpaper": 3985,
      "Ã¡tico": 3986,
      "uary": 3987,
      "ĠAfter": 3988,
      "Ġlikely": 3989,
      "anks": 3990,
      "Ġpaci": 3991,
      "itect": 3992,
      "bles": 3993,
      "ĠMag": 3994,
      "Ġemerg": 3995,
      "ĠMet": 3996,
      "70": 3997,
      "Ġmodo": 3998,
      "ĠInter": 3999,
      "Ġanunci": 4000,
      "Ġbot": 4001,
      "Ã³s": 4002,
      "Ġ@": 4003,
      "Ġtransform": 4004,
      "net": 4005,
      "Ġderecho": 4006,
      "Ġlink": 4007,
      "Ġsize": 4008,
      "LE": 4009,
      "Ġneeded": 4010,
      "ĠCast": 4011,
      "Ġtre": 4012,
      "ĠHealth": 4013,
      "Ãį": 4014,
      "Ġ2008": 4015,
      "Ġpercent": 4016,
      "Ġinterior": 4017,
      "ĠSuper": 4018,
      "Ġmediante": 4019,
      "lection": 4020,
      "ysis": 4021,
      "ax": 4022,
      "Ġself": 4023,
      "ij": 4024,
      "Ġdep": 4025,
      "Ġdou": 4026,
      "ĠSchool": 4027,
      "Ġinflu": 4028,
      "ĠMu": 4029,
      "Ġmatch": 4030,
      "Ġentire": 4031,
      "IP": 4032,
      "ĠHigh": 4033,
      "Ġnoviembre": 4034,
      "Ã³d": 4035,
      "adu": 4036,
      "Ġach": 4037,
      "Ġhospital": 4038,
      "Ġpred": 4039,
      "mazon": 4040,
      "ĠCr": 4041,
      "ators": 4042,
      "arte": 4043,
      "ĠMarch": 4044,
      "ctober": 4045,
      "ĠGer": 4046,
      "ingo": 4047,
      "ueblo": 4048,
      "Ġbor": 4049,
      "ĠInt": 4050,
      "Ġchoose": 4051,
      "Ġespecially": 4052,
      "Ġseem": 4053,
      "Ġhac": 4054,
      "Ġhttp": 4055,
      "Te": 4056,
      "ging": 4057,
      "Ġyourself": 4058,
      "ĠMod": 4059,
      "ags": 4060,
      "ulation": 4061,
      "Ġsegunda": 4062,
      "Ġprecios": 4063,
      "ĠAN": 4064,
      "ividad": 4065,
      "Ġpregunt": 4066,
      "ili": 4067,
      "Ġtro": 4068,
      "Ġlimp": 4069,
      "Public": 4070,
      "Ġlimit": 4071,
      "Ġlect": 4072,
      "Ġbad": 4073,
      "Ġrecomend": 4074,
      "And": 4075,
      "orial": 4076,
      "ifica": 4077,
      "Ġdeben": 4078,
      "Ġmove": 4079,
      "Ġbrand": 4080,
      "Ġtienes": 4081,
      "Ġvar": 4082,
      "ĠMat": 4083,
      "ĠOff": 4084,
      "ptember": 4085,
      "Ġcantidad": 4086,
      "ĠUniversidad": 4087,
      "alo": 4088,
      "Ġeveryone": 4089,
      "aily": 4090,
      "Ġrespecto": 4091,
      "urg": 4092,
      "ING": 4093,
      "Ġalmost": 4094,
      "Ġproblems": 4095,
      "posed": 4096,
      "Ġsaf": 4097,
      "Ġface": 4098,
      "usto": 4099,
      "selves": 4100,
      "unes": 4101,
      "ĠHome": 4102,
      "Ġliving": 4103,
      "Ġderechos": 4104,
      "Ġoffice": 4105,
      "Ġrelationship": 4106,
      "ĠPlan": 4107,
      "ĠdiseÃ±o": 4108,
      "ativos": 4109,
      "quir": 4110,
      "Ġterm": 4111,
      "eric": 4112,
      "Ġheart": 4113,
      "Lo": 4114,
      "Ġestudio": 4115,
      "Ġpoc": 4116,
      "Ġhalf": 4117,
      "Ġacceso": 4118,
      "ĠalgÃºn": 4119,
      "ĠelectrÃ³n": 4120,
      "Ġ198": 4121,
      "ĠNational": 4122,
      "Ġdiciembre": 4123,
      "Ã©rica": 4124,
      "Ġblack": 4125,
      "Ġland": 4126,
      "Ġissue": 4127,
      "ĠproducciÃ³n": 4128,
      "ĠSim": 4129,
      "Ġsignificant": 4130,
      "Ġconduct": 4131,
      "Ġinit": 4132,
      "rez": 4133,
      "roup": 4134,
      "ĠRead": 4135,
      "Ġadel": 4136,
      "aya": 4137,
      "Ġaz": 4138,
      "imientos": 4139,
      "time": 4140,
      "Ġcrisis": 4141,
      "Ġcommit": 4142,
      "Ġarticle": 4143,
      "Ġbill": 4144,
      "Ġconcre": 4145,
      "Ã¼": 4146,
      "33": 4147,
      "Ġofrece": 4148,
      "Ġways": 4149,
      "ĠartÃŃculo": 4150,
      "Ġsociedad": 4151,
      "Ġvot": 4152,
      ".)": 4153,
      "istic": 4154,
      "ĠMarket": 4155,
      "face": 4156,
      "Ġinterp": 4157,
      "Ġtold": 4158,
      "Res": 4159,
      "Ġplease": 4160,
      "Ġinstit": 4161,
      "usiÃ³n": 4162,
      "Ġlab": 4163,
      "noun": 4164,
      "Ġoctubre": 4165,
      "ensiÃ³n": 4166,
      "Ġreading": 4167,
      "iro": 4168,
      "Ġmand": 4169,
      "ules": 4170,
      "Ġapplication": 4171,
      "ulio": 4172,
      "Ġcerca": 4173,
      "VID": 4174,
      "Ġeffort": 4175,
      "ĠTH": 4176,
      "04": 4177,
      "UL": 4178,
      "ĠNorth": 4179,
      "Ġponer": 4180,
      "Ġprobably": 4181,
      "Ġcuest": 4182,
      "anced": 4183,
      "Ġplata": 4184,
      "itan": 4185,
      "Ġmarzo": 4186,
      "09": 4187,
      "Ġllevar": 4188,
      "uvo": 4189,
      "tract": 4190,
      "Ġinc": 4191,
      "agon": 4192,
      "Ġregard": 4193,
      "Ġdecor": 4194,
      "ION": 4195,
      "ĠtenÃŃa": 4196,
      "Ġusually": 4197,
      "Ġphone": 4198,
      "Ġconse": 4199,
      "03": 4200,
      "Ġtrying": 4201,
      "Ġprovided": 4202,
      "ĠMinister": 4203,
      "ĠProf": 4204,
      "Ġevitar": 4205,
      "Âº": 4206,
      "Ġintel": 4207,
      "ges": 4208,
      "tty": 4209,
      "ria": 4210,
      "Ġalto": 4211,
      "Ġcuanto": 4212,
      "eder": 4213,
      "Ġpick": 4214,
      "ega": 4215,
      "Ġfoot": 4216,
      "Ġincludes": 4217,
      "Ġcomfort": 4218,
      "Ġmayo": 4219,
      "Ġestab": 4220,
      "Ġsales": 4221,
      "Ġfail": 4222,
      "xto": 4223,
      "bern": 4224,
      "Ġpapel": 4225,
      "Ġsatisf": 4226,
      "ĠBlack": 4227,
      "ĠFe": 4228,
      "ĠJune": 4229,
      "Ġfast": 4230,
      "Ġinm": 4231,
      "??": 4232,
      "head": 4233,
      "ourn": 4234,
      "roid": 4235,
      "ĠTor": 4236,
      "Ġherramient": 4237,
      "Ġadapt": 4238,
      "ĠMac": 4239,
      "Ã±ana": 4240,
      "Ġrecommend": 4241,
      "08": 4242,
      "ĠDepart": 4243,
      "Mar": 4244,
      "Ġband": 4245,
      "07": 4246,
      "adamente": 4247,
      "ego": 4248,
      "Ġisn": 4249,
      "Ġcinco": 4250,
      "ĠKe": 4251,
      "uk": 4252,
      "Ġassoci": 4253,
      "ĠSur": 4254,
      "ĠIndia": 4255,
      "rio": 4256,
      "dle": 4257,
      "Ġincrease": 4258,
      "Ġaver": 4259,
      "chas": 4260,
      "Ġknowledge": 4261,
      "Ġpropor": 4262,
      "Ġcorpor": 4263,
      "AB": 4264,
      "mon": 4265,
      "Ġubic": 4266,
      "Ġmodelo": 4267,
      "Ġado": 4268,
      "Ġrate": 4269,
      "Ġsoon": 4270,
      "Ġfield": 4271,
      "Ġvarias": 4272,
      "Ġsust": 4273,
      "Ġtip": 4274,
      "Ġadecu": 4275,
      "antas": 4276,
      "oud": 4277,
      "Ġhaya": 4278,
      "Ġflow": 4279,
      "Ġsecurity": 4280,
      "Ġadded": 4281,
      "06": 4282,
      "Ġdebido": 4283,
      "ision": 4284,
      "Ã¡st": 4285,
      "inter": 4286,
      "Ġlanz": 4287,
      "Ġensure": 4288,
      "ams": 4289,
      "ael": 4290,
      "Ġnut": 4291,
      "visiÃ³n": 4292,
      "ĠAir": 4293,
      "tar": 4294,
      "Ġsystems": 4295,
      "Ġtaken": 4296,
      "ĠConst": 4297,
      "Ġhot": 4298,
      "ĠChar": 4299,
      "Ġarg": 4300,
      "ĠApril": 4301,
      "Ġstra": 4302,
      "ĠÃºltimos": 4303,
      "Ġbox": 4304,
      "Ġlibre": 4305,
      "ĠSocial": 4306,
      "ĠÃ©st": 4307,
      "Ġenfermed": 4308,
      "Ġsubject": 4309,
      "uela": 4310,
      "ĠAustral": 4311,
      "men": 4312,
      "eks": 4313,
      "izada": 4314,
      "ĠDon": 4315,
      "Ġnuestras": 4316,
      "ĠâĢĺ": 4317,
      "Ġrecuper": 4318,
      "Ġ31": 4319,
      "ĠfÃŃs": 4320,
      "Ġhistor": 4321,
      "Ġthird": 4322,
      "Ġpant": 4323,
      "Ġesos": 4324,
      "Ġpoints": 4325,
      "Home": 4326,
      "Ġfac": 4327,
      "Ġcoming": 4328,
      "Ġenfr": 4329,
      "Ġpasar": 4330,
      "Ġdeport": 4331,
      "Ġredes": 4332,
      "Ġdocument": 4333,
      "ĠLat": 4334,
      "uido": 4335,
      "Ġcrear": 4336,
      "iscal": 4337,
      "ĠInform": 4338,
      "Ġcentral": 4339,
      "Ġhacen": 4340,
      "Ġprevious": 4341,
      "Ġpuesto": 4342,
      "Ã¡lisis": 4343,
      "Ġ--": 4344,
      "Ġcommunic": 4345,
      "ux": 4346,
      "Ġjunio": 4347,
      "Ġtarde": 4348,
      "portunity": 4349,
      "Ġful": 4350,
      "Ġmarca": 4351,
      "Ġbastante": 4352,
      "36": 4353,
      "li": 4354,
      "zos": 4355,
      "Ġconcept": 4356,
      "Ġdemand": 4357,
      "Ġult": 4358,
      "ĠinvestigaciÃ³n": 4359,
      "Ġcontinue": 4360,
      "Ġprimero": 4361,
      "my": 4362,
      "Ġvel": 4363,
      "Ġusar": 4364,
      "Ġdesigned": 4365,
      "Ġsubs": 4366,
      "Ġhttps": 4367,
      "Ġage": 4368,
      "Ġimagen": 4369,
      "Ġreconoci": 4370,
      "Ġcustomer": 4371,
      "ĠWindows": 4372,
      "ĠAy": 4373,
      "Ġmatter": 4374,
      "Ġcontract": 4375,
      "atu": 4376,
      "Ġguard": 4377,
      "Ġmachine": 4378,
      "Ġluz": 4379,
      "ondo": 4380,
      "Ġases": 4381,
      "Ġeducation": 4382,
      "Ġrisk": 4383,
      "ĠpÃ¡gina": 4384,
      "rÃ¡n": 4385,
      "Ġprofesional": 4386,
      "ĠCollege": 4387,
      "ĠNav": 4388,
      "ĠHol": 4389,
      "apa": 4390,
      "fÃŃa": 4391,
      "iter": 4392,
      "acciÃ³n": 4393,
      "Ã©is": 4394,
      "ĠProgram": 4395,
      "Ġrather": 4396,
      "Ġtell": 4397,
      "UT": 4398,
      "ĠAL": 4399,
      "Ġunique": 4400,
      "Ġclaro": 4401,
      "Ġprovin": 4402,
      "Ġconcent": 4403,
      "Ġutilizar": 4404,
      "Ġtomar": 4405,
      "Ġdejar": 4406,
      "02": 4407,
      "Ġenero": 4408,
      "Ġtreatment": 4409,
      "Ġaccom": 4410,
      "Ġcolabor": 4411,
      "Ġseptiembre": 4412,
      "Ġloss": 4413,
      "ĠIns": 4414,
      "ĠMus": 4415,
      "Ġfuturo": 4416,
      "Ġroad": 4417,
      "une": 4418,
      "Ġprevent": 4419,
      "Ġhigher": 4420,
      "eccion": 4421,
      "hora": 4422,
      "Ġquiere": 4423,
      "Ġstruct": 4424,
      "Ġcabo": 4425,
      "ĠPost": 4426,
      "Ġrecursos": 4427,
      "ĠNow": 4428,
      "Ġimpres": 4429,
      "Ġdetails": 4430,
      "ocal": 4431,
      "ĠNuev": 4432,
      "Ġaccept": 4433,
      "):": 4434,
      "ĠSw": 4435,
      "ellent": 4436,
      "ĠSanta": 4437,
      "ĠWar": 4438,
      "ĠStates": 4439,
      "ĠJuly": 4440,
      "Ġrole": 4441,
      "Ġfem": 4442,
      "Cl": 4443,
      "ude": 4444,
      "Ġdate": 4445,
      "ishing": 4446,
      "itive": 4447,
      "ĠaplicaciÃ³n": 4448,
      "Ġstore": 4449,
      "Ġsost": 4450,
      "Ġmanten": 4451,
      "celona": 4452,
      "Ġmedios": 4453,
      "ĠCenter": 4454,
      "ĠacompaÃ±": 4455,
      "adoras": 4456,
      "Ġcharacter": 4457,
      "Ġplatform": 4458,
      "Ġmiemb": 4459,
      "Ġcollect": 4460,
      "Esta": 4461,
      "ĠAC": 4462,
      "OD": 4463,
      "top": 4464,
      "Ġactu": 4465,
      "Ġrequest": 4466,
      "Ġaccording": 4467,
      "Ġadult": 4468,
      "ocup": 4469,
      "ardo": 4470,
      "Ġ=": 4471,
      "ÃŃtica": 4472,
      "Ġabril": 4473,
      "Ġwanted": 4474,
      "Ġgratis": 4475,
      "ĠComo": 4476,
      "tera": 4477,
      "ĠTur": 4478,
      "Ġequipment": 4479,
      "ĠmaÃ±ana": 4480,
      "Ġapoyo": 4481,
      "Ġusers": 4482,
      "Ġventa": 4483,
      "Ġpropio": 4484,
      "Ġforward": 4485,
      "Ġincorpor": 4486,
      "andem": 4487,
      "app": 4488,
      "Ġinsurance": 4489,
      "ĠStr": 4490,
      "ĠIg": 4491,
      "Ġrelig": 4492,
      "phy": 4493,
      "ĠQue": 4494,
      "rate": 4495,
      "ĠES": 4496,
      "Sin": 4497,
      "ecen": 4498,
      "Ġbusc": 4499,
      "Ġplayers": 4500,
      "Ġacab": 4501,
      "Ġcomentarios": 4502,
      "ĠCong": 4503,
      "ĠSome": 4504,
      "ĠHis": 4505,
      "Ġchanges": 4506,
      "Ġworth": 4507,
      "Ã©rc": 4508,
      "empt": 4509,
      "Ġstyle": 4510,
      "ends": 4511,
      "Ġmejorar": 4512,
      "ÃŃamos": 4513,
      "onas": 4514,
      "ueba": 4515,
      "ĠFree": 4516,
      "Ġpueda": 4517,
      "ecciones": 4518,
      "ĠFl": 4519,
      "irit": 4520,
      "ĠespaÃ±ol": 4521,
      "CÃ³mo": 4522,
      "Ġinside": 4523,
      "idence": 4524,
      "Ġdating": 4525,
      "ienen": 4526,
      "Ġuser": 4527,
      "Ġaction": 4528,
      "ĠSa": 4529,
      "Ġdescar": 4530,
      "Ġdog": 4531,
      "dez": 4532,
      "genes": 4533,
      "adie": 4534,
      "ĠdifÃŃ": 4535,
      "Ġlearning": 4536,
      "osto": 4537,
      "PS": 4538,
      "Ġvista": 4539,
      "ĠmÃºsica": 4540,
      "Ġofficial": 4541,
      "Ġopportunity": 4542,
      "Ġann": 4543,
      "urr": 4544,
      "ĠSch": 4545,
      "Ġtrue": 4546,
      "rÃ¡s": 4547,
      "Ġtakes": 4548,
      "Ġjulio": 4549,
      "Ġcast": 4550,
      "Ġcreo": 4551,
      "bert": 4552,
      "Ġpretty": 4553,
      "ague": 4554,
      "Ġannoun": 4555,
      "reas": 4556,
      "Ġpueblo": 4557,
      "udo": 4558,
      "ĠDay": 4559,
      "fin": 4560,
      "ĠVen": 4561,
      "ĠArgentina": 4562,
      "ĠPark": 4563,
      "Ġdetall": 4564,
      "ruary": 4565,
      "ĠOnline": 4566,
      "ĠPo": 4567,
      "ĠWas": 4568,
      "ĠMal": 4569,
      "xic": 4570,
      "ference": 4571,
      "ĠUp": 4572,
      "venes": 4573,
      "Ġmedida": 4574,
      "Ġball": 4575,
      "bs": 4576,
      "aby": 4577,
      "Ġfra": 4578,
      "aga": 4579,
      "Ġsle": 4580,
      "Ġje": 4581,
      "Ġmedical": 4582,
      "ÃŃg": 4583,
      "ĠMic": 4584,
      "uerra": 4585,
      "34": 4586,
      "Ġabier": 4587,
      "ĠningÃºn": 4588,
      "Ġseguro": 4589,
      "Ġproduce": 4590,
      "ĠÃºnico": 4591,
      "Ġask": 4592,
      "Ġprincipales": 4593,
      "isc": 4594,
      "chan": 4595,
      "Ġwords": 4596,
      "Â».": 4597,
      "Ġevents": 4598,
      "Ã©ct": 4599,
      "',": 4600,
      "Ġtratamiento": 4601,
      "itaciÃ³n": 4602,
      "Ġsuperior": 4603,
      "ĠJanuary": 4604,
      "ĠHum": 4605,
      "amin": 4606,
      "ianza": 4607,
      "isa": 4608,
      "Ġcreated": 4609,
      "Ã©l": 4610,
      "55": 4611,
      "Ġrob": 4612,
      "Ġmiles": 4613,
      "ĠRod": 4614,
      "Ġaw": 4615,
      "Ġthroughout": 4616,
      "mm": 4617,
      "Ġsell": 4618,
      "Ġpresente": 4619,
      "Ġvig": 4620,
      "Ġjur": 4621,
      "Ġgrowth": 4622,
      "Como": 4623,
      "Ġskin": 4624,
      "Ġrunning": 4625,
      "Ġdicho": 4626,
      "Ġple": 4627,
      "By": 4628,
      "Ġoutside": 4629,
      "cription": 4630,
      "Ġdro": 4631,
      "Ġoptim": 4632,
      "Ãģ": 4633,
      "Ġsigue": 4634,
      "ĠEsto": 4635,
      "ĠDan": 4636,
      "Ġmedidas": 4637,
      "ĠBel": 4638,
      "Ġconseguir": 4639,
      "Ġmotor": 4640,
      "Ġobject": 4641,
      "Ġcamino": 4642,
      "ĠBusiness": 4643,
      "Ġwhite": 4644,
      "Ġpron": 4645,
      "Ġshows": 4646,
      "ÃŃtulo": 4647,
      "Ġtemporada": 4648,
      "Ġgirl": 4649,
      "CH": 4650,
      "ĠÃºltima": 4651,
      "Ġhombres": 4652,
      "Ġdescub": 4653,
      "Ġweeks": 4654,
      "Ġrespuesta": 4655,
      "iforn": 4656,
      "oluciÃ³n": 4657,
      "ĠOctober": 4658,
      "Ġpiel": 4659,
      "Ġprint": 4660,
      "Ġestim": 4661,
      "ertas": 4662,
      "Ġproduction": 4663,
      "ĠNovember": 4664,
      "Ã©f": 4665,
      "Ġpesar": 4666,
      "ulos": 4667,
      "Ġrecogn": 4668,
      "Ġfire": 4669,
      "Ġveg": 4670,
      "ĠFern": 4671,
      "pair": 4672,
      "ĠEv": 4673,
      "orno": 4674,
      "year": 4675,
      "wood": 4676,
      "Ġsenci": 4677,
      "Ġestudi": 4678,
      "Ġasoci": 4679,
      "ciÃ³": 4680,
      "ka": 4681,
      "action": 4682,
      "Ġcapac": 4683,
      "Ġfeature": 4684,
      "Â»,": 4685,
      "Ġencar": 4686,
      "Ġaccid": 4687,
      "39": 4688,
      "encion": 4689,
      "ĠgestiÃ³n": 4690,
      "ĠAsÃŃ": 4691,
      "Ġkids": 4692,
      "Ġoption": 4693,
      "Ġresultado": 4694,
      "uestos": 4695,
      "Ġproyectos": 4696,
      "Ġhaciendo": 4697,
      "Ġminim": 4698,
      "Ġsix": 4699,
      "Ġpalabras": 4700,
      "TE": 4701,
      "Ġvas": 4702,
      "Ġentren": 4703,
      "Ġcierto": 4704,
      "ises": 4705,
      "Ġfa": 4706,
      "coming": 4707,
      "Ġba": 4708,
      "Ġellas": 4709,
      "Ġpros": 4710,
      "Ġobtener": 4711,
      "Ġweight": 4712,
      "Ġconserv": 4713,
      "Ġmantener": 4714,
      "Ġitems": 4715,
      "oid": 4716,
      "Ġhip": 4717,
      "Ġaport": 4718,
      "Ġejerc": 4719,
      "hol": 4720,
      "ĠBook": 4721,
      "ĠCoun": 4722,
      "ĠSeptember": 4723,
      "atory": 4724,
      "Ġtransfer": 4725,
      "Ġgusta": 4726,
      "Ġfecha": 4727,
      "Ġcomment": 4728,
      "quis": 4729,
      "Ġtrabajar": 4730,
      "Ġversion": 4731,
      "Ġessay": 4732,
      "ĠOut": 4733,
      "Ġid": 4734,
      "Ġriesgo": 4735,
      "LA": 4736,
      "Ġedad": 4737,
      "amo": 4738,
      "Ġrecent": 4739,
      "ĠYo": 4740,
      "olo": 4741,
      "Ġeasily": 4742,
      "Ġdip": 4743,
      "Ġvend": 4744,
      "Ġtarget": 4745,
      "Ġton": 4746,
      "ĠAmazon": 4747,
      "Ġcurrently": 4748,
      "Ġlonger": 4749,
      "rito": 4750,
      "mb": 4751,
      "44": 4752,
      "Seg": 4753,
      "Ġmaintain": 4754,
      "ĠGran": 4755,
      "oring": 4756,
      "Ġmobile": 4757,
      "Ġcond": 4758,
      "Ġcouple": 4759,
      "Ġskills": 4760,
      "ĠPolic": 4761,
      "Ġflu": 4762,
      "âĢĿ,": 4763,
      "Ġeffic": 4764,
      "PA": 4765,
      "Ġnothing": 4766,
      "ĠPC": 4767,
      "ĠReview": 4768,
      "eds": 4769,
      "Ġgain": 4770,
      "Ġenvi": 4771,
      "ĠAugust": 4772,
      "Ġocup": 4773,
      "Ġpain": 4774,
      "ĠAle": 4775,
      "ming": 4776,
      "Ġreceive": 4777,
      "ĠLond": 4778,
      "ĠPlay": 4779,
      "Ġestoy": 4780,
      "**": 4781,
      "But": 4782,
      "Ġaire": 4783,
      "Ġcuales": 4784,
      "ny": 4785,
      "ĠSoci": 4786,
      "ĠBest": 4787,
      "Ġprograms": 4788,
      "culo": 4789,
      "Ġready": 4790,
      "IO": 4791,
      "Ġacer": 4792,
      "Ġanyone": 4793,
      "ĠRel": 4794,
      "Ġge": 4795,
      "ĠTwitter": 4796,
      "ĠÃ©x": 4797,
      "ze": 4798,
      "igur": 4799,
      "yer": 4800,
      "Ġcomputer": 4801,
      "Ġamaz": 4802,
      "Ġdio": 4803,
      "Ġseems": 4804,
      "New": 4805,
      "ĠHouse": 4806,
      "Ġnice": 4807,
      "Ġperf": 4808,
      "37": 4809,
      "Ġpreocup": 4810,
      "Ġoficial": 4811,
      "Ġchoice": 4812,
      "Ġcannot": 4813,
      "Ġestre": 4814,
      "Ġcomunidad": 4815,
      "Ã³venes": 4816,
      "Ġterms": 4817,
      "ĠVi": 4818,
      "based": 4819,
      "idores": 4820,
      "Ġequipos": 4821,
      "Ġvariety": 4822,
      "ĠMr": 4823,
      "Ġparty": 4824,
      "ĠCarlos": 4825,
      "imentos": 4826,
      "pose": 4827,
      "Ġlower": 4828,
      "ĠAss": 4829,
      "Ġmix": 4830,
      "Ġentrada": 4831,
      "Ġpropia": 4832,
      "Ġbehind": 4833,
      "38": 4834,
      "Ġespec": 4835,
      "CO": 4836,
      "Ġexcel": 4837,
      "ÃŃfic": 4838,
      "Ġanswer": 4839,
      "brero": 4840,
      "ilos": 4841,
      "Ġdomin": 4842,
      "roso": 4843,
      "Ġinternational": 4844,
      "Ġalcanz": 4845,
      "Ġdocum": 4846,
      "Ġtrip": 4847,
      "Ġingres": 4848,
      "Ġactivities": 4849,
      "ĠGet": 4850,
      "Ġtuvo": 4851,
      "Ġasked": 4852,
      "anguage": 4853,
      "Ġsites": 4854,
      "Ġpractice": 4855,
      "ancias": 4856,
      "ifornia": 4857,
      "ark": 4858,
      "Ġground": 4859,
      "Ġpolicy": 4860,
      "Ġhablar": 4861,
      "ĠLuis": 4862,
      "ĠJap": 4863,
      "Ġnovel": 4864,
      "over": 4865,
      "Ġhappy": 4866,
      "ĠenergÃŃa": 4867,
      "Ġsir": 4868,
      "ĠFrancis": 4869,
      "Ġill": 4870,
      "ĠRE": 4871,
      "Ġdrive": 4872,
      "Ġcomplic": 4873,
      "Ġability": 4874,
      "arter": 4875,
      "Ac": 4876,
      "Ġsuf": 4877,
      "Ġtransport": 4878,
      "Ġcoll": 4879,
      "Ġesf": 4880,
      "Ġupon": 4881,
      "Ġcorr": 4882,
      "rum": 4883,
      "Ġelse": 4884,
      "Ġpatients": 4885,
      "Ġprivate": 4886,
      "Ġwall": 4887,
      "Ġimportantes": 4888,
      "Ġaument": 4889,
      "Ġoportunidad": 4890,
      "ĠSen": 4891,
      "estival": 4892,
      "Ġlegisl": 4893,
      "itional": 4894,
      "Ġexplain": 4895,
      "lock": 4896,
      "Ġacciones": 4897,
      "Ġ2007": 4898,
      "Ġvolver": 4899,
      "Ġprofesionales": 4900,
      "Ġcause": 4901,
      "Ġran": 4902,
      "ĠUK": 4903,
      "Ġlocation": 4904,
      "Ġquickly": 4905,
      "erve": 4906,
      "Ġhit": 4907,
      "Ġexpress": 4908,
      "Ġmoment": 4909,
      "Ġgrande": 4910,
      "ĠopciÃ³n": 4911,
      "Ġcart": 4912,
      "Ġessential": 4913,
      "Ġhar": 4914,
      "Ġcuid": 4915,
      "iernes": 4916,
      "Ġpandem": 4917,
      "itchen": 4918,
      "ĠserÃŃa": 4919,
      "ĠprÃ³ximo": 4920,
      "Ġtypes": 4921,
      "ox": 4922,
      "Ġ80": 4923,
      "ĠpoblaciÃ³n": 4924,
      "100": 4925,
      "ground": 4926,
      "ession": 4927,
      "Ġleave": 4928,
      "ĠTechn": 4929,
      "ĠcomunicaciÃ³n": 4930,
      "Ã©st": 4931,
      "uv": 4932,
      "Ġbeb": 4933,
      "Ġgam": 4934,
      "Ġestrateg": 4935,
      "Ġfebrero": 4936,
      "Ġstandard": 4937,
      "TO": 4938,
      "Ġclients": 4939,
      "Ġprove": 4940,
      "Ġcul": 4941,
      "Ġexpos": 4942,
      "Ġbooks": 4943,
      "Ġmember": 4944,
      "Ġsym": 4945,
      "ĠtecnologÃŃa": 4946,
      "Ġtouch": 4947,
      "Ġsecret": 4948,
      "Ġcapt": 4949,
      "ĠHist": 4950,
      "Ġaprend": 4951,
      "Ġrelated": 4952,
      "pas": 4953,
      "ĠCiudad": 4954,
      "ĠJe": 4955,
      "Ġther": 4956,
      "Ãºblica": 4957,
      "ĠLeg": 4958,
      "IR": 4959,
      "adio": 4960,
      "At": 4961,
      "Ġmanifest": 4962,
      "âĢ¦]": 4963,
      "ĠDavid": 4964,
      "Ġbueno": 4965,
      "Ġapply": 4966,
      "Ġinternacional": 4967,
      "erto": 4968,
      "MP": 4969,
      "BA": 4970,
      "Ġterrit": 4971,
      "Ġcirc": 4972,
      "Ġgold": 4973,
      "ĠSon": 4974,
      "Ġvamos": 4975,
      "Ġduda": 4976,
      "etic": 4977,
      "ĠTod": 4978,
      "Ġconci": 4979,
      "este": 4980,
      "ĠFrom": 4981,
      "Ġestruct": 4982,
      "Ġacept": 4983,
      "Ġamigos": 4984,
      "âĢĿ.": 4985,
      "Ġinj": 4986,
      "Â«": 4987,
      "Ġaffect": 4988,
      "Ġcit": 4989,
      "Ġcompra": 4990,
      "uerto": 4991,
      "light": 4992,
      "ĠDecember": 4993,
      "mientos": 4994,
      "Ġtab": 4995,
      "ĠAnt": 4996,
      "enes": 4997,
      "ĠUr": 4998,
      "ĠHere": 4999,
      "My": 5000,
      "ĠMer": 5001,
      "Ġminist": 5002,
      "ĠAmerica": 5003,
      "Ġelev": 5004,
      "ĠLey": 5005,
      "ĠCounty": 5006,
      "ĠItal": 5007,
      "Ġherman": 5008,
      "Ġlista": 5009,
      "Ġvin": 5010,
      "Ġmicro": 5011,
      "ualmente": 5012,
      "Ġestilo": 5013,
      "Ġnational": 5014,
      "ĠtÃ©r": 5015,
      "75": 5016,
      "Ġcub": 5017,
      "ĠpelÃŃcula": 5018,
      "Ġcontenido": 5019,
      "Ġeuro": 5020,
      "Ġusuario": 5021,
      "ological": 5022,
      "Ġdisposit": 5023,
      "Ġatra": 5024,
      "ficiente": 5025,
      "ĠdemÃ¡s": 5026,
      "Ġimprove": 5027,
      "ĠcompaÃ±ÃŃa": 5028,
      "Ġobst": 5029,
      "Ġayudar": 5030,
      "Ġpeso": 5031,
      "ĠinterÃ©s": 5032,
      "Ġbi": 5033,
      "Ġmass": 5034,
      "Ġreceived": 5035,
      "Ġship": 5036,
      "Ġpic": 5037,
      "uth": 5038,
      "arden": 5039,
      "Ġclar": 5040,
      "Ã©dit": 5041,
      "Ġdado": 5042,
      "ulas": 5043,
      "ĠHotel": 5044,
      "ĠSalud": 5045,
      "avÃŃa": 5046,
      "ĠDist": 5047,
      "Ġbur": 5048,
      "anas": 5049,
      "ĠBarcelona": 5050,
      "Ġnetwork": 5051,
      "Ġconte": 5052,
      "ĠPR": 5053,
      "Ġwide": 5054,
      "Ġsed": 5055,
      "Ġagosto": 5056,
      "ville": 5057,
      "Ġsuppl": 5058,
      "Ġpaint": 5059,
      "49": 5060,
      "dom": 5061,
      "ĠGroup": 5062,
      "Ġremember": 5063,
      "Ġ35": 5064,
      "Ġ90": 5065,
      "Ġimpl": 5066,
      "Ġcases": 5067,
      "Ġcosa": 5068,
      "Ġsect": 5069,
      "Ġpul": 5070,
      "eo": 5071,
      "Ġlooks": 5072,
      "Ġcondu": 5073,
      "ĠOl": 5074,
      "48": 5075,
      "Ġfarm": 5076,
      "rada": 5077,
      "xima": 5078,
      "Ġones": 5079,
      "ĠCentro": 5080,
      "Ġmuestra": 5081,
      "Ġdecision": 5082,
      "uly": 5083,
      "Ġdiag": 5084,
      "Ġhair": 5085,
      "Ġespect": 5086,
      "iate": 5087,
      "Ã©m": 5088,
      "Ġadvert": 5089,
      "esiÃ³n": 5090,
      "Ġcareer": 5091,
      "Ġlocated": 5092,
      "Ġresto": 5093,
      "Ġeffective": 5094,
      "ÃŃstica": 5095,
      "pons": 5096,
      "ians": 5097,
      "Ġtown": 5098,
      "Ġbenefits": 5099,
      "Ġbud": 5100,
      "ĠClub": 5101,
      "Ġnecessary": 5102,
      "Ġsean": 5103,
      "!!!": 5104,
      "gado": 5105,
      "Ġcalle": 5106,
      "Ġcosts": 5107,
      "ĠHay": 5108,
      "hood": 5109,
      "Ġlatest": 5110,
      "IF": 5111,
      "Ġplaying": 5112,
      "Ġposibilidad": 5113,
      "Ġleaders": 5114,
      "Ġdeath": 5115,
      "Ġconfirm": 5116,
      "ĠAP": 5117,
      "bit": 5118,
      "bum": 5119,
      "ournal": 5120,
      "Ġadm": 5121,
      "Ġproporcion": 5122,
      "Pl": 5123,
      "rael": 5124,
      "ĠÃ¡rea": 5125,
      "asta": 5126,
      "esa": 5127,
      "Ġjuegos": 5128,
      "ĠbÃ¡s": 5129,
      "ĠSil": 5130,
      "board": 5131,
      "ubl": 5132,
      "ea": 5133,
      "enses": 5134,
      "Ġfile": 5135,
      "illos": 5136,
      "ĠjÃ³venes": 5137,
      "ĠPed": 5138,
      "sa": 5139,
      "Pre": 5140,
      "Ġtalk": 5141,
      "ultura": 5142,
      "Ġcompos": 5143,
      "ombia": 5144,
      "ĠEnglish": 5145,
      "vin": 5146,
      "ole": 5147,
      "ension": 5148,
      "Ġvisto": 5149,
      "ĠFund": 5150,
      "Ġexcellent": 5151,
      "Ġrealmente": 5152,
      "Ġsubst": 5153,
      "Ġmuerte": 5154,
      "ĠSub": 5155,
      "Ġnecesidad": 5156,
      "ĠformaciÃ³n": 5157,
      "itable": 5158,
      "Ġdetect": 5159,
      "Ġdiscover": 5160,
      "ĠFlor": 5161,
      "Ġrecently": 5162,
      "Ġtour": 5163,
      "mercial": 5164,
      "ĠacciÃ³n": 5165,
      "ĠEuropa": 5166,
      "Ġense": 5167,
      "ivity": 5168,
      "Ġpud": 5169,
      "ĠSci": 5170,
      "atorio": 5171,
      "inding": 5172,
      "Ġalgu": 5173,
      "elo": 5174,
      "ĠTen": 5175,
      "Ġwear": 5176,
      "Ġcuar": 5177,
      "Ġprojects": 5178,
      "curs": 5179,
      "Ġmention": 5180,
      "Ġheld": 5181,
      "ees": 5182,
      "fl": 5183,
      "aca": 5184,
      "Ġib": 5185,
      "Ġcy": 5186,
      "Ġroll": 5187,
      "hold": 5188,
      "Ã³lar": 5189,
      "quina": 5190,
      "ĠInternational": 5191,
      "Ġstudent": 5192,
      "cciones": 5193,
      "ĠSecret": 5194,
      "lace": 5195,
      "Ġliter": 5196,
      "ĠahÃŃ": 5197,
      "bajo": 5198,
      "Ġpurchase": 5199,
      "Ġcode": 5200,
      "Ġfunct": 5201,
      "All": 5202,
      "ĠCuando": 5203,
      "erous": 5204,
      "Ġheav": 5205,
      "TR": 5206,
      "Ġbuscar": 5207,
      "ĠMarÃŃa": 5208,
      "Ġhid": 5209,
      "Ġcomercial": 5210,
      "ĠEcon": 5211,
      "pring": 5212,
      "cking": 5213,
      "urante": 5214,
      "Pero": 5215,
      "Ġcuad": 5216,
      "Ġbuilt": 5217,
      "ded": 5218,
      "gun": 5219,
      "utas": 5220,
      "Ġcollege": 5221,
      "Ġmaterials": 5222,
      "Ġmanos": 5223,
      "Ġmit": 5224,
      "Ġcuent": 5225,
      "Ġcamp": 5226,
      "Ġdisfrutar": 5227,
      "Our": 5228,
      "onio": 5229,
      "With": 5230,
      "Ã©tica": 5231,
      "Ġwrite": 5232,
      "Ġauto": 5233,
      "aging": 5234,
      "Ġcampo": 5235,
      "SO": 5236,
      "Ġconditions": 5237,
      "31": 5238,
      "Ġchalleng": 5239,
      "Ġdeci": 5240,
      "Ġfeed": 5241,
      "bon": 5242,
      "cast": 5243,
      "Ġaliment": 5244,
      "Ġsort": 5245,
      "Ġalguien": 5246,
      "iste": 5247,
      "Ġadopt": 5248,
      "Ġjoven": 5249,
      "Ġsend": 5250,
      "Ġinterpret": 5251,
      "eless": 5252,
      "Ġstock": 5253,
      "Ġleading": 5254,
      ");": 5255,
      "Ġallows": 5256,
      "Ġnadie": 5257,
      "Ġsafe": 5258,
      "Ġcenter": 5259,
      "Ġchance": 5260,
      "ĠDem": 5261,
      "65": 5262,
      "Ġlleva": 5263,
      "ĠTop": 5264,
      "Ġboard": 5265,
      "ĠWhile": 5266,
      ",âĢĿ": 5267,
      "Ġrat": 5268,
      "Ġimpos": 5269,
      "Ġcomien": 5270,
      "Publicado": 5271,
      "Ġtrack": 5272,
      "Ġdie": 5273,
      "ĠInc": 5274,
      "Ġsold": 5275,
      "32": 5276,
      "ĠCrist": 5277,
      "ĠdiseÃ±": 5278,
      "Ġcertainly": 5279,
      "Ġnecesidades": 5280,
      "Ġclick": 5281,
      "Ġsen": 5282,
      "Ġexig": 5283,
      "Ġsolution": 5284,
      "Ġconstit": 5285,
      "Ġdic": 5286,
      "weet": 5287,
      "Ġopciones": 5288,
      "ĠCop": 5289,
      "Ġarran": 5290,
      "ĠCOVID": 5291,
      "omÃŃa": 5292,
      "Ġparts": 5293,
      "Ġconjunto": 5294,
      "off": 5295,
      "Ġsense": 5296,
      "Ġcivil": 5297,
      "ĠmÃ³": 5298,
      "Ġcoordin": 5299,
      "Ġesas": 5300,
      "Ġflex": 5301,
      "Ġobras": 5302,
      "uciones": 5303,
      "Ġcool": 5304,
      "iff": 5305,
      "aller": 5306,
      "ellow": 5307,
      "Ġcargo": 5308,
      "Ġdevice": 5309,
      "paign": 5310,
      "ĠService": 5311,
      "Ġviene": 5312,
      "Ġrequirements": 5313,
      "Ġ70": 5314,
      "Ġlevels": 5315,
      "icional": 5316,
      "Ġaquellos": 5317,
      "Ġlives": 5318,
      "Ġnav": 5319,
      "ĠII": 5320,
      "ificado": 5321,
      "CA": 5322,
      "iller": 5323,
      "ĠCalifornia": 5324,
      "ught": 5325,
      "jes": 5326,
      "47": 5327,
      "Ġlate": 5328,
      "Ġpresid": 5329,
      "key": 5330,
      "Ġnave": 5331,
      "Ġmental": 5332,
      "ĠconstrucciÃ³n": 5333,
      "iction": 5334,
      "etro": 5335,
      "ĠMil": 5336,
      "Ġtools": 5337,
      "Ġelabor": 5338,
      "aco": 5339,
      "ĠdifÃŃcil": 5340,
      "wise": 5341,
      "Ġhijos": 5342,
      "Ġtenido": 5343,
      "Ġpret": 5344,
      "ĠConse": 5345,
      "Pr": 5346,
      "Ġobtain": 5347,
      "ĠFebruary": 5348,
      "Ġviaje": 5349,
      "Ġincluded": 5350,
      "Ġanalysis": 5351,
      "ĠdirecciÃ³n": 5352,
      "eron": 5353,
      "ĠdÃ³lar": 5354,
      "ĠÃ©xito": 5355,
      "Ġprimeros": 5356,
      "Ġfundamental": 5357,
      "Ġdeep": 5358,
      "idor": 5359,
      "uez": 5360,
      "ĠBal": 5361,
      "ett": 5362,
      "irth": 5363,
      "ĠTrump": 5364,
      "ĠProduct": 5365,
      "Ġamazing": 5366,
      "Ġbol": 5367,
      "hy": 5368,
      "ĠBra": 5369,
      "Ġsafety": 5370,
      "Ġsun": 5371,
      "Ġvideos": 5372,
      "ĠeducaciÃ³n": 5373,
      "via": 5374,
      "ĠBen": 5375,
      "Ġwww": 5376,
      "Ġelementos": 5377,
      "Ġfunction": 5378,
      "vey": 5379,
      "Car": 5380,
      "Ġconect": 5381,
      "DA": 5382,
      "ĠBrit": 5383,
      "ĠAdminist": 5384,
      "lin": 5385,
      "Ġprotagon": 5386,
      "Ġtrib": 5387,
      "Ġdemas": 5388,
      "ĠmÃŃ": 5389,
      "uye": 5390,
      "ĠPan": 5391,
      "Ġwood": 5392,
      "http": 5393,
      "Ġextr": 5394,
      "Ġwish": 5395,
      "riday": 5396,
      "Ġimm": 5397,
      "Ã¡ndose": 5398,
      "ĠAnton": 5399,
      "ĠlÃŃder": 5400,
      "ĠCour": 5401,
      "ĠGold": 5402,
      "ĠSystem": 5403,
      "Ġrent": 5404,
      "Ġhighly": 5405,
      "rel": 5406,
      "Ġagu": 5407,
      "Ġtrabajadores": 5408,
      "Ġpresencia": 5409,
      "ander": 5410,
      "Ġattack": 5411,
      "Ġcarrera": 5412,
      "igital": 5413,
      "ĠSE": 5414,
      "Ġimage": 5415,
      "Ġfix": 5416,
      "Ġgratu": 5417,
      "ĠVol": 5418,
      "Ġfrecu": 5419,
      "raft": 5420,
      "Ġcambios": 5421,
      "Ġsummer": 5422,
      "ĠfunciÃ³n": 5423,
      "Ġpier": 5424,
      "Ġantigu": 5425,
      "Ġesfuer": 5426,
      "Ġword": 5427,
      "500": 5428,
      "ieza": 5429,
      "Ġfuerza": 5430,
      "right": 5431,
      "ĠDesign": 5432,
      "46": 5433,
      "Ġcad": 5434,
      "Ġsaw": 5435,
      "ĠCle": 5436,
      "Ġgoal": 5437,
      "ipe": 5438,
      "ĠPresident": 5439,
      "izing": 5440,
      "Ġsched": 5441,
      "Ġcrecimiento": 5442,
      "zz": 5443,
      "Ã¡mara": 5444,
      "ading": 5445,
      "Ġsufr": 5446,
      "Ġproteg": 5447,
      "orage": 5448,
      "Ġworked": 5449,
      "Ġwritten": 5450,
      "Ġcultural": 5451,
      "ugg": 5452,
      "Ġ[âĢ¦]": 5453,
      "Ġsolid": 5454,
      "Ġmucha": 5455,
      "Ġsource": 5456,
      "Ġmeeting": 5457,
      "Ġlibert": 5458,
      "Ġsch": 5459,
      "ĠaÃ±ad": 5460,
      "Ġplans": 5461,
      "ĠServices": 5462,
      "frica": 5463,
      "Ġcontacto": 5464,
      "Ġfotos": 5465,
      "ICI": 5466,
      "iers": 5467,
      "Ġround": 5468,
      "Ġcabeza": 5469,
      "Ġthemselves": 5470,
      "Ġindividuals": 5471,
      "Ġpromot": 5472,
      "uct": 5473,
      "Ġtyp": 5474,
      "Ġitself": 5475,
      "Ġespecialmente": 5476,
      "Ġnegocio": 5477,
      "Ġplazo": 5478,
      "Ġsoy": 5479,
      "Ġfan": 5480,
      "Ġinstead": 5481,
      "Not": 5482,
      "Ġsave": 5483,
      "Ġbusca": 5484,
      "ki": 5485,
      "Ġexpert": 5486,
      "Ġalred": 5487,
      "Ġmultiple": 5488,
      "BC": 5489,
      "ĠArch": 5490,
      "Ġimmedi": 5491,
      "Ġaprove": 5492,
      "Ġreduce": 5493,
      "prend": 5494,
      "Ġsmart": 5495,
      "Ġcountries": 5496,
      "atives": 5497,
      "ÃŃne": 5498,
      "mod": 5499,
      "ns": 5500,
      "Ġgrupos": 5501,
      "Ġapare": 5502,
      "Ã¡genes": 5503,
      "enso": 5504,
      "Rec": 5505,
      "ĠorganizaciÃ³n": 5506,
      "Ġpago": 5507,
      "Ġmadre": 5508,
      "Ġprueba": 5509,
      "Ġqual": 5510,
      "ĠPod": 5511,
      "LO": 5512,
      "Ġgives": 5513,
      "umen": 5514,
      "ought": 5515,
      "edia": 5516,
      "Ġnaci": 5517,
      "Ġspeak": 5518,
      "Ġtemas": 5519,
      "rados": 5520,
      "Ġresources": 5521,
      "Ġexcept": 5522,
      "ideo": 5523,
      "onz": 5524,
      "Ġconsecu": 5525,
      "Ġtama": 5526,
      "Ġsalir": 5527,
      "Ġcrusher": 5528,
      "ĠPrem": 5529,
      "itario": 5530,
      "Ġdescon": 5531,
      "Ġhelps": 5532,
      "ibly": 5533,
      "Ġ500": 5534,
      "pet": 5535,
      "Ġsong": 5536,
      "Ġproviding": 5537,
      "box": 5538,
      "Ġrock": 5539,
      "Ġmorning": 5540,
      "ĠPAR": 5541,
      "ĠanÃ¡lisis": 5542,
      "Ġmayores": 5543,
      "iger": 5544,
      "Ġinstitu": 5545,
      "para": 5546,
      "Ġdistin": 5547,
      "ĠRem": 5548,
      "haps": 5549,
      "ĠCab": 5550,
      "ĠOs": 5551,
      "hington": 5552,
      "ĠKing": 5553,
      "reng": 5554,
      "Ġvisual": 5555,
      "ĠversiÃ³n": 5556,
      "Ġfuerte": 5557,
      "Ġpint": 5558,
      "Ġcash": 5559,
      "78": 5560,
      "Ġhands": 5561,
      "Ġcomments": 5562,
      "Ġexiste": 5563,
      "ĠAssoci": 5564,
      "Be": 5565,
      "ĠFrancisco": 5566,
      "rength": 5567,
      "ĠChile": 5568,
      "Ġmane": 5569,
      "word": 5570,
      "Ġencuentro": 5571,
      "Ġprices": 5572,
      "Ġpath": 5573,
      "Ġappl": 5574,
      "Ġdaily": 5575,
      "ucion": 5576,
      "bers": 5577,
      "ĠMost": 5578,
      "ĠmÃŃn": 5579,
      "Ã©g": 5580,
      "SS": 5581,
      "Ġaverage": 5582,
      "ĠDown": 5583,
      "Ġimportancia": 5584,
      "Ġofrecer": 5585,
      "Ġcondition": 5586,
      "Ġwel": 5587,
      "Ġadvant": 5588,
      "ĠtodavÃŃa": 5589,
      "Im": 5590,
      "Ġvec": 5591,
      "Ġescal": 5592,
      "Ġlost": 5593,
      "door": 5594,
      "Ġambiente": 5595,
      "Ġavoid": 5596,
      "Ġrecibir": 5597,
      "iest": 5598,
      "Ġerror": 5599,
      "ĠÐ": 5600,
      "Ġcell": 5601,
      "Ġconform": 5602,
      "Ġhuge": 5603,
      "ĠPlease": 5604,
      "acen": 5605,
      "ĠCru": 5606,
      "iend": 5607,
      "ĠtelÃ©f": 5608,
      "oral": 5609,
      "Ġreviews": 5610,
      "Ġhog": 5611,
      "Ġgoes": 5612,
      "Ġrecl": 5613,
      "Ġfresh": 5614,
      "iance": 5615,
      "Ġenfrent": 5616,
      "ĠWal": 5617,
      "ĠGl": 5618,
      "ĠTom": 5619,
      "ila": 5620,
      "fa": 5621,
      "Ġcora": 5622,
      "Ġcara": 5623,
      "ĠDEL": 5624,
      "ajas": 5625,
      "Ġsuced": 5626,
      "Ġinvolved": 5627,
      "Ġjorn": 5628,
      "Ġelectric": 5629,
      "Ġdefinitely": 5630,
      "icion": 5631,
      "pm": 5632,
      "teriores": 5633,
      "Ġpuedan": 5634,
      "Ġcliente": 5635,
      "ĠGal": 5636,
      "Ġdemoc": 5637,
      "uno": 5638,
      "oda": 5639,
      "Ġattention": 5640,
      "Ġarte": 5641,
      "ĠtÃ©rmin": 5642,
      "oice": 5643,
      "Ġorient": 5644,
      "ken": 5645,
      "Ġeran": 5646,
      "cÃŃa": 5647,
      "ĠLet": 5648,
      "Ġcompletely": 5649,
      "quÃŃ": 5650,
      "asa": 5651,
      "comes": 5652,
      "han": 5653,
      "ĠPerson": 5654,
      "One": 5655,
      "Ġstrength": 5656,
      "Ġqueda": 5657,
      "____": 5658,
      "Ġdrug": 5659,
      "Ġcambiar": 5660,
      "elas": 5661,
      "Ãºa": 5662,
      "umin": 5663,
      "ĠcaracterÃŃsticas": 5664,
      "ĠAndroid": 5665,
      "Ġmyself": 5666,
      "ampoco": 5667,
      "Ġpasa": 5668,
      "95": 5669,
      "ĠElect": 5670,
      "EST": 5671,
      "Ġreb": 5672,
      "Ġwalk": 5673,
      "Ġsituation": 5674,
      "DF": 5675,
      "Ġdisplay": 5676,
      "amed": 5677,
      "cipl": 5678,
      "ring": 5679,
      "ĠPrim": 5680,
      "ĠparticipaciÃ³n": 5681,
      "Ġslow": 5682,
      "curso": 5683,
      "Ġsiglo": 5684,
      "onia": 5685,
      "ĠSus": 5686,
      "ablemente": 5687,
      "ĠOrgan": 5688,
      "Ġsupply": 5689,
      "ĠserÃ¡n": 5690,
      "Ġprote": 5691,
      "ĠPublic": 5692,
      "Ġfair": 5693,
      "Ġgal": 5694,
      "Ġvest": 5695,
      "illing": 5696,
      "ciendo": 5697,
      "ini": 5698,
      "entemente": 5699,
      "Ġambos": 5700,
      "ĠApple": 5701,
      "ĠrazÃ³n": 5702,
      "ĠpequeÃ±o": 5703,
      "Ġsolutions": 5704,
      "oms": 5705,
      "Ġpuedo": 5706,
      "onos": 5707,
      "Â°": 5708,
      "itado": 5709,
      "ĠRos": 5710,
      "Ġviernes": 5711,
      "ĠelÃ©ct": 5712,
      "anding": 5713,
      "Ãī": 5714,
      "Ġmenor": 5715,
      "ĠPRO": 5716,
      "AG": 5717,
      "Ġdoor": 5718,
      "untain": 5719,
      "Ġocurr": 5720,
      "Ġserious": 5721,
      "ĠRuss": 5722,
      "Ġcount": 5723,
      "ĠMi": 5724,
      "AdemÃ¡s": 5725,
      "izes": 5726,
      "uestra": 5727,
      "Ġmismos": 5728,
      "ĠBre": 5729,
      "agram": 5730,
      "arme": 5731,
      "ĠNO": 5732,
      "ĠediciÃ³n": 5733,
      "ÃŃos": 5734,
      "enty": 5735,
      "body": 5736,
      "Ġdemost": 5737,
      "ceed": 5738,
      "ĠJav": 5739,
      "Ġfavorite": 5740,
      "Ġinsp": 5741,
      "Ġhacerlo": 5742,
      "Ġmundial": 5743,
      "Ġthinking": 5744,
      "Ġleer": 5745,
      "orios": 5746,
      "Ġcurso": 5747,
      "vista": 5748,
      "Af": 5749,
      "Ġtran": 5750,
      "Ġninguna": 5751,
      "Ġejecut": 5752,
      "Ġinteract": 5753,
      "band": 5754,
      "Ġ2006": 5755,
      "Ã¡ndez": 5756,
      "Ġpartes": 5757,
      "Ġformer": 5758,
      "Ġcollection": 5759,
      "ilidad": 5760,
      "Ġencou": 5761,
      "ĠcampaÃ±a": 5762,
      "ĠdecisiÃ³n": 5763,
      "Ġtool": 5764,
      "var": 5765,
      "Ġinmedi": 5766,
      "Ġmetal": 5767,
      "Ġprincipio": 5768,
      "Ġsue": 5769,
      "ashion": 5770,
      "ĠcomÃºn": 5771,
      "'.": 5772,
      "Ġdolor": 5773,
      "Ġcoloc": 5774,
      "Art": 5775,
      "ych": 5776,
      "Ġemoci": 5777,
      "Ġespaci": 5778,
      "Ġparents": 5779,
      "ushing": 5780,
      "Ġspeed": 5781,
      "Ġcorrespond": 5782,
      "Ġcoach": 5783,
      "acin": 5784,
      "Ġtare": 5785,
      "ĠFriday": 5786,
      "cons": 5787,
      "down": 5788,
      "Ġvolunt": 5789,
      "Ġbank": 5790,
      "itaria": 5791,
      "Ġdraw": 5792,
      "Ġtercer": 5793,
      "ĠBer": 5794,
      "Tr": 5795,
      "Ġattempt": 5796,
      "ulaciÃ³n": 5797,
      "Ġblock": 5798,
      "Ġradio": 5799,
      "Ġavanz": 5800,
      "Ġtraditional": 5801,
      "idera": 5802,
      "IB": 5803,
      "ĠColombia": 5804,
      "ĠprotecciÃ³n": 5805,
      "Ġdiab": 5806,
      "ĠAustralia": 5807,
      "Ġingred": 5808,
      "Ġcoron": 5809,
      "Ġinteresting": 5810,
      "Ġseis": 5811,
      "Ġestudios": 5812,
      "ĠCentral": 5813,
      "Ġhijo": 5814,
      "ĠtendrÃ¡": 5815,
      "Ġmur": 5816,
      "Ġsurpr": 5817,
      "ĠallÃŃ": 5818,
      "Ġsn": 5819,
      "Ġdirectly": 5820,
      "ĠenseÃ±": 5821,
      "Ġpositive": 5822,
      "iling": 5823,
      "alidad": 5824,
      "Ġrap": 5825,
      "izados": 5826,
      "ĠÃ©p": 5827,
      "ĠregiÃ³n": 5828,
      "ĠðŁ": 5829,
      "berto": 5830,
      "SE": 5831,
      "Ġtierra": 5832,
      "ĠpÃºblica": 5833,
      "Ġfederal": 5834,
      "idel": 5835,
      "Ġmarc": 5836,
      "Ġblood": 5837,
      "Ġuses": 5838,
      "Ġperspect": 5839,
      "zar": 5840,
      "ueves": 5841,
      "Ġcic": 5842,
      "Ġsiguientes": 5843,
      "oul": 5844,
      "Ġindustrial": 5845,
      "ĠMinisterio": 5846,
      "Ġwrong": 5847,
      "Ġsexual": 5848,
      "cepto": 5849,
      "ĠEr": 5850,
      "Ġconfigur": 5851,
      "Ġorganization": 5852,
      "ĠWed": 5853,
      "udas": 5854,
      "Ġdegree": 5855,
      "Ab": 5856,
      "Ġbaja": 5857,
      "Ġexpected": 5858,
      "att": 5859,
      "dow": 5860,
      "ĠFamil": 5861,
      "rary": 5862,
      "Ġ45": 5863,
      "Ġefecto": 5864,
      "Ġfight": 5865,
      "ĠBlog": 5866,
      "Ġrend": 5867,
      "Ġformas": 5868,
      "Ġlanguage": 5869,
      "Ġjugar": 5870,
      "Ġestudiantes": 5871,
      "Ġdiferencia": 5872,
      "Â·": 5873,
      "Ġcompleto": 5874,
      "Ġtim": 5875,
      "ĠFirst": 5876,
      "ĠimÃ¡genes": 5877,
      "aged": 5878,
      "Ġsection": 5879,
      "Ġenci": 5880,
      "aleza": 5881,
      "ĠEdit": 5882,
      "ĠEvery": 5883,
      "Ġcross": 5884,
      "Ġincid": 5885,
      "Ġrepro": 5886,
      "ament": 5887,
      "ĠelectrÃ³nico": 5888,
      "ĠMig": 5889,
      "Ġtowards": 5890,
      "ĠInvest": 5891,
      "Ġgradu": 5892,
      "Ġexactly": 5893,
      "ml": 5894,
      "Ġscreen": 5895,
      "Ã¡bado": 5896,
      "Ġconcl": 5897,
      "berg": 5898,
      "americ": 5899,
      "Cuando": 5900,
      "anca": 5901,
      "ses": 5902,
      "Ġacced": 5903,
      "ĠJack": 5904,
      "ĠON": 5905,
      "iler": 5906,
      "Ġgets": 5907,
      "Ġdecided": 5908,
      "Ġcorreo": 5909,
      "cidos": 5910,
      "Ġhic": 5911,
      "Â®": 5912,
      "inary": 5913,
      "enario": 5914,
      "Ġcarry": 5915,
      "Ġapplications": 5916,
      "Ġcocina": 5917,
      "ĠThen": 5918,
      "Ġpareja": 5919,
      "Ġespera": 5920,
      "Ġmotiv": 5921,
      "Ãºt": 5922,
      "Ġclase": 5923,
      "change": 5924,
      "Ġaprob": 5925,
      "ĠCos": 5926,
      "Ġconstant": 5927,
      "Ġcomplex": 5928,
      "ops": 5929,
      "Ġpartners": 5930,
      "Ġvivir": 5931,
      "Ġconocimiento": 5932,
      "https": 5933,
      "Ġcontar": 5934,
      "urt": 5935,
      "lier": 5936,
      "Ġaudio": 5937,
      "yond": 5938,
      "Ġincrement": 5939,
      "ĠCompany": 5940,
      "Ġbec": 5941,
      "Ġgroups": 5942,
      "ĠCub": 5943,
      "TER": 5944,
      "inc": 5945,
      "ugu": 5946,
      "Is": 5947,
      "Ġresponse": 5948,
      "Ġplanta": 5949,
      "tery": 5950,
      "Ġplanning": 5951,
      "ĠDepartment": 5952,
      "Ġconsidered": 5953,
      "Ãºsqu": 5954,
      "Ġdim": 5955,
      "xy": 5956,
      "ĠTel": 5957,
      "atoria": 5958,
      "Ġrelease": 5959,
      "ĠsÃ©": 5960,
      "olÃ³gico": 5961,
      "Ġlugares": 5962,
      "Ġmez": 5963,
      "........": 5964,
      "Ġcausa": 5965,
      "ĠÃºnica": 5966,
      "Ġautoridades": 5967,
      "Ġciento": 5968,
      "Ġprogress": 5969,
      "90": 5970,
      "Ġod": 5971,
      "Ġpadres": 5972,
      "Ġaband": 5973,
      "Ġdepos": 5974,
      "Ġcampaign": 5975,
      "ht": 5976,
      "acer": 5977,
      "Ġtenga": 5978,
      "kers": 5979,
      "Ġsemanas": 5980,
      "ĠStreet": 5981,
      "ÃŃd": 5982,
      "etros": 5983,
      "Desde": 5984,
      "avirus": 5985,
      "Ġace": 5986,
      "Ġcup": 5987,
      "Ġfully": 5988,
      "hi": 5989,
      "Ġsistemas": 5990,
      "ĠProt": 5991,
      "ĠdÃ³lares": 5992,
      "Ġnor": 5993,
      "tica": 5994,
      "Ġpil": 5995,
      "Ġmencion": 5996,
      "Ġencuentran": 5997,
      "Ġrenov": 5998,
      "Ġmonitor": 5999,
      "Ġdeveloped": 6000,
      "Ġinvestment": 6001,
      "Ġshall": 6002,
      "rosoft": 6003,
      "ĠNoticias": 6004,
      "more": 6005,
      "enge": 6006,
      "Ġstress": 6007,
      "Ġpiece": 6008,
      "ĠLaw": 6009,
      "Ġalimentos": 6010,
      "Ġbusinesses": 6011,
      "Ġsabe": 6012,
      "Ġsleep": 6013,
      "Ġevento": 6014,
      "ĠFil": 6015,
      "oll": 6016,
      "pan": 6017,
      "Ġphysical": 6018,
      "iable": 6019,
      "Ġvs": 6020,
      "Ġmiembros": 6021,
      "Ġbath": 6022,
      "van": 6023,
      "ĠRam": 6024,
      "Ġajust": 6025,
      "Ġgiving": 6026,
      "Ġinterested": 6027,
      "Ġmart": 6028,
      "Ġefectos": 6029,
      "olution": 6030,
      "ĠLondon": 6031,
      "Ġanti": 6032,
      "Ġrid": 6033,
      "onst": 6034,
      "ĠCat": 6035,
      "Ġpadre": 6036,
      "bro": 6037,
      "set": 6038,
      "ocol": 6039,
      "ĠpodrÃ¡": 6040,
      "lesia": 6041,
      "Ġcombin": 6042,
      "Ġhall": 6043,
      "Ġsam": 6044,
      "Ġeta": 6045,
      "Ġdescu": 6046,
      "coin": 6047,
      "Ġstates": 6048,
      "ezuela": 6049,
      "akes": 6050,
      "olar": 6051,
      "Ġdry": 6052,
      "Ġstarting": 6053,
      "Ġplayer": 6054,
      "Ġnecesita": 6055,
      "Ġcultura": 6056,
      "Ġeffects": 6057,
      "fit": 6058,
      "Ġsignifica": 6059,
      "ĠSund": 6060,
      "Ġrevis": 6061,
      "ĠCD": 6062,
      "Ġentrega": 6063,
      "Ġjugadores": 6064,
      "lÃ©s": 6065,
      "Ġalrededor": 6066,
      "Ġgast": 6067,
      "ĠTex": 6068,
      "ĠSam": 6069,
      "Ġsuccessful": 6070,
      "ĠGerman": 6071,
      "Ġabsolut": 6072,
      "Ġfine": 6073,
      "ĠMach": 6074,
      "rought": 6075,
      "Co": 6076,
      "Ġtipos": 6077,
      "Ġedific": 6078,
      "itary": 6079,
      "culos": 6080,
      "Ġplus": 6081,
      "Ġgreen": 6082,
      "ĠHel": 6083,
      "ĠWashington": 6084,
      "Ã¡ticos": 6085,
      "Ġbroad": 6086,
      "edores": 6087,
      "portunities": 6088,
      "ruit": 6089,
      "ously": 6090,
      "Ġdan": 6091,
      "Ġguide": 6092,
      "Ġbrind": 6093,
      "Ġfelt": 6094,
      "Ġmetros": 6095,
      "CE": 6096,
      "ĠAntonio": 6097,
      "Ġspend": 6098,
      "ĠEqu": 6099,
      "Ġfrequ": 6100,
      "Ġbott": 6101,
      "istics": 6102,
      "Ġplaces": 6103,
      "Ġhous": 6104,
      "Ġfloor": 6105,
      "Ġ%": 6106,
      "used": 6107,
      "Ġraz": 6108,
      "Ġsometimes": 6109,
      "Ġlimited": 6110,
      "DE": 6111,
      "ĠMov": 6112,
      "ĠDirector": 6113,
      "Ġpelig": 6114,
      "ĠSatur": 6115,
      "Ġwasn": 6116,
      "88": 6117,
      "Ġdoctor": 6118,
      "Do": 6119,
      "usion": 6120,
      "aza": 6121,
      "Ġenorm": 6122,
      "Ġassess": 6123,
      "Ġphotogra": 6124,
      "Ġconsumo": 6125,
      "ĠRodr": 6126,
      "ĠEar": 6127,
      "Ġbasic": 6128,
      "ĠGreen": 6129,
      "ĠMex": 6130,
      "Ġrevel": 6131,
      "Ġlograr": 6132,
      "vas": 6133,
      "Ġindustria": 6134,
      "zy": 6135,
      "Ġmovimiento": 6136,
      "ĠIsrael": 6137,
      "Ġrecorr": 6138,
      "Ġlibros": 6139,
      "Ġbegan": 6140,
      "Ġata": 6141,
      "Ġmomentos": 6142,
      "Ġbeneficios": 6143,
      "Ġbecame": 6144,
      "arnos": 6145,
      "ĠPued": 6146,
      "ĠForm": 6147,
      "Ġkm": 6148,
      "Or": 6149,
      "Ġinfl": 6150,
      "ĠRet": 6151,
      "Ġguest": 6152,
      "Ġprovoc": 6153,
      "hes": 6154,
      "Ġrates": 6155,
      "56": 6156,
      "Ġpressure": 6157,
      "field": 6158,
      "like": 6159,
      "ronic": 6160,
      "ĠResearch": 6161,
      "Ġactivity": 6162,
      "Ã¡lo": 6163,
      "Ãºtbol": 6164,
      "Ġemployees": 6165,
      "DO": 6166,
      "Ġpose": 6167,
      "ĠChristmas": 6168,
      "Ġreported": 6169,
      "ĠMunicip": 6170,
      "ĠVir": 6171,
      "Ġpolitical": 6172,
      "MS": 6173,
      "Ġretr": 6174,
      "Ġast": 6175,
      "ĠBol": 6176,
      "Ġpantalla": 6177,
      "ĠOF": 6178,
      "Ġnature": 6179,
      "ecutive": 6180,
      "Ġspot": 6181,
      "rant": 6182,
      "ocidad": 6183,
      "icar": 6184,
      "77": 6185,
      "ints": 6186,
      "Ġphotos": 6187,
      "cripciÃ³n": 6188,
      "Ġled": 6189,
      "untamiento": 6190,
      "ĠGood": 6191,
      "Ġquieres": 6192,
      "estar": 6193,
      "Ġdomingo": 6194,
      "Ġmec": 6195,
      "Ġprocesos": 6196,
      "Ġdescubr": 6197,
      "Ġcry": 6198,
      "Ġvoy": 6199,
      "Ġpages": 6200,
      "Ġenh": 6201,
      "ĠAud": 6202,
      "pert": 6203,
      "Ġayer": 6204,
      "orks": 6205,
      "ĠOver": 6206,
      "Ġclave": 6207,
      "Ġmateriales": 6208,
      "ĠBas": 6209,
      "Ġmagn": 6210,
      "Ġclient": 6211,
      "ĠMuse": 6212,
      "Ġlunes": 6213,
      "Ġrights": 6214,
      "Ġconstruction": 6215,
      "aling": 6216,
      "Ġcomplement": 6217,
      "place": 6218,
      "ĠGrand": 6219,
      "Ġcient": 6220,
      "Ġattract": 6221,
      "Ġeconomic": 6222,
      "Ġpicture": 6223,
      "amentos": 6224,
      "Ġhealthy": 6225,
      "where": 6226,
      "Ġsyn": 6227,
      "ĠÂ£": 6228,
      "Ġvirus": 6229,
      "Ġhour": 6230,
      "Ġfans": 6231,
      "ĠAR": 6232,
      "iados": 6233,
      "ĠPower": 6234,
      "ajo": 6235,
      "Act": 6236,
      "Ġunderstanding": 6237,
      "Ġvehicle": 6238,
      "nas": 6239,
      "Ġbols": 6240,
      "Ġveget": 6241,
      "PR": 6242,
      "Ġpresenta": 6243,
      "Ġadquir": 6244,
      "ĠInf": 6245,
      "ĠÃ³": 6246,
      "esis": 6247,
      "Ġloan": 6248,
      "ĠAlso": 6249,
      "Ġojos": 6250,
      "ĠSel": 6251,
      "ĠdÃ©": 6252,
      "olina": 6253,
      "2019": 6254,
      "ĠâĤ¬": 6255,
      "ffee": 6256,
      "ĠallÃ¡": 6257,
      "orÃŃas": 6258,
      "Ġpensar": 6259,
      "Ġcourt": 6260,
      "Ġeurope": 6261,
      "ils": 6262,
      "mp": 6263,
      "imen": 6264,
      "Ġdifference": 6265,
      "Ġinspir": 6266,
      "Ġexhib": 6267,
      "mine": 6268,
      "Ġganar": 6269,
      "UC": 6270,
      "59": 6271,
      "onday": 6272,
      "Ġstrategy": 6273,
      "Ġrespond": 6274,
      "Ġtrade": 6275,
      "Ġsqu": 6276,
      "Ġkitchen": 6277,
      "Ġpresup": 6278,
      "Ġgrowing": 6279,
      "Ġcreating": 6280,
      "Ġic": 6281,
      "Ġstuff": 6282,
      "ĠTHE": 6283,
      "Ġperder": 6284,
      "Ġclic": 6285,
      "Ġbenefit": 6286,
      "ĠPhil": 6287,
      "2020": 6288,
      "Ġwoman": 6289,
      "Ġclas": 6290,
      "Ġhappen": 6291,
      "rab": 6292,
      "ĠInternacional": 6293,
      "Ġbudget": 6294,
      "lim": 6295,
      "ĠtamaÃ±o": 6296,
      "Ġprovincia": 6297,
      "Ġsmo": 6298,
      "Ġquiero": 6299,
      "Ġemot": 6300,
      "ablo": 6301,
      "ÃŃfico": 6302,
      "Ġdead": 6303,
      "Ġintelig": 6304,
      "Ġboy": 6305,
      "ĠDÃŃa": 6306,
      "iber": 6307,
      "Ġhumanos": 6308,
      "ĠmÃ¡ximo": 6309,
      "Ġincluye": 6310,
      "ĠEast": 6311,
      "Ġmother": 6312,
      "Ġmessage": 6313,
      "itur": 6314,
      "ĠPaul": 6315,
      "Ã©rcoles": 6316,
      "Ġho": 6317,
      "Ġfat": 6318,
      "Ġpublished": 6319,
      "Ġacadem": 6320,
      "Ġorigin": 6321,
      "Ġkil": 6322,
      "Phone": 6323,
      "ieved": 6324,
      "Ġneigh": 6325,
      "Ġsaying": 6326,
      "ĠDesde": 6327,
      "ĠbÃºsqu": 6328,
      "Ġgave": 6329,
      "58": 6330,
      "Ġcommercial": 6331,
      "Ġpaid": 6332,
      "Ġcot": 6333,
      "SA": 6334,
      "42": 6335,
      "ecause": 6336,
      "orado": 6337,
      "66": 6338,
      "Ġprogramas": 6339,
      "Ġmanufactur": 6340,
      "Ġllega": 6341,
      "ĠcorazÃ³n": 6342,
      "Ġbehav": 6343,
      "ionally": 6344,
      "ĠManagement": 6345,
      "Ġvirtual": 6346,
      "itales": 6347,
      "Ġplayed": 6348,
      "allas": 6349,
      "Ġpersonales": 6350,
      "ĠWhite": 6351,
      "Ġtrust": 6352,
      "Ġlig": 6353,
      "Ġpull": 6354,
      "Ġtrading": 6355,
      "Ġzonas": 6356,
      "rica": 6357,
      "wide": 6358,
      "ĠLin": 6359,
      "tee": 6360,
      "ĠAv": 6361,
      "Ġtried": 6362,
      "Ġcharge": 6363,
      "Ġepis": 6364,
      "ĠVis": 6365,
      "Ġdevices": 6366,
      "ĠCanada": 6367,
      "Ġschools": 6368,
      "cale": 6369,
      "Inicio": 6370,
      "Ġguar": 6371,
      "Ġrepair": 6372,
      "Ġfiscal": 6373,
      "Ġintens": 6374,
      "âĤ¬": 6375,
      "ĠeconomÃŃa": 6376,
      "ĠpequeÃ±os": 6377,
      "Ġenfermedad": 6378,
      "Ġsomos": 6379,
      "rupt": 6380,
      "cont": 6381,
      "ĠSk": 6382,
      "43": 6383,
      "Ġbalance": 6384,
      "ĠMot": 6385,
      "house": 6386,
      "Ġaim": 6387,
      "Ġexperiment": 6388,
      "Ġrod": 6389,
      "care": 6390,
      "ĠWilliam": 6391,
      "ieran": 6392,
      "Ġseleccion": 6393,
      "Ne": 6394,
      "ĠWord": 6395,
      "Ġtick": 6396,
      "Ġmoving": 6397,
      "Ġq": 6398,
      "uebl": 6399,
      "Ġeyes": 6400,
      "riz": 6401,
      "Ġoverall": 6402,
      "Ġgrab": 6403,
      "Ġdistintos": 6404,
      "Ġmateria": 6405,
      "Ġdestin": 6406,
      "Ġpien": 6407,
      "Ġmaybe": 6408,
      "ĠsoluciÃ³n": 6409,
      "Ġcatal": 6410,
      "Ġoro": 6411,
      "Ġhop": 6412,
      "Ġmort": 6413,
      "Ġguerra": 6414,
      "Ġacerca": 6415,
      "Ġimages": 6416,
      "Ġheard": 6417,
      "Ġexterior": 6418,
      "Ġpurpose": 6419,
      "Ġdream": 6420,
      "Ã©tico": 6421,
      "57": 6422,
      "Ġinitial": 6423,
      "Ġextern": 6424,
      "Ġdecre": 6425,
      "Ġverano": 6426,
      "Ġreve": 6427,
      "Ġmig": 6428,
      "Ġign": 6429,
      "venue": 6430,
      "df": 6431,
      "Ġ300": 6432,
      "Ġappropr": 6433,
      "Ġinfo": 6434,
      "ioso": 6435,
      "Ġinterview": 6436,
      "ĠJapan": 6437,
      "Ġcompartir": 6438,
      "lax": 6439,
      "2018": 6440,
      "After": 6441,
      "ĠDigital": 6442,
      "Ġwait": 6443,
      "Ġsand": 6444,
      "ĠniÃ±o": 6445,
      "Ġmezcl": 6446,
      "Ġmap": 6447,
      "ĠgÃ©n": 6448,
      "Ġdesap": 6449,
      "ÃŃdo": 6450,
      "Ġpartidos": 6451,
      "ĠAlex": 6452,
      "Ġclim": 6453,
      "Ġfamilias": 6454,
      "Ġwarm": 6455,
      "Ġopportunities": 6456,
      "encies": 6457,
      "ears": 6458,
      "Ã³digo": 6459,
      "ĠIT": 6460,
      "here": 6461,
      "UM": 6462,
      "Ġmodelos": 6463,
      "Ġpi": 6464,
      "antil": 6465,
      "Ġlibertad": 6466,
      "pre": 6467,
      "ĠRob": 6468,
      "Ġalcal": 6469,
      "ette": 6470,
      "Ġfant": 6471,
      "Ġmovie": 6472,
      "Ġcomida": 6473,
      "Ġgobern": 6474,
      "Ġafirm": 6475,
      "otes": 6476,
      "Per": 6477,
      "Ġsupuesto": 6478,
      "Ġfondo": 6479,
      "Ġcolores": 6480,
      "iring": 6481,
      "ÂŃ": 6482,
      "tico": 6483,
      "Ġpacientes": 6484,
      "Ġchem": 6485,
      "Ġcm": 6486,
      "ĠClass": 6487,
      "Ġniveles": 6488,
      "Ġregion": 6489,
      "Ġlad": 6490,
      "Ġfactor": 6491,
      "rote": 6492,
      "Ġtips": 6493,
      "Ġheat": 6494,
      "ĠinversiÃ³n": 6495,
      "ĠEven": 6496,
      "Ġoffered": 6497,
      "Ġjobs": 6498,
      "Ġimpress": 6499,
      "Ġfeeling": 6500,
      "Ġrot": 6501,
      "Ġwonderful": 6502,
      "Ġpin": 6503,
      "eck": 6504,
      "Ġtransm": 6505,
      "odes": 6506,
      "Ã³nde": 6507,
      "ĠvÃŃct": 6508,
      "ÃŃnt": 6509,
      "iner": 6510,
      "vement": 6511,
      "ĠGonz": 6512,
      "Ġdeja": 6513,
      "ĠDeb": 6514,
      "imismo": 6515,
      "Ġinicio": 6516,
      "Ġspecif": 6517,
      "ĠeconÃ³mica": 6518,
      "Ġherramientas": 6519,
      "iques": 6520,
      "lez": 6521,
      "ĠcrÃ©dit": 6522,
      "ACIÃĵN": 6523,
      "ĠvÃŃde": 6524,
      "rimonio": 6525,
      "Ġtarjet": 6526,
      "ĠMel": 6527,
      "Ġelegir": 6528,
      "itation": 6529,
      "Ġsalida": 6530,
      "Ġterror": 6531,
      "uebas": 6532,
      "Ġrout": 6533,
      "Ġvelocidad": 6534,
      "Ġpagar": 6535,
      "todo": 6536,
      "Bu": 6537,
      "oliday": 6538,
      "Ġ2005": 6539,
      "Ġdirectamente": 6540,
      "bra": 6541,
      "Ġextremely": 6542,
      "apy": 6543,
      "Ġorigen": 6544,
      "Ġahor": 6545,
      "Ġstraight": 6546,
      "Ġimpuls": 6547,
      "Ġstream": 6548,
      "Ġinterv": 6549,
      "ĠGarcÃŃa": 6550,
      "Ġassociated": 6551,
      "Ġnote": 6552,
      "cohol": 6553,
      "Ġregister": 6554,
      "Jo": 6555,
      "Ã©rd": 6556,
      "Ġpanel": 6557,
      "Ġowners": 6558,
      "ĠRom": 6559,
      "Ġmel": 6560,
      "ĠTal": 6561,
      "Ġlocales": 6562,
      "ĠEntre": 6563,
      "Ġiz": 6564,
      "Ġdemasiado": 6565,
      "iago": 6566,
      "Ġang": 6567,
      "ĠprÃ¡ctica": 6568,
      "Ġviolencia": 6569,
      "ĠSing": 6570,
      "Ġplataforma": 6571,
      "igue": 6572,
      "Ġbomb": 6573,
      "Ġcopy": 6574,
      "Ġcalcul": 6575,
      "Ġ2000": 6576,
      "Ġstar": 6577,
      "enciales": 6578,
      "Ġcine": 6579,
      "Ġnorte": 6580,
      "dy": 6581,
      "Ġnaturaleza": 6582,
      "aso": 6583,
      "Ã³pez": 6584,
      "41": 6585,
      "Ġrelaciones": 6586,
      "Ġhund": 6587,
      "eme": 6588,
      "Ġglass": 6589,
      "Ġtotalmente": 6590,
      "QU": 6591,
      "Ġtrasl": 6592,
      "oker": 6593,
      "Ġlots": 6594,
      "Ġcere": 6595,
      "eso": 6596,
      "Ġfurn": 6597,
      "Ġstage": 6598,
      "ĠMont": 6599,
      "ĠUSA": 6600,
      "ĠApp": 6601,
      "ĠestÃ©": 6602,
      "Ġmensaje": 6603,
      "Ġmarco": 6604,
      "NA": 6605,
      "Ġacus": 6606,
      "Ġtuv": 6607,
      "TambiÃ©n": 6608,
      "That": 6609,
      "ĠCB": 6610,
      "Ġcooper": 6611,
      "Ġhumano": 6612,
      "airs": 6613,
      "Ġgoals": 6614,
      "Ġdetalles": 6615,
      "Ġpresident": 6616,
      "ĠllegÃ³": 6617,
      "ĠBay": 6618,
      "arily": 6619,
      "Ġcrist": 6620,
      "ĠHa": 6621,
      "Ġexisten": 6622,
      "Ġdisponible": 6623,
      "Ġterc": 6624,
      "Ġsuperfic": 6625,
      "atively": 6626,
      "Ġtiempos": 6627,
      "ĠpolÃŃticas": 6628,
      "Ġdecide": 6629,
      "rated": 6630,
      "remos": 6631,
      "Ġvisita": 6632,
      "Ġoffering": 6633,
      "Ġalmacen": 6634,
      "ĠDevelop": 6635,
      "?\"": 6636,
      "olÃ³gica": 6637,
      "ĠCommunity": 6638,
      "Ġprensa": 6639,
      "Ġmaxim": 6640,
      "ĠNeg": 6641,
      "Ġdamage": 6642,
      "ĠHospital": 6643,
      "ĠStar": 6644,
      "ĠAmÃ©rica": 6645,
      "vision": 6646,
      "ĠcreaciÃ³n": 6647,
      "ĠpequeÃ±a": 6648,
      "Ġstorage": 6649,
      "idamente": 6650,
      "iced": 6651,
      "Ġclin": 6652,
      "ĠTrib": 6653,
      "ĠRich": 6654,
      "Ġaplicaciones": 6655,
      "ĠcontinuaciÃ³n": 6656,
      "bling": 6657,
      "Ġshown": 6658,
      "ĠVenezuela": 6659,
      "Ġtampoco": 6660,
      "Ġagr": 6661,
      "Ġadvice": 6662,
      "ĠEj": 6663,
      "Ġbeginning": 6664,
      "Ġreplac": 6665,
      "ĠSunday": 6666,
      "Ġpattern": 6667,
      "mark": 6668,
      "eph": 6669,
      "2021": 6670,
      "Ġment": 6671,
      "Ġviews": 6672,
      "ĠDom": 6673,
      "olic": 6674,
      "ĠHall": 6675,
      "Ġinfect": 6676,
      "Ġsports": 6677,
      "Man": 6678,
      "Ã³nica": 6679,
      "ĠhabÃŃan": 6680,
      "pat": 6681,
      "Ġ)": 6682,
      "Ġparticularly": 6683,
      "ĠDere": 6684,
      "itions": 6685,
      "Ġmarcha": 6686,
      "Ġculture": 6687,
      "ogrÃ¡": 6688,
      "ĠsÃ¡bado": 6689,
      "Ġmethods": 6690,
      "Ġafford": 6691,
      "Ġvul": 6692,
      "onda": 6693,
      "Ġactive": 6694,
      "ĠartÃŃculos": 6695,
      "Ġvoc": 6696,
      "Ġaumento": 6697,
      "Ġpolice": 6698,
      "Ġreleased": 6699,
      "Ġagrad": 6700,
      "Ġloved": 6701,
      "Ġsav": 6702,
      "Ġrecuer": 6703,
      "Ġnaveg": 6704,
      "Ġtap": 6705,
      "Ġeasier": 6706,
      "Ġ32": 6707,
      "iture": 6708,
      "urity": 6709,
      "antos": 6710,
      "bu": 6711,
      "ĠPop": 6712,
      "Ġappreci": 6713,
      "Cre": 6714,
      "Ġsurface": 6715,
      "Ġregarding": 6716,
      "ĠGreat": 6717,
      "Ġincreasing": 6718,
      "ĠSaturday": 6719,
      "ĠJames": 6720,
      "iat": 6721,
      "Ġtienda": 6722,
      "ĠMundial": 6723,
      "Ġbrought": 6724,
      "Ġofic": 6725,
      "ĠopiniÃ³n": 6726,
      "Ġutiliza": 6727,
      "Ġmexic": 6728,
      "unn": 6729,
      "2017": 6730,
      "ĠAtl": 6731,
      "ye": 6732,
      "ho": 6733,
      "ĠCa": 6734,
      "ĠposiciÃ³n": 6735,
      "Ġconfir": 6736,
      "ĠAD": 6737,
      "ĠMedia": 6738,
      "ews": 6739,
      "Ġplante": 6740,
      "ĠDef": 6741,
      "Ġprofund": 6742,
      "Ġtransporte": 6743,
      "Ġeat": 6744,
      "ĠAnal": 6745,
      "Ġwed": 6746,
      "Ġadministrat": 6747,
      "Ġunit": 6748,
      "ĠMiguel": 6749,
      "Ġtruly": 6750,
      "Read": 6751,
      "Ġadelante": 6752,
      "Ġanaly": 6753,
      "Ġdouble": 6754,
      "ollow": 6755,
      "ĠFer": 6756,
      "Ġpied": 6757,
      "Ġentender": 6758,
      "cida": 6759,
      "reno": 6760,
      "ĠMur": 6761,
      "Ġdark": 6762,
      "Ġprimary": 6763,
      "Ġaprender": 6764,
      "Ġdisease": 6765,
      "ĠBig": 6766,
      "Ġfinish": 6767,
      "Ġcole": 6768,
      "ĠBur": 6769,
      "Ġejercicio": 6770,
      "otas": 6771,
      "ĠFre": 6772,
      "ĠMÃ¡s": 6773,
      "Ġteams": 6774,
      "emat": 6775,
      "Que": 6776,
      "Ġpid": 6777,
      "ĠAmb": 6778,
      "Ġmilitar": 6779,
      "Ġorg": 6780,
      "MA": 6781,
      "Ġec": 6782,
      "âĢĭ": 6783,
      "ĠHy": 6784,
      "iant": 6785,
      "ismos": 6786,
      "ĠtelÃ©fono": 6787,
      "unal": 6788,
      "Ġdiferente": 6789,
      "ĠCamp": 6790,
      "ĠVill": 6791,
      "reh": 6792,
      "ianos": 6793,
      "ĠLife": 6794,
      "Ġquiz": 6795,
      "ĠtÃŃtulo": 6796,
      "azar": 6797,
      "Ġincreased": 6798,
      "ĠMid": 6799,
      "ĠAz": 6800,
      "Ġdivid": 6801,
      "Ġ09": 6802,
      "ĠÃ©poca": 6803,
      "Ġbirth": 6804,
      "Ġload": 6805,
      "llas": 6806,
      "nd": 6807,
      "gg": 6808,
      "%.": 6809,
      "Ġeye": 6810,
      "PE": 6811,
      "Ġpayment": 6812,
      "Ã³sito": 6813,
      "rÃ©s": 6814,
      "Ġllamado": 6815,
      "Ġstories": 6816,
      "Ġbaby": 6817,
      "Ġsexo": 6818,
      "Ġvalores": 6819,
      "ĠCare": 6820,
      "ĠTexas": 6821,
      "ĠFederal": 6822,
      "Ġalthough": 6823,
      "Ġizquier": 6824,
      "Ġcolect": 6825,
      "Ġfamilies": 6826,
      "Ġtexto": 6827,
      "Ġanimal": 6828,
      "ĠEE": 6829,
      "SegÃºn": 6830,
      "inder": 6831,
      "Ġbasis": 6832,
      "ruction": 6833,
      "Ġvib": 6834,
      "Ġcards": 6835,
      "ĠLÃ³pez": 6836,
      "ĠYa": 6837,
      "oj": 6838,
      "ĠpodrÃ¡s": 6839,
      "Ġnumbers": 6840,
      "Ġdific": 6841,
      "Ġfotogra": 6842,
      "Ġstructure": 6843,
      "Ġmoder": 6844,
      "Ġresponsabilidad": 6845,
      "ĠMonday": 6846,
      "rome": 6847,
      "Ġscience": 6848,
      "Ġvit": 6849,
      "Ġtritur": 6850,
      "Ġmeaning": 6851,
      "Ġconsci": 6852,
      "Ġadjust": 6853,
      "Ġdistintas": 6854,
      "ĠIP": 6855,
      "ework": 6856,
      "Ġcomfortable": 6857,
      "ucle": 6858,
      "ultural": 6859,
      "ĠJesÃºs": 6860,
      "lying": 6861,
      "ĠeconÃ³mico": 6862,
      "Ġlav": 6863,
      "ption": 6864,
      "ĠOffice": 6865,
      "Ð¾": 6866,
      "Ġthous": 6867,
      "Ġinforme": 6868,
      "Hay": 6869,
      "Yo": 6870,
      "ĠEnerg": 6871,
      "Ġblanco": 6872,
      "OC": 6873,
      "ACION": 6874,
      "TS": 6875,
      "ciales": 6876,
      "ef": 6877,
      "ĠNueva": 6878,
      "Ġpruebas": 6879,
      "ĠestÃ¡s": 6880,
      "pero": 6881,
      "ĠpolÃŃtico": 6882,
      "Ġjornada": 6883,
      "Ġefic": 6884,
      "ĠHab": 6885,
      "apter": 6886,
      "rage": 6887,
      "Ġchat": 6888,
      "Ġspent": 6889,
      "Ġturned": 6890,
      "ĠManuel": 6891,
      "unid": 6892,
      "ughter": 6893,
      "ueve": 6894,
      "uma": 6895,
      "Ġuseful": 6896,
      "Ġfinally": 6897,
      "Ġwid": 6898,
      "ĠMany": 6899,
      "ĠEuropean": 6900,
      "work": 6901,
      "Ġencima": 6902,
      "met": 6903,
      "Ġreflect": 6904,
      "ĠbÃºsqueda": 6905,
      "Ġadmit": 6906,
      "quitect": 6907,
      "Ġphoto": 6908,
      "Ġpartner": 6909,
      "ĠEST": 6910,
      "Ġwants": 6911,
      "Ġcloth": 6912,
      "Ġpesos": 6913,
      "tero": 6914,
      "----": 6915,
      "Ġreasons": 6916,
      "UD": 6917,
      "Ġrub": 6918,
      "Ġhechos": 6919,
      "Ġknew": 6920,
      "TC": 6921,
      "Ġcontrario": 6922,
      "rench": 6923,
      "iero": 6924,
      "ĠMen": 6925,
      "ologies": 6926,
      "Ġpandemia": 6927,
      "uncia": 6928,
      "Ġannounced": 6929,
      "mal": 6930,
      "Ġacces": 6931,
      "Ġentorno": 6932,
      "Ġstudies": 6933,
      "atever": 6934,
      "Ġcoche": 6935,
      "ums": 6936,
      "Ġsimplemente": 6937,
      "Ġ<": 6938,
      "Ġfiel": 6939,
      "Ġobjetivos": 6940,
      "Ġtir": 6941,
      "Ġrules": 6942,
      "ĠrÃ¡pido": 6943,
      "ĠQUE": 6944,
      "Ġlucha": 6945,
      "Ġeditor": 6946,
      "itis": 6947,
      "Ġ36": 6948,
      "Ġcaf": 6949,
      "Ġtrabajos": 6950,
      "Ġexperienced": 6951,
      "ĠAcadem": 6952,
      "Ġaer": 6953,
      "Ġdoble": 6954,
      "ĠÃ¡mb": 6955,
      "ĠWater": 6956,
      "raw": 6957,
      "ourney": 6958,
      "ĠInstituto": 6959,
      "Ġjueves": 6960,
      "ĠAre": 6961,
      "Ġresponsable": 6962,
      "Ġtitle": 6963,
      "ĠThanks": 6964,
      "ancy": 6965,
      "lished": 6966,
      "ĠPriv": 6967,
      "Ġmesa": 6968,
      "ĠselecciÃ³n": 6969,
      "Ġmechan": 6970,
      "ĠcategorÃŃa": 6971,
      "Ġdelivery": 6972,
      "oce": 6973,
      "Ġevidence": 6974,
      "Ġfunciones": 6975,
      "Ġconvoc": 6976,
      "ĠpÃ©rd": 6977,
      "ĠBank": 6978,
      "Ġoferta": 6979,
      "ĠDiv": 6980,
      "ÃŃstico": 6981,
      "ĠJesus": 6982,
      "ĠRoad": 6983,
      "Ġlaboral": 6984,
      "ĠIndustr": 6985,
      "ocolate": 6986,
      "aks": 6987,
      "Ġwhe": 6988,
      "ĠIsland": 6989,
      "Ġagree": 6990,
      "ii": 6991,
      "Ġespacios": 6992,
      "ĠÃī": 6993,
      "uos": 6994,
      "cepciÃ³n": 6995,
      "chez": 6996,
      "Ġ?": 6997,
      "Ġerr": 6998,
      "Can": 6999,
      "âĢ¦âĢ¦": 7000,
      "Ġgreater": 7001,
      "Ġlooked": 7002,
      "ĠRev": 7003,
      "Ġpropuesta": 7004,
      "phic": 7005,
      "Ġhabil": 7006,
      "ĠEducaciÃ³n": 7007,
      "Ġcompromiso": 7008,
      "Ġ08": 7009,
      "Hola": 7010,
      "Ġlay": 7011,
      "ilio": 7012,
      "ĠAhora": 7013,
      "Ġfamos": 7014,
      "agu": 7015,
      "Ġsuelo": 7016,
      "Ġaproxim": 7017,
      "Ġinvent": 7018,
      "atas": 7019,
      "ipp": 7020,
      "Ġimper": 7021,
      "Ġcentros": 7022,
      "Ġvital": 7023,
      "ĠAny": 7024,
      "Ġalumnos": 7025,
      "Ġcancer": 7026,
      "Ġ197": 7027,
      "Ã¡ticas": 7028,
      "ĠLim": 7029,
      "Ġcompared": 7030,
      "Ġpase": 7031,
      "Ġsubmit": 7032,
      "uted": 7033,
      "Ġgenerally": 7034,
      "Ġtechnical": 7035,
      "Ġvoz": 7036,
      "Ã¡logo": 7037,
      "Ġwindow": 7038,
      "Ġmaest": 7039,
      "Ġdiabetes": 7040,
      "site": 7041,
      "ows": 7042,
      "tiqu": 7043,
      "Ġlargest": 7044,
      "ĠPP": 7045,
      "iciales": 7046,
      "Ġdebate": 7047,
      "Ġbonus": 7048,
      "jero": 7049,
      "Ġsteps": 7050,
      "Ġearlier": 7051,
      "Ġpert": 7052,
      "ayo": 7053,
      "Go": 7054,
      "ĠFlorida": 7055,
      "Ġimmediately": 7056,
      "uestro": 7057,
      "ĠAsoci": 7058,
      "Ġincome": 7059,
      "ĠConsejo": 7060,
      "issions": 7061,
      "ĠRa": 7062,
      "Ġsteel": 7063,
      "ih": 7064,
      "ĠComun": 7065,
      "ĠAS": 7066,
      "ologÃŃas": 7067,
      "Ġapl": 7068,
      "atural": 7069,
      "Ġot": 7070,
      "LC": 7071,
      "Ġmied": 7072,
      "ĠBit": 7073,
      "ĠMicrosoft": 7074,
      "ĠOther": 7075,
      "rick": 7076,
      "amar": 7077,
      "Ġmotivo": 7078,
      "Ġcells": 7079,
      "ĠMill": 7080,
      "Ġsetting": 7081,
      "ĠSU": 7082,
      "ĠTO": 7083,
      "Ġreducir": 7084,
      "Ġbeyond": 7085,
      "olesc": 7086,
      "Ġaccur": 7087,
      "Ġreports": 7088,
      "Ãĳ": 7089,
      "ĠBat": 7090,
      "Col": 7091,
      "term": 7092,
      "Ġpictures": 7093,
      "ĠNor": 7094,
      "ĠSun": 7095,
      "Ġcog": 7096,
      "Ġaren": 7097,
      "rero": 7098,
      "Ġestaban": 7099,
      "Ġearn": 7100,
      "Ġpregunta": 7101,
      "ĠWell": 7102,
      "ĠInde": 7103,
      "ĠTy": 7104,
      "ĠPay": 7105,
      "Ġnearly": 7106,
      "ĠclÃ¡s": 7107,
      "Ġbio": 7108,
      "aker": 7109,
      "Ġrepar": 7110,
      "ĠSl": 7111,
      "68": 7112,
      "ĠEle": 7113,
      "oph": 7114,
      "ĠRepÃºblica": 7115,
      "ĠMichael": 7116,
      "cup": 7117,
      "Ġhimself": 7118,
      "Ġcif": 7119,
      "Ġpocos": 7120,
      "ĠdÃ©c": 7121,
      "ĠFinal": 7122,
      "ĠEducation": 7123,
      "Ġweekend": 7124,
      "Ġlif": 7125,
      "ĠTodo": 7126,
      "nam": 7127,
      "Ġdespl": 7128,
      "Ġspirit": 7129,
      "ĠClick": 7130,
      "Ġjoin": 7131,
      "ĠPedro": 7132,
      "Ġacto": 7133,
      "ibu": 7134,
      "Ġlines": 7135,
      "ĠInstagram": 7136,
      "Ġcumplir": 7137,
      "Ġsosten": 7138,
      "oga": 7139,
      "ĠSum": 7140,
      "Ġvuelta": 7141,
      "ĠBoard": 7142,
      "Ġaward": 7143,
      "ursday": 7144,
      "win": 7145,
      "ĠWork": 7146,
      "Ġfeet": 7147,
      "Ġocasiones": 7148,
      "Ġmeasure": 7149,
      "54": 7150,
      "Ġabandon": 7151,
      "iot": 7152,
      "Ġahead": 7153,
      "Ġblue": 7154,
      "Ġimpacto": 7155,
      "Ġthreat": 7156,
      "ĠAyuntamiento": 7157,
      "Ġposted": 7158,
      "ĠEngine": 7159,
      "Ġdress": 7160,
      "Ġhelpful": 7161,
      "Ġsat": 7162,
      "Ġmanual": 7163,
      "Ġsuffer": 7164,
      "ĠpodrÃ¡n": 7165,
      "uegos": 7166,
      "Ġcomentario": 7167,
      "Ġalone": 7168,
      "visor": 7169,
      "Ġstatement": 7170,
      "Ġitem": 7171,
      "Ġdemonst": 7172,
      "Ġfactors": 7173,
      "Ġbutton": 7174,
      "Ġentry": 7175,
      "Ġexisting": 7176,
      "Ã¡cter": 7177,
      "ricos": 7178,
      "Ġliqu": 7179,
      "ertos": 7180,
      "Ġmm": 7181,
      "icks": 7182,
      "Ġchanged": 7183,
      "ĠMedic": 7184,
      "ĠtÃ©cnico": 7185,
      "Ġamen": 7186,
      "Ġcuidado": 7187,
      "\":": 7188,
      "Ġpalabra": 7189,
      "Ġdiario": 7190,
      "Ġtut": 7191,
      "Ġhogar": 7192,
      "Ġcompleta": 7193,
      "Ġestrategia": 7194,
      "ĠinglÃ©s": 7195,
      "Ġconfl": 7196,
      "ãĢ": 7197,
      "ĠCov": 7198,
      "uesday": 7199,
      "Ġrealizado": 7200,
      "ICA": 7201,
      "ĠMas": 7202,
      "MÃ¡s": 7203,
      "geles": 7204,
      "Ġspread": 7205,
      "Ġselection": 7206,
      "Ġswitch": 7207,
      "unte": 7208,
      "ERS": 7209,
      "They": 7210,
      "ĠSand": 7211,
      "Ġtitular": 7212,
      "ties": 7213,
      "ĠPress": 7214,
      "ĠâĨ": 7215,
      "Ġbrows": 7216,
      "Ġconfianza": 7217,
      "Ã³st": 7218,
      "ĠcarÃ¡cter": 7219,
      "ĠData": 7220,
      "Ġdiet": 7221,
      "Ġadvantage": 7222,
      "viv": 7223,
      "Ġnotice": 7224,
      "Ġrit": 7225,
      "Ġcarga": 7226,
      "ĠBet": 7227,
      "ĠControl": 7228,
      "arla": 7229,
      "Ġfore": 7230,
      "Ġmusical": 7231,
      "53": 7232,
      "ju": 7233,
      "Ġregional": 7234,
      "ĠCook": 7235,
      "Ġpatient": 7236,
      "ĠCivil": 7237,
      "AsÃŃ": 7238,
      "Ġexcelente": 7239,
      "Ġfron": 7240,
      "Ġintr": 7241,
      "Ġprotection": 7242,
      "aug": 7243,
      "Ġrequires": 7244,
      "Ġnoticias": 7245,
      "Ġsalv": 7246,
      "ĠCourt": 7247,
      "Ġmonta": 7248,
      "olf": 7249,
      "aremos": 7250,
      "Ġsett": 7251,
      "Ġdict": 7252,
      "inese": 7253,
      "Ġmunicipio": 7254,
      "Ġquarter": 7255,
      "Ġsurround": 7256,
      "ĠOper": 7257,
      "cop": 7258,
      "Ġcritical": 7259,
      "pto": 7260,
      "Dis": 7261,
      "Ġforce": 7262,
      "Ġsustain": 7263,
      "Ġarrib": 7264,
      "Ġestablish": 7265,
      "ĠFound": 7266,
      "rasil": 7267,
      "Ġagreg": 7268,
      "Ġentrar": 7269,
      "ĠiPhone": 7270,
      "Ġenf": 7271,
      "Ġbul": 7272,
      "urales": 7273,
      "acia": 7274,
      "ĠPla": 7275,
      "Ġdiagn": 7276,
      "Ġexport": 7277,
      "Ġlength": 7278,
      "Ġchann": 7279,
      "Ġqueremos": 7280,
      "Su": 7281,
      "ĠpresentaciÃ³n": 7282,
      "hips": 7283,
      "Ġconocido": 7284,
      "ius": 7285,
      "ĠSem": 7286,
      "Ġreferencia": 7287,
      "2016": 7288,
      "ĠPet": 7289,
      "Ġaspectos": 7290,
      "Ġmaqu": 7291,
      "Ġfiles": 7292,
      "ĠIng": 7293,
      "ĠDaniel": 7294,
      "Ġserve": 7295,
      "Ġmarcas": 7296,
      "ĠCouncil": 7297,
      "Ġwife": 7298,
      "ampions": 7299,
      "ĠEsp": 7300,
      "Ġelig": 7301,
      "ĠIr": 7302,
      "ried": 7303,
      "ionar": 7304,
      "Ġmiddle": 7305,
      "ĠCH": 7306,
      "ĠProject": 7307,
      "Ġtalking": 7308,
      "Ġnegro": 7309,
      "ĠmÃ©dico": 7310,
      "zan": 7311,
      "Ġtraffic": 7312,
      "Ġallowed": 7313,
      "enance": 7314,
      "inst": 7315,
      "ĠCur": 7316,
      "Ġguarante": 7317,
      "ĠOpen": 7318,
      "iny": 7319,
      "Ġcoronavirus": 7320,
      "pped": 7321,
      "Ġfer": 7322,
      "rew": 7323,
      "Ġweather": 7324,
      "Ġestadounid": 7325,
      "Ġshoot": 7326,
      "ĠTest": 7327,
      "Ġconsent": 7328,
      "aled": 7329,
      "Ġretail": 7330,
      "Ġbillion": 7331,
      "Ġstrugg": 7332,
      "look": 7333,
      "ĠSee": 7334,
      "Ġterr": 7335,
      "Ġrefle": 7336,
      "Ġresponsible": 7337,
      "Ġciudadanos": 7338,
      "aran": 7339,
      "Ð°": 7340,
      "52": 7341,
      "iency": 7342,
      "ĠÃ¡reas": 7343,
      "Ġperhaps": 7344,
      "idge": 7345,
      "Ġbrill": 7346,
      "Ġbarr": 7347,
      "ĠNos": 7348,
      "itude": 7349,
      "Ġappropriate": 7350,
      "fol": 7351,
      "clud": 7352,
      "nesday": 7353,
      "ĠtÃº": 7354,
      "cles": 7355,
      "Ġpowerful": 7356,
      "estas": 7357,
      "fast": 7358,
      "ĠmiÃ©rcoles": 7359,
      "Ap": 7360,
      "Ġencant": 7361,
      "ĠmÃ³vil": 7362,
      "Ġexpand": 7363,
      "Ġempleo": 7364,
      "estruct": 7365,
      "Ġalter": 7366,
      "Ġinfer": 7367,
      "MO": 7368,
      "Ġbeach": 7369,
      "iencias": 7370,
      "ĠreuniÃ³n": 7371,
      "unter": 7372,
      "67": 7373,
      "Ġposterior": 7374,
      "Ġsitios": 7375,
      "ĠCongreso": 7376,
      "Ġmartes": 7377,
      "rob": 7378,
      "Ã³rico": 7379,
      "arle": 7380,
      "jeros": 7381,
      "ĠcÃ³m": 7382,
      "Ġtranspar": 7383,
      "Gu": 7384,
      "Ġpoor": 7385,
      "iled": 7386,
      "ĠVict": 7387,
      "Ġtri": 7388,
      "edas": 7389,
      "Ġextran": 7390,
      "almente": 7391,
      "Ġthanks": 7392,
      "CC": 7393,
      "Ġrace": 7394,
      "Ġhomes": 7395,
      "Ġchallenge": 7396,
      "ercise": 7397,
      "ĠgÃ©nero": 7398,
      "ĠFu": 7399,
      "Ġconclus": 7400,
      "free": 7401,
      "ĠUse": 7402,
      "Ġiba": 7403,
      "ĠFood": 7404,
      "arma": 7405,
      "ĠLear": 7406,
      "Ġsang": 7407,
      "Ġalcohol": 7408,
      "ĠHD": 7409,
      "Ġpersonajes": 7410,
      "Ġelecciones": 7411,
      "Ġcompl": 7412,
      "Ġtransmit": 7413,
      "Ġmanage": 7414,
      "ĠvÃŃa": 7415,
      "Ġescuela": 7416,
      "quÃ©": 7417,
      "iÃ©nd": 7418,
      "Ġtemp": 7419,
      "ĠRock": 7420,
      "istry": 7421,
      "Ġcore": 7422,
      "Ġhus": 7423,
      "Cont": 7424,
      "Ġhelped": 7425,
      "Ġhelping": 7426,
      "Ġdetermine": 7427,
      "Ġconex": 7428,
      "Ġsuficiente": 7429,
      "Ġrelax": 7430,
      "Ġscient": 7431,
      "anÃŃa": 7432,
      "ĠAst": 7433,
      "into": 7434,
      "Ġdemanda": 7435,
      "rating": 7436,
      "Ġmodels": 7437,
      "ĠLog": 7438,
      "Ġconce": 7439,
      "Rep": 7440,
      "Ġpool": 7441,
      "intenance": 7442,
      "Ġefficient": 7443,
      "isiones": 7444,
      "Ġbuenas": 7445,
      "bed": 7446,
      "ĠCruz": 7447,
      "Ġvie": 7448,
      "Ġvert": 7449,
      "Ġcoleg": 7450,
      "ĠAssociation": 7451,
      "ĠestarÃ¡": 7452,
      "oro": 7453,
      "ĠReport": 7454,
      "ierte": 7455,
      "Ġimplic": 7456,
      "ĠOct": 7457,
      "Ġinteresante": 7458,
      "Gra": 7459,
      "Ġpuerta": 7460,
      "Ġacceder": 7461,
      "oras": 7462,
      "Ġbod": 7463,
      "Ġplantas": 7464,
      "Ġcomport": 7465,
      "Ġincred": 7466,
      "ĠCla": 7467,
      "Ġcold": 7468,
      "ĠWood": 7469,
      "ADO": 7470,
      "].": 7471,
      "Ġconflict": 7472,
      "ĠFeder": 7473,
      "ĠChristian": 7474,
      "%,": 7475,
      "ĠComisiÃ³n": 7476,
      "May": 7477,
      "aren": 7478,
      "Ġregres": 7479,
      "Ġfortal": 7480,
      "Ġwind": 7481,
      "Ġtrial": 7482,
      "onte": 7483,
      "arrollo": 7484,
      "kn": 7485,
      "ĠTime": 7486,
      "Ġ2004": 7487,
      "ĠIS": 7488,
      "Ġsujet": 7489,
      "69": 7490,
      "Ġmut": 7491,
      "elle": 7492,
      "try": 7493,
      "Ġolvid": 7494,
      "ĠCA": 7495,
      "inger": 7496,
      "Ġmadera": 7497,
      "Ġdismin": 7498,
      "umber": 7499,
      "itz": 7500,
      "VA": 7501,
      "llo": 7502,
      "estre": 7503,
      "Ġstone": 7504,
      "amous": 7505,
      "Ġcapacity": 7506,
      "hop": 7507,
      "Ġbackground": 7508,
      "Ġshared": 7509,
      "ĠAunque": 7510,
      "Ġclases": 7511,
      "oster": 7512,
      "Ġlack": 7513,
      "ĠWil": 7514,
      "ifying": 7515,
      "ĠCasa": 7516,
      "ĠRiver": 7517,
      "Ġelements": 7518,
      "Ġinstalaciones": 7519,
      "Ġdisponibles": 7520,
      "Ġpronto": 7521,
      "ĠSantiago": 7522,
      "ferencia": 7523,
      "witter": 7524,
      "ĠbaÃ±o": 7525,
      "ĠquiÃ©n": 7526,
      "ĠTR": 7527,
      "Ġ01": 7528,
      "Ġlin": 7529,
      "ĠSeguridad": 7530,
      "ĠBeach": 7531,
      "Ġannual": 7532,
      "Ġbanda": 7533,
      "Ġbottom": 7534,
      "Ġambient": 7535,
      "Ġassign": 7536,
      "Ġwrote": 7537,
      "Ġtoma": 7538,
      "Ġfather": 7539,
      "ĠGlobal": 7540,
      "Ã¡fico": 7541,
      "Ġmunicipal": 7542,
      "Ġvulner": 7543,
      "Ġcompat": 7544,
      "ĠpolÃŃticos": 7545,
      "Ġcable": 7546,
      "Ġfinding": 7547,
      "Ġmitad": 7548,
      "Ġenem": 7549,
      "ĠocasiÃ³n": 7550,
      "ĠMake": 7551,
      "Ġmaster": 7552,
      "ĠCard": 7553,
      "Ġreact": 7554,
      "Ġdefensa": 7555,
      "Ġlinks": 7556,
      "Ġdiscipl": 7557,
      "Ġdebes": 7558,
      "Ġoccas": 7559,
      "ĠBuy": 7560,
      "Ġnation": 7561,
      "Ġtherefore": 7562,
      "AY": 7563,
      "Ġdriving": 7564,
      "Ġletter": 7565,
      "Ġamar": 7566,
      "ĠCer": 7567,
      "Ġanimales": 7568,
      "Ġreform": 7569,
      "ĠST": 7570,
      "Ġconnection": 7571,
      "Ġcommunication": 7572,
      "UU": 7573,
      "Tube": 7574,
      "Ġdefend": 7575,
      "Ġinstituciones": 7576,
      "ĠLar": 7577,
      "Ġmining": 7578,
      "51": 7579,
      "Ġgift": 7580,
      "Ġesfuerzo": 7581,
      "Ġauth": 7582,
      "Ġpsic": 7583,
      "Ġcircu": 7584,
      "ĠAfrica": 7585,
      "ĠCorpor": 7586,
      "Ġcouldn": 7587,
      "Ġdenomin": 7588,
      "ĠTar": 7589,
      "Ġachieve": 7590,
      "uelo": 7591,
      "tainment": 7592,
      "ĠJim": 7593,
      "Ġdebemos": 7594,
      "ĠMarketing": 7595,
      "Ġrelev": 7596,
      "Ġsecure": 7597,
      "Ġestuvo": 7598,
      "unk": 7599,
      "Ġcreative": 7600,
      "Ġrich": 7601,
      "Ġinclu": 7602,
      "Ġ48": 7603,
      "Ġprohib": 7604,
      "Get": 7605,
      "Ġcollabor": 7606,
      "Ġliber": 7607,
      "ĠPeople": 7608,
      "Ġpush": 7609,
      "ĠMark": 7610,
      "Ġestablished": 7611,
      "Ġinstruct": 7612,
      "Ġpone": 7613,
      "Ġnecesit": 7614,
      "ĠCel": 7615,
      "Ġmac": 7616,
      "Ġremain": 7617,
      "ĠComments": 7618,
      "izÃ³": 7619,
      "ĠPas": 7620,
      "ĠNet": 7621,
      "ifer": 7622,
      "Ġdang": 7623,
      "Ġfo": 7624,
      "ĠpresiÃ³n": 7625,
      "Ġjoy": 7626,
      "Ġetapa": 7627,
      "ĠMusic": 7628,
      "PN": 7629,
      "ĠĠ": 7630,
      "upo": 7631,
      "abr": 7632,
      "Ġhonor": 7633,
      "TH": 7634,
      "Ġpena": 7635,
      "ĠWhy": 7636,
      "Tra": 7637,
      "Bus": 7638,
      "Ġrealiza": 7639,
      "Ġcoffee": 7640,
      "Ġposibil": 7641,
      "Ġdil": 7642,
      "While": 7643,
      "ĠBack": 7644,
      "Ġdollar": 7645,
      "ince": 7646,
      "ĠRey": 7647,
      "EF": 7648,
      "Ġeconomy": 7649,
      "cado": 7650,
      "BI": 7651,
      "Ġappoint": 7652,
      "ĠpodÃŃa": 7653,
      "Ġfib": 7654,
      "anes": 7655,
      "Ġinvit": 7656,
      "Ġsurg": 7657,
      "ĠtÃ©cnica": 7658,
      "Ġsolar": 7659,
      "ĠFestival": 7660,
      "ĠdeberÃŃa": 7661,
      "Ġamigo": 7662,
      "Ġnegocios": 7663,
      "Ġpropiedad": 7664,
      "Ġowner": 7665,
      "Ġcoin": 7666,
      "ĠMary": 7667,
      "Ġlaws": 7668,
      "Ġsuerte": 7669,
      "Ġactualmente": 7670,
      "Ġcompleted": 7671,
      "ani": 7672,
      "ellig": 7673,
      "Ġcontro": 7674,
      "Ġprincipios": 7675,
      "Ġestate": 7676,
      "Ġdivert": 7677,
      "Ġbuscando": 7678,
      "si": 7679,
      "Ġdesarrollar": 7680,
      "Ġbuying": 7681,
      "ĠCanad": 7682,
      "onald": 7683,
      "Ġdiversos": 7684,
      "Ġcircul": 7685,
      "ĠÃ¡r": 7686,
      "Dec": 7687,
      "Ġmoved": 7688,
      "Ġthr": 7689,
      "Ġmiedo": 7690,
      "Ġarro": 7691,
      "ĠMujer": 7692,
      "ĠPablo": 7693,
      ".[": 7694,
      "aqu": 7695,
      "trib": 7696,
      "Ġreflex": 7697,
      "Ġpeace": 7698,
      "Ġthank": 7699,
      "eles": 7700,
      "Ġventas": 7701,
      "Ġcheap": 7702,
      "Ġobten": 7703,
      "ĠCustom": 7704,
      "ĠExper": 7705,
      "Ġestructura": 7706,
      "ĠOnce": 7707,
      "ĠGuard": 7708,
      "Ġdistancia": 7709,
      "Ġresulta": 7710,
      "Ġacc": 7711,
      "ĠBlue": 7712,
      "Ġcampe": 7713,
      "ĠfÃºtbol": 7714,
      "Ġmentioned": 7715,
      "Ġtaller": 7716,
      "Ġposts": 7717,
      "ĠadministraciÃ³n": 7718,
      "Ġtesting": 7719,
      "Now": 7720,
      "Ġlarger": 7721,
      "omos": 7722,
      "azine": 7723,
      "Ġshot": 7724,
      "Ġdiput": 7725,
      "ĠCir": 7726,
      "ĠPS": 7727,
      "Ġ07": 7728,
      "ĠChurch": 7729,
      "Ġcommun": 7730,
      "Ġsusp": 7731,
      "ĠAnn": 7732,
      "Ġsentir": 7733,
      "Ġchurch": 7734,
      "amic": 7735,
      "ĠRepublic": 7736,
      "Ġmuse": 7737,
      "Ġmanager": 7738,
      "ĠDu": 7739,
      "ĠPs": 7740,
      "istema": 7741,
      "Ðµ": 7742,
      "Ġcontrato": 7743,
      "pare": 7744,
      "Ġrum": 7745,
      "jud": 7746,
      "Ġocur": 7747,
      "ĠAdd": 7748,
      "Ġmarav": 7749,
      "ĠSoft": 7750,
      "Ġdiez": 7751,
      "adura": 7752,
      "ÃŃguez": 7753,
      "ancing": 7754,
      "ĠTodos": 7755,
      "medio": 7756,
      "ĠFel": 7757,
      "Ãºlt": 7758,
      "ĠFire": 7759,
      "More": 7760,
      "Ġseeing": 7761,
      "gy": 7762,
      "Ġfoto": 7763,
      "Ġvoice": 7764,
      "avor": 7765,
      "Ġnumerous": 7766,
      "Ġcourses": 7767,
      "ĠAND": 7768,
      "ector": 7769,
      "ĠLOS": 7770,
      "uts": 7771,
      "ĠChic": 7772,
      "Ġfuel": 7773,
      "Ġquieren": 7774,
      "Ġdu": 7775,
      "Ġtrabajando": 7776,
      "Ġjourney": 7777,
      "Ġeres": 7778,
      "Ġalbum": 7779,
      "Ġefforts": 7780,
      "Ġplants": 7781,
      "Ġcapaz": 7782,
      "Ġdificult": 7783,
      "ĠtelevisiÃ³n": 7784,
      "tocol": 7785,
      "Ġciudades": 7786,
      "Ġwhose": 7787,
      "Ver": 7788,
      "Ġshopping": 7789,
      "egas": 7790,
      "Ġjard": 7791,
      "Ġiniciativa": 7792,
      "ails": 7793,
      "ĠTuesday": 7794,
      "Ġadolesc": 7795,
      "ĠScience": 7796,
      "Ġpreguntas": 7797,
      "Ġapps": 7798,
      "ĠRadio": 7799,
      "bt": 7800,
      "Ġvivo": 7801,
      "Ġopening": 7802,
      "Ġheavy": 7803,
      "Ġanticip": 7804,
      "Ġworkers": 7805,
      "Ġhighest": 7806,
      "ĠIndian": 7807,
      "Ġempezar": 7808,
      "ĠatrÃ¡s": 7809,
      "ĠFrench": 7810,
      "Ġdoct": 7811,
      "ĠseÃ±alÃ³": 7812,
      "Ġdriver": 7813,
      "Ġrepet": 7814,
      "Ġcong": 7815,
      "Ġfuncionamiento": 7816,
      "Ġlevant": 7817,
      "aud": 7818,
      "ĠâĨĴ": 7819,
      "Ġremin": 7820,
      "Ġbedroom": 7821,
      "Ġobjeto": 7822,
      "Ġfond": 7823,
      "ager": 7824,
      "Ġrequis": 7825,
      "Ġbuenos": 7826,
      "Ġpropos": 7827,
      "ĠAbout": 7828,
      "ÃŃp": 7829,
      "ĠLou": 7830,
      "acters": 7831,
      "Ġeventos": 7832,
      "ston": 7833,
      "Ġopos": 7834,
      "ĠPen": 7835,
      "Ġharm": 7836,
      "Ġgone": 7837,
      "Ġprocessing": 7838,
      "ĠBill": 7839,
      "Ġparticipar": 7840,
      "Ġclasses": 7841,
      "ĠBritish": 7842,
      "atar": 7843,
      "Ġsources": 7844,
      "amble": 7845,
      "ĠSet": 7846,
      "ĠFort": 7847,
      "Ġfigure": 7848,
      "98": 7849,
      "ĠPARA": 7850,
      "Ã¡nchez": 7851,
      "Ġseven": 7852,
      "ĠSO": 7853,
      "Ġfashion": 7854,
      "sp": 7855,
      "ĠDen": 7856,
      "Ġrig": 7857,
      "Ġbag": 7858,
      "ey": 7859,
      "ĠpelÃŃculas": 7860,
      "isos": 7861,
      "ĠDemoc": 7862,
      "Ġwedding": 7863,
      "Ġrendimiento": 7864,
      "Ġacqu": 7865,
      "Ġaceite": 7866,
      "ĠDevelopment": 7867,
      "well": 7868,
      "Ġentidad": 7869,
      "Ġcerc": 7870,
      "Ġsweet": 7871,
      "Entre": 7872,
      "Ġ150": 7873,
      "Ġupdate": 7874,
      "ĠChild": 7875,
      "ĠNi": 7876,
      "Ġnaturales": 7877,
      "Ġ..": 7878,
      "ĠAires": 7879,
      "Ġchallenges": 7880,
      "iosa": 7881,
      "Ġoccur": 7882,
      "Ġreality": 7883,
      "viÃ³": 7884,
      "Cons": 7885,
      "Ġcurs": 7886,
      "Ġropa": 7887,
      "Ġperfecto": 7888,
      "ĠprÃ©st": 7889,
      "Ġbiggest": 7890,
      "Ġ38": 7891,
      "ĠhabrÃ¡": 7892,
      "rastr": 7893,
      "Op": 7894,
      "ĠHam": 7895,
      "Ġserved": 7896,
      "Ġmovement": 7897,
      "ricas": 7898,
      "Ġmostrar": 7899,
      "Ġcompetit": 7900,
      "ĠÃ³r": 7901,
      "ĠFun": 7902,
      "ĠcuestiÃ³n": 7903,
      "Ġretir": 7904,
      "Ġcertific": 7905,
      "Aut": 7906,
      "Ġvill": 7907,
      "ĠThursday": 7908,
      "Ġdisput": 7909,
      "icians": 7910,
      "Ġslight": 7911,
      "Ġhermos": 7912,
      "Ġobvious": 7913,
      "Ġwebsites": 7914,
      "Ġhaga": 7915,
      "izaje": 7916,
      "ĠcuÃ¡n": 7917,
      "ielo": 7918,
      "ieren": 7919,
      "Ġfines": 7920,
      "Ġglo": 7921,
      "Ġministro": 7922,
      "Ġcamera": 7923,
      "Ġautomat": 7924,
      "icionales": 7925,
      "Ġingen": 7926,
      "Ġsharing": 7927,
      "ered": 7928,
      "Ġentend": 7929,
      "urb": 7930,
      "usa": 7931,
      "Ġgarden": 7932,
      "Ġconstruct": 7933,
      "These": 7934,
      "ĠLeague": 7935,
      "owl": 7936,
      "Ġconcepto": 7937,
      "Ġhappened": 7938,
      "Ġcompletamente": 7939,
      "Ġalt": 7940,
      "Ġfunds": 7941,
      "Ġsiete": 7942,
      "ĠDet": 7943,
      "Dr": 7944,
      "ĠLove": 7945,
      "Ġrequiere": 7946,
      "Ġcolum": 7947,
      "Ġrooms": 7948,
      "Ġexperiences": 7949,
      "Ġoperations": 7950,
      "Ġexplor": 7951,
      "Ġpunt": 7952,
      "ierto": 7953,
      "Ġvivienda": 7954,
      "anzas": 7955,
      "Ġhandle": 7956,
      "Ġabog": 7957,
      "presa": 7958,
      "Ġsoluciones": 7959,
      "Am": 7960,
      "ĠPDF": 7961,
      "Ġtruth": 7962,
      "Ġproduced": 7963,
      "Ġlearned": 7964,
      "Ya": 7965,
      "Ġ2003": 7966,
      "Ġindependent": 7967,
      "icious": 7968,
      "Ġnerv": 7969,
      "ĠThank": 7970,
      "phone": 7971,
      "2015": 7972,
      "tros": 7973,
      "loc": 7974,
      "ĠdisposiciÃ³n": 7975,
      "ĠInformation": 7976,
      "Ġunidad": 7977,
      "Ġfuente": 7978,
      "ĠCheck": 7979,
      "Us": 7980,
      "ĠContin": 7981,
      "Ġger": 7982,
      "Ġserver": 7983,
      "Ġinternacionales": 7984,
      "itarios": 7985,
      "Ġsangre": 7986,
      "azas": 7987,
      "2012": 7988,
      "Ġfollowed": 7989,
      "Ġluck": 7990,
      "ĠAsociaciÃ³n": 7991,
      "estos": 7992,
      "ĠcolaboraciÃ³n": 7993,
      "Pol": 7994,
      "iaciÃ³n": 7995,
      "igan": 7996,
      "Ġhabla": 7997,
      "ĠSince": 7998,
      "TV": 7999,
      "Ġdiversas": 8000,
      "izaciones": 8001,
      "ĠcomenzÃ³": 8002,
      "Ġhaven": 8003,
      "Ġreco": 8004,
      "Ã¡nica": 8005,
      "Ġinstant": 8006,
      "Ã¡lez": 8007,
      "ĠtÃ©cnicas": 8008,
      "ÃŃficos": 8009,
      "Ġjugador": 8010,
      "IDAD": 8011,
      "ibl": 8012,
      "Ġherramienta": 8013,
      "Ġreprodu": 8014,
      "Ġsud": 8015,
      "Ġadvanced": 8016,
      "Nov": 8017,
      "Ġorganizations": 8018,
      "ĠBuenos": 8019,
      "ĠgeneraciÃ³n": 8020,
      "ualidad": 8021,
      "ĠPuerto": 8022,
      "Ġguys": 8023,
      "Ġrelevant": 8024,
      "ĠpÃºblicos": 8025,
      "ridge": 8026,
      "Ġremove": 8027,
      "64": 8028,
      "Ġofertas": 8029,
      "aa": 8030,
      "atab": 8031,
      "Ġvalid": 8032,
      "ĠRoy": 8033,
      "ĠRodrÃŃguez": 8034,
      "ĠÃºltimas": 8035,
      "ĠSaf": 8036,
      "Ġmemory": 8037,
      "Ġhusband": 8038,
      "ancial": 8039,
      "Ġdrop": 8040,
      "Ġpedir": 8041,
      "EG": 8042,
      "unately": 8043,
      "ĠsesiÃ³n": 8044,
      "ĠAgr": 8045,
      "Ġsociety": 8046,
      "Ġtales": 8047,
      "ĠOh": 8048,
      "ĠPad": 8049,
      "IST": 8050,
      "ÃŃr": 8051,
      "ĠTechnology": 8052,
      "Ġrech": 8053,
      "ĠMult": 8054,
      "iedades": 8055,
      "olucion": 8056,
      "Ġvariedad": 8057,
      "ĠDownload": 8058,
      "Ġfriendly": 8059,
      "Ġvisitar": 8060,
      "dis": 8061,
      "Ġleader": 8062,
      "Ġabrir": 8063,
      "Ġpark": 8064,
      "Ġpieces": 8065,
      "icing": 8066,
      "egu": 8067,
      "jor": 8068,
      "friend": 8069,
      "iodo": 8070,
      "Ġpopulation": 8071,
      "Ġaltura": 8072,
      "enciones": 8073,
      "Ġorganizaciones": 8074,
      "Ġabsolutely": 8075,
      "ĠCuba": 8076,
      "Ġrestaurant": 8077,
      "Ġdestino": 8078,
      "ship": 8079,
      "Ġlands": 8080,
      "2013": 8081,
      "Ġmam": 8082,
      "prim": 8083,
      "Ġcontenidos": 8084,
      "Ġdiscount": 8085,
      "oteca": 8086,
      "Ġllama": 8087,
      "anging": 8088,
      "Ġdeveloping": 8089,
      "ancos": 8090,
      "Ġstatus": 8091,
      "Ġdecisiones": 8092,
      "Ġstandards": 8093,
      "ĠWednesday": 8094,
      "Ġ400": 8095,
      "ĠEnter": 8096,
      "Ġpref": 8097,
      "Ġcompens": 8098,
      "Ġhol": 8099,
      "ĠÃģn": 8100,
      "Ġexperts": 8101,
      "Ġtub": 8102,
      "Ġatta": 8103,
      "Ġbreat": 8104,
      "ĠSab": 8105,
      "td": 8106,
      "Ġdeten": 8107,
      "Your": 8108,
      "ĠBrasil": 8109,
      "Ġabsor": 8110,
      "ault": 8111,
      "ĠLong": 8112,
      "Ġmoda": 8113,
      "itudes": 8114,
      "Ġnet": 8115,
      "ÃŃfica": 8116,
      "ĠHot": 8117,
      "Ġpow": 8118,
      "jan": 8119,
      "Ġvecinos": 8120,
      "rown": 8121,
      "ĠespaÃ±ola": 8122,
      "Ã©nd": 8123,
      "ĠPlus": 8124,
      "ĠSy": 8125,
      "cribe": 8126,
      "Ġkept": 8127,
      "rap": 8128,
      "Ġdetr": 8129,
      "Ġham": 8130,
      "ĠPrice": 8131,
      "ĠEX": 8132,
      "Ġexpans": 8133,
      "Ġamplia": 8134,
      "ĠHoy": 8135,
      "Ġ;": 8136,
      "Ġborn": 8137,
      "Ġfamiliares": 8138,
      "Ġlose": 8139,
      "apia": 8140,
      "Ġactualidad": 8141,
      "utes": 8142,
      "ÃŃnd": 8143,
      "Ġdirection": 8144,
      "ĠAsia": 8145,
      "Ġfinished": 8146,
      "Ġopiniones": 8147,
      "ĠHor": 8148,
      "Bl": 8149,
      "Ġthoughts": 8150,
      "Ġlaunch": 8151,
      "ĠvisiÃ³n": 8152,
      "Ġuns": 8153,
      "Ġembara": 8154,
      "ĠEach": 8155,
      "ĠvehÃŃculos": 8156,
      "Don": 8157,
      "edo": 8158,
      "Ġinn": 8159,
      "Ġmilitary": 8160,
      "Ġdispar": 8161,
      "Ġcanal": 8162,
      "oke": 8163,
      "ĠChinese": 8164,
      "Ġemit": 8165,
      "Ġpasos": 8166,
      "Ġforms": 8167,
      "ĠShow": 8168,
      "Ġwild": 8169,
      "Ġwouldn": 8170,
      "Ġtranquil": 8171,
      "Ġmemoria": 8172,
      "Ġaquel": 8173,
      "Ġvalues": 8174,
      "Ġtopic": 8175,
      "antic": 8176,
      "ifi": 8177,
      "mania": 8178,
      "Ten": 8179,
      "Ġinstrum": 8180,
      "Ġtradicional": 8181,
      "Ġfacilities": 8182,
      "ĠDiego": 8183,
      "Ġveter": 8184,
      "Ġdesaf": 8185,
      "izan": 8186,
      "Ġnamed": 8187,
      "Ġcalor": 8188,
      "ĠPolicÃŃa": 8189,
      "poner": 8190,
      "ĠEspaÃ±": 8191,
      "Ġgenerar": 8192,
      "Ġtypically": 8193,
      "ĠLake": 8194,
      "Ġfort": 8195,
      "Ġesperar": 8196,
      "Ġalternative": 8197,
      "enar": 8198,
      "essor": 8199,
      "agged": 8200,
      "ĠSÃ¡nchez": 8201,
      "Ġaspecto": 8202,
      "inta": 8203,
      "Med": 8204,
      "Ġcontempor": 8205,
      "Ġintereses": 8206,
      "Ġespos": 8207,
      "Reg": 8208,
      "real": 8209,
      "ĠLord": 8210,
      "Ġplenty": 8211,
      "Here": 8212,
      "Ġplug": 8213,
      "acular": 8214,
      "ĠdÃ³nde": 8215,
      "Ġpresentar": 8216,
      "Ġsituaciones": 8217,
      "ĠConf": 8218,
      "Ġfaith": 8219,
      "Ġescribir": 8220,
      "Ġarriba": 8221,
      "idez": 8222,
      "Ġcars": 8223,
      "Ġcatch": 8224,
      "ĠTeam": 8225,
      "Ġafir": 8226,
      "Ġguess": 8227,
      "Ġdispositivo": 8228,
      "Ġterritorio": 8229,
      "ĠInstitute": 8230,
      "Ġappe": 8231,
      "Ġkeeping": 8232,
      "ĠVideo": 8233,
      "ĠMass": 8234,
      "!\"": 8235,
      "Ġcuyo": 8236,
      "iation": 8237,
      "merce": 8238,
      "GB": 8239,
      "Ġteniendo": 8240,
      "ĠAlf": 8241,
      "ĠManager": 8242,
      "dro": 8243,
      "Ġpredict": 8244,
      "Ġsty": 8245,
      "Ġonto": 8246,
      "Ġwaiting": 8247,
      "Ġfas": 8248,
      "IZ": 8249,
      "Ġcontroll": 8250,
      "ĠDesarrollo": 8251,
      "Ġdescargar": 8252,
      "Ġspl": 8253,
      "ĠGrupo": 8254,
      "Ġcompreh": 8255,
      "ĠMiss": 8256,
      "Ġcleaning": 8257,
      "Ġexercise": 8258,
      "isation": 8259,
      "Ġrein": 8260,
      "Ġce": 8261,
      "CR": 8262,
      "Ġhonest": 8263,
      "alls": 8264,
      "ĠToday": 8265,
      "range": 8266,
      "Ð¸": 8267,
      "Ġprepared": 8268,
      "ĠtÃ©rminos": 8269,
      "Ġsequ": 8270,
      "Ġpaz": 8271,
      "Ġtratar": 8272,
      "Ġroof": 8273,
      "Ġguitar": 8274,
      "ĠComer": 8275,
      "Ġfunctional": 8276,
      "Ġdesem": 8277,
      "leo": 8278,
      "uan": 8279,
      "Ã¡nico": 8280,
      "itness": 8281,
      "Ġproperties": 8282,
      "ĠID": 8283,
      "Ġcomercio": 8284,
      "Ġfunciona": 8285,
      "Ġderiv": 8286,
      "izadas": 8287,
      "Ġpreci": 8288,
      "Ġdudas": 8289,
      "ituciÃ³n": 8290,
      "Ġcounter": 8291,
      "Ġgovern": 8292,
      "del": 8293,
      "Ġolder": 8294,
      "ĠpÃ¡ginas": 8295,
      "Ġmente": 8296,
      "ffect": 8297,
      "cap": 8298,
      "Ġaid": 8299,
      "Ġ06": 8300,
      "Ġquant": 8301,
      "usia": 8302,
      "ĠSpe": 8303,
      "Ġvino": 8304,
      "Ġstation": 8305,
      "Ġinfra": 8306,
      "TM": 8307,
      "Ġpudo": 8308,
      "ĠSep": 8309,
      "Ġfootball": 8310,
      "Ġcontext": 8311,
      "Ġimagin": 8312,
      "ĠGonzÃ¡lez": 8313,
      "ĠLight": 8314,
      "Ġapenas": 8315,
      "Ġingresos": 8316,
      "ĠÃ©ste": 8317,
      "Ġnoved": 8318,
      "Ġstick": 8319,
      "ĠJud": 8320,
      "Ã¡stico": 8321,
      "ĠcrÃŃt": 8322,
      "Ġpair": 8323,
      "ĠexplicÃ³": 8324,
      "Ġ33": 8325,
      "ocer": 8326,
      "Ġjam": 8327,
      "arial": 8328,
      "Ġgather": 8329,
      "anci": 8330,
      "GR": 8331,
      "Ġforeign": 8332,
      "Ġbear": 8333,
      "Ġconnected": 8334,
      "how": 8335,
      "ĠView": 8336,
      "AA": 8337,
      "ĠÃ¡mbito": 8338,
      "ups": 8339,
      "Ġteaching": 8340,
      "Ġ75": 8341,
      "Ġpleas": 8342,
      "ĠTimes": 8343,
      "Ġmejora": 8344,
      "ĠSmith": 8345,
      "Ġdeleg": 8346,
      "ĠsueÃ±o": 8347,
      "ĠEmp": 8348,
      "Ġfinales": 8349,
      "ANT": 8350,
      "ĠCEO": 8351,
      "Ġnucle": 8352,
      "Ġaus": 8353,
      "Ġaware": 8354,
      "Ġformal": 8355,
      "Ġhier": 8356,
      "ĠSign": 8357,
      "omo": 8358,
      "Ġcarre": 8359,
      "como": 8360,
      "long": 8361,
      "Ġmineral": 8362,
      "ĠYouTube": 8363,
      "Ġinterc": 8364,
      "Ġmont": 8365,
      "Ġacademic": 8366,
      "Ġaudience": 8367,
      "ĠFernÃ¡ndez": 8368,
      "Ġfalle": 8369,
      "ĠFore": 8370,
      "Ġeth": 8371,
      "icul": 8372,
      "Ġjusticia": 8373,
      "Ġtransl": 8374,
      "ilib": 8375,
      "ÃŃc": 8376,
      "Ġwhatever": 8377,
      "Ġeight": 8378,
      "ĠSto": 8379,
      "igation": 8380,
      "Ġcalls": 8381,
      "Ġprimeras": 8382,
      "Ġpropios": 8383,
      "ĠEas": 8384,
      "Ġfear": 8385,
      "Ġpresented": 8386,
      "rical": 8387,
      "ĠRub": 8388,
      "cement": 8389,
      "raciones": 8390,
      "Ġcovered": 8391,
      "ĠHill": 8392,
      "Ġdicen": 8393,
      "Ġchocolate": 8394,
      "Ġanteriores": 8395,
      "Ġplanes": 8396,
      "Ġholiday": 8397,
      "utos": 8398,
      "Ġcontains": 8399,
      "Ġdarle": 8400,
      "adÃ©m": 8401,
      "Ġasi": 8402,
      "ĠGracias": 8403,
      "EW": 8404,
      "Ġsmooth": 8405,
      "viles": 8406,
      "Ġfacilit": 8407,
      "Ġcircun": 8408,
      "Ã§": 8409,
      "MI": 8410,
      "ĠCy": 8411,
      "Ġfactores": 8412,
      "Ġreput": 8413,
      "Ġwindows": 8414,
      "Ġdescribed": 8415,
      "Ġdial": 8416,
      "Ġllamada": 8417,
      "ĠOR": 8418,
      "gers": 8419,
      "Ġsectores": 8420,
      "estic": 8421,
      "Ġlisted": 8422,
      "Ġsmaller": 8423,
      "OP": 8424,
      "Ġperiodo": 8425,
      "Ġoperating": 8426,
      "fficient": 8427,
      "bur": 8428,
      "BS": 8429,
      "ĠShop": 8430,
      "istan": 8431,
      "iendas": 8432,
      "Ġvision": 8433,
      "ĠvehÃŃculo": 8434,
      "ĠpodrÃŃan": 8435,
      "ĠPage": 8436,
      "ĠinformÃ³": 8437,
      "idential": 8438,
      "Ġcalles": 8439,
      "venir": 8440,
      "Ġbloque": 8441,
      "2014": 8442,
      "rucciÃ³n": 8443,
      "Ġpsych": 8444,
      "!!!!": 8445,
      "ĠCR": 8446,
      "ĠPerÃº": 8447,
      "Ġdepartment": 8448,
      "Ġshape": 8449,
      "Ġtask": 8450,
      "quiera": 8451,
      "Ġzap": 8452,
      "Ġfuentes": 8453,
      "Ġdando": 8454,
      "Ġasc": 8455,
      "Ġdibu": 8456,
      "Ġcuentas": 8457,
      "ÃŃsimo": 8458,
      "Ġagric": 8459,
      "Ġobstante": 8460,
      "Ġmajority": 8461,
      "Ġcontempl": 8462,
      "Ġnota": 8463,
      "Mi": 8464,
      "Ġfish": 8465,
      "Ġbrain": 8466,
      "ĠMir": 8467,
      "ĠList": 8468,
      "Ġpiezas": 8469,
      "Ġscore": 8470,
      "Ġflat": 8471,
      "Ġfen": 8472,
      "Ġpermitir": 8473,
      "Ġvisitors": 8474,
      "isp": 8475,
      "ĠEscu": 8476,
      "Ġtercera": 8477,
      "ĠFind": 8478,
      "97": 8479,
      "Ġassistance": 8480,
      "unning": 8481,
      "Ġvice": 8482,
      "ĠMaster": 8483,
      "Ã¡ncer": 8484,
      "oes": 8485,
      "Ġdicha": 8486,
      "Ġjefe": 8487,
      "ĠProm": 8488,
      "list": 8489,
      "rique": 8490,
      "prise": 8491,
      "Ġrepe": 8492,
      "Ġschedule": 8493,
      "Ġcoverage": 8494,
      "ĠFrancia": 8495,
      "Ġcraft": 8496,
      "uty": 8497,
      "Ġconvirt": 8498,
      "Ġposibles": 8499,
      "Ġplaced": 8500,
      "Ġiron": 8501,
      "Ġ37": 8502,
      "uchas": 8503,
      "Ġmenores": 8504,
      "rates": 8505,
      "rico": 8506,
      "ĠUniÃ³n": 8507,
      "villa": 8508,
      "ĠmÃŃnimo": 8509,
      "iende": 8510,
      "Ġaun": 8511,
      "ries": 8512,
      "Ġprofessionals": 8513,
      "Ġderro": 8514,
      "Ġwaste": 8515,
      "Ġcharacters": 8516,
      "Ġnov": 8517,
      "rera": 8518,
      "à¤": 8519,
      "Ġpassed": 8520,
      "Ġfuego": 8521,
      "Ġinaug": 8522,
      "Ġderecha": 8523,
      "Sal": 8524,
      "Ġpared": 8525,
      "html": 8526,
      "Ġarquitect": 8527,
      "Ġsomew": 8528,
      "ĠBecause": 8529,
      "ĠValencia": 8530,
      "Ġsala": 8531,
      "Ġhappens": 8532,
      "Ġmarkets": 8533,
      "umbre": 8534,
      "Ġlectura": 8535,
      "ĠCovid": 8536,
      "Ġarticles": 8537,
      "mÃ¡n": 8538,
      "Ġspring": 8539,
      "Ġtests": 8540,
      "ĠFamily": 8541,
      "ierta": 8542,
      "Ġargent": 8543,
      "xi": 8544,
      "Ġrecept": 8545,
      "Ġthus": 8546,
      "Ġmeant": 8547,
      "ĠAlthough": 8548,
      "ĠJorge": 8549,
      "Ġdispositivos": 8550,
      "Ġsurv": 8551,
      "ĠArm": 8552,
      "ĠWeek": 8553,
      "Ġwelcome": 8554,
      "Ġcompla": 8555,
      "AV": 8556,
      "Ġopinion": 8557,
      "ĠSeÃ±": 8558,
      "Ġcelebr": 8559,
      "âĢ¦.": 8560,
      "ĠLead": 8561,
      "ĠPolicy": 8562,
      "Ġfiesta": 8563,
      "Ġearth": 8564,
      "Ġbes": 8565,
      "ĠSpecial": 8566,
      "Ġoppos": 8567,
      "Ġresc": 8568,
      "Ġurban": 8569,
      "Ġactor": 8570,
      "Ġhu": 8571,
      "Ġpiedra": 8572,
      "EE": 8573,
      "ĠdejÃ³": 8574,
      "erÃ¡": 8575,
      "Ġlock": 8576,
      "Ġrespet": 8577,
      "Ġexplica": 8578,
      "ĠXX": 8579,
      "Ġacud": 8580,
      "ĠEngland": 8581,
      "ivia": 8582,
      "Ġcentury": 8583,
      "Ġtriun": 8584,
      "Ġpractices": 8585,
      "Ġincon": 8586,
      "Ġverde": 8587,
      "Ġenfermedades": 8588,
      "Ġconsidera": 8589,
      "ĠDI": 8590,
      "Ġequilib": 8591,
      "Ġminor": 8592,
      "entar": 8593,
      "ĠFOR": 8594,
      "Ġvacun": 8595,
      "ĠAng": 8596,
      "Ġtiendas": 8597,
      "Ġextraordin": 8598,
      "Ġrule": 8599,
      "Ġbought": 8600,
      "Ġcancel": 8601,
      "Ġoperaciones": 8602,
      "Ġbecomes": 8603,
      "adal": 8604,
      "ĠFull": 8605,
      "Ġtengan": 8606,
      "Ġore": 8607,
      "Ġappar": 8608,
      "tiquetas": 8609,
      "uraciÃ³n": 8610,
      "Ġsorprend": 8611,
      "rey": 8612,
      "Hoy": 8613,
      "Ġnumeros": 8614,
      "emon": 8615,
      "Ġterra": 8616,
      "Ġcommunities": 8617,
      "ĠJer": 8618,
      "Ġnames": 8619,
      "lands": 8620,
      "Ġbic": 8621,
      "Ġregal": 8622,
      "Ġfees": 8623,
      "Ġllegado": 8624,
      "Ġtrain": 8625,
      "Ġwire": 8626,
      "known": 8627,
      "Ġ02": 8628,
      "Ġdistance": 8629,
      "kin": 8630,
      "Ġtree": 8631,
      "inaria": 8632,
      "ĠSeries": 8633,
      "ĠYear": 8634,
      "Ġsession": 8635,
      "Ġsenior": 8636,
      "Ġpossibly": 8637,
      "Ġgarantizar": 8638,
      "Ġselling": 8639,
      "Ġocho": 8640,
      "ĠTim": 8641,
      "Ġespeciales": 8642,
      "ĠContact": 8643,
      "Ġbond": 8644,
      "Ġslot": 8645,
      "undos": 8646,
      "App": 8647,
      "ĠDeport": 8648,
      "Ġwinter": 8649,
      "ĠBrown": 8650,
      "ĠlÃŃneas": 8651,
      "Ġmini": 8652,
      "EX": 8653,
      "Ġencourag": 8654,
      "ĠTour": 8655,
      "ĠLeÃ³n": 8656,
      "eller": 8657,
      "cover": 8658,
      "ĠLoc": 8659,
      "Ġgrado": 8660,
      "ĠMerc": 8661,
      "ĠBon": 8662,
      "Ġcaused": 8663,
      "asis": 8664,
      "ĠSecurity": 8665,
      "ecuciÃ³n": 8666,
      "Ġconsigu": 8667,
      "ximos": 8668,
      "Ġmantenimiento": 8669,
      "ĠEstos": 8670,
      "Ġadvis": 8671,
      "Ġexpertos": 8672,
      "Ġobs": 8673,
      "lom": 8674,
      "ĠProvin": 8675,
      "Ġformat": 8676,
      "ĠGeorge": 8677,
      "Ġcompetencia": 8678,
      "Ġseparate": 8679,
      "Ġparties": 8680,
      "ĠBa": 8681,
      "Ġprincipalmente": 8682,
      "omic": 8683,
      "Ġengineering": 8684,
      "Ġfase": 8685,
      "Ġpurs": 8686,
      "Ġexpensive": 8687,
      "Ġpresupuesto": 8688,
      "ĠLocal": 8689,
      "Ġcalend": 8690,
      "ensiones": 8691,
      "sen": 8692,
      "Ġmaintenance": 8693,
      "Ġpeor": 8694,
      "Ġizquierda": 8695,
      "Ġsolicit": 8696,
      "Ã©rez": 8697,
      "duction": 8698,
      "ilding": 8699,
      "Ġcontinued": 8700,
      "Ġcumple": 8701,
      "Ġfill": 8702,
      "ĠLike": 8703,
      "Ġmission": 8704,
      "Ġpermiten": 8705,
      "Ġcosto": 8706,
      "ille": 8707,
      "Ġtemperature": 8708,
      "Ġpenal": 8709,
      "rich": 8710,
      "Ġmulti": 8711,
      "CD": 8712,
      "Ġposibilidades": 8713,
      "Ġtechniques": 8714,
      "onÃ³m": 8715,
      "ĠHuman": 8716,
      "Ġiniti": 8717,
      "Ġremains": 8718,
      "Ġattend": 8719,
      "Tod": 8720,
      "Ġescrito": 8721,
      "Ġvictoria": 8722,
      "racia": 8723,
      "Fi": 8724,
      "Ġknows": 8725,
      "ĠKen": 8726,
      "Ġdocumento": 8727,
      "Ġalcanzar": 8728,
      "ĠCommission": 8729,
      "aterial": 8730,
      "ĠWall": 8731,
      "Ġarchitect": 8732,
      "Em": 8733,
      "Ġmachines": 8734,
      "Durante": 8735,
      "ĠBor": 8736,
      "ICO": 8737,
      "ĠZap": 8738,
      "Ġcompetition": 8739,
      "ech": 8740,
      "Ġtempl": 8741,
      "iform": 8742,
      "ĠasegurÃ³": 8743,
      "She": 8744,
      "Ãļ": 8745,
      "itÃ©": 8746,
      "Ġdirecto": 8747,
      "ĠvÃŃdeo": 8748,
      "Ġapunt": 8749,
      "ests": 8750,
      "orking": 8751,
      "Ġavent": 8752,
      "Ġchain": 8753,
      "Ġsacar": 8754,
      "Ġselected": 8755,
      "Ġejempl": 8756,
      "Ġthousands": 8757,
      "Ġhorm": 8758,
      "Ġprocesses": 8759,
      "Ġfee": 8760,
      "Ġadding": 8761,
      "ĠÃ¡n": 8762,
      "ĠUnder": 8763,
      "Ġneighbor": 8764,
      "ĠpequeÃ±as": 8765,
      "uce": 8766,
      "Ġescenario": 8767,
      "Ġpassion": 8768,
      "Ġloans": 8769,
      "ĠPack": 8770,
      "abilities": 8771,
      "Ġstreet": 8772,
      "Ġfirma": 8773,
      "ĠGovernment": 8774,
      "Ġtard": 8775,
      "dr": 8776,
      "Ġsint": 8777,
      "Ġcasas": 8778,
      "ĠCall": 8779,
      "ENCI": 8780,
      "ĠdeberÃ¡": 8781,
      "agen": 8782,
      "Ġkid": 8783,
      "ĠfÃŃsica": 8784,
      "di": 8785,
      "teras": 8786,
      "Ġcoal": 8787,
      "Ġgolpe": 8788,
      "Ġcomunidades": 8789,
      "Ġidi": 8790,
      "Ġoperation": 8791,
      "Ġacum": 8792,
      "ĠcÃ¡mara": 8793,
      "Ġtamb": 8794,
      "venida": 8795,
      "Ġdedicated": 8796,
      "Ġofrecen": 8797,
      "Ġgirls": 8798,
      "aver": 8799,
      "Ġaccommod": 8800,
      "Ġdecisions": 8801,
      "Ġfinalmente": 8802,
      "PC": 8803,
      "ĠDespuÃ©s": 8804,
      "Ġexchange": 8805,
      "ĠinstalaciÃ³n": 8806,
      "ĠpÃ©rdida": 8807,
      "Ġdenunci": 8808,
      "ĠLook": 8809,
      "Ġidentify": 8810,
      "ÃŃrit": 8811,
      "Ġtrim": 8812,
      "gery": 8813,
      "Ġcomerciales": 8814,
      "don": 8815,
      "uana": 8816,
      "Ġmismas": 8817,
      "Ġproperly": 8818,
      "ĠDip": 8819,
      "Ġstrategies": 8820,
      "ĠJob": 8821,
      "Ġ04": 8822,
      "Ġvalu": 8823,
      "ĠcrÃ©dito": 8824,
      "Ġclosed": 8825,
      "Ahora": 8826,
      "Ġnetw": 8827,
      "Ġnoticia": 8828,
      "ifts": 8829,
      "pertura": 8830,
      "Ġdaughter": 8831,
      "ĠMem": 8832,
      "Ġsabemos": 8833,
      "ĠkilÃ³m": 8834,
      "Post": 8835,
      "Ġ03": 8836,
      "Ġcuarto": 8837,
      "FL": 8838,
      "reo": 8839,
      "ĠCosta": 8840,
      "Ġsouth": 8841,
      "Ġclaims": 8842,
      "ivar": 8843,
      "ĠEU": 8844,
      "Ġtemperatura": 8845,
      "ĠGR": 8846,
      "ĠSports": 8847,
      "Ġspending": 8848,
      "ambio": 8849,
      "Ġdiam": 8850,
      "Ġlengu": 8851,
      "Ġacog": 8852,
      "Ġevening": 8853,
      "Pued": 8854,
      "ĠoperaciÃ³n": 8855,
      "ecÃŃa": 8856,
      "Ġord": 8857,
      "ĠincreÃŃ": 8858,
      "Ġ05": 8859,
      "ĠrÃ¡pida": 8860,
      "Ġhicieron": 8861,
      "iden": 8862,
      "gins": 8863,
      "Ġdebt": 8864,
      "uyen": 8865,
      "rd": 8866,
      "Ġgusto": 8867,
      "Ġsede": 8868,
      "Ġconsecuencia": 8869,
      "Ġpersonaje": 8870,
      "ÃŃda": 8871,
      "Ġcontinues": 8872,
      "uit": 8873,
      "Press": 8874,
      "omy": 8875,
      "lamento": 8876,
      "ĠJusticia": 8877,
      "ĠEp": 8878,
      "Ġentrevista": 8879,
      "azz": 8880,
      "ĠGame": 8881,
      "ĠCasino": 8882,
      "ĠLit": 8883,
      "letas": 8884,
      "night": 8885,
      "Ġprospect": 8886,
      "Ġasesin": 8887,
      "verse": 8888,
      "PU": 8889,
      "ront": 8890,
      "Ġguid": 8891,
      "Ġpuertas": 8892,
      "with": 8893,
      "ucture": 8894,
      "olÃ³gicos": 8895,
      "aming": 8896,
      "aste": 8897,
      "Ġfamous": 8898,
      "ulture": 8899,
      "Ġguy": 8900,
      "crimin": 8901,
      "esome": 8902,
      "Ġrequer": 8903,
      "Ġllegada": 8904,
      "Ġ34": 8905,
      "standing": 8906,
      "ĠChicago": 8907,
      "Ġlejos": 8908,
      "Ġcontexto": 8909,
      "Ġbater": 8910,
      "ĠLED": 8911,
      "ĠNOT": 8912,
      "Ġdign": 8913,
      "Ġfigura": 8914,
      "Ġvincul": 8915,
      "Ġdomic": 8916,
      "icol": 8917,
      "Ġprost": 8918,
      "ĠIde": 8919,
      "Ġextend": 8920,
      "ĠObama": 8921,
      "Ġtej": 8922,
      "Some": 8923,
      "Ġleadership": 8924,
      "Ġpend": 8925,
      "crit": 8926,
      "pal": 8927,
      "Ġunidades": 8928,
      "Ġcombat": 8929,
      "ĠSta": 8930,
      "Ġupgr": 8931,
      "Ġsport": 8932,
      "Ġworry": 8933,
      "Ġcorte": 8934,
      "Ġbecoming": 8935,
      "ĠmÃºlt": 8936,
      "ĠBlo": 8937,
      "Ġ2002": 8938,
      "Ġcomponents": 8939,
      "ĠNorte": 8940,
      "andom": 8941,
      "ste": 8942,
      "Ġaumentar": 8943,
      "ĠPos": 8944,
      "ĠrealizÃ³": 8945,
      "ĠFernando": 8946,
      "Ġconference": 8947,
      "Ġox": 8948,
      "Ġescuchar": 8949,
      "Ġrode": 8950,
      "Ġactions": 8951,
      "Red": 8952,
      "Ġsiguen": 8953,
      "aturas": 8954,
      "Ġcriter": 8955,
      "Ġpedido": 8956,
      "andro": 8957,
      "Ġfelic": 8958,
      "ĠJournal": 8959,
      "Inst": 8960,
      "Ġfantastic": 8961,
      "uble": 8962,
      "Ġsuperficie": 8963,
      "Ġdeporte": 8964,
      "Ġcombination": 8965,
      "ĠPresidente": 8966,
      "outher": 8967,
      "Ġtort": 8968,
      "Ġshowed": 8969,
      "ĠCN": 8970,
      "Ġsounds": 8971,
      "Ġrect": 8972,
      "Ġvir": 8973,
      "Ġcarb": 8974,
      "ĠCert": 8975,
      "Ġnegative": 8976,
      "ĠelecciÃ³n": 8977,
      "icken": 8978,
      "ĠHead": 8979,
      "ĠRobert": 8980,
      "From": 8981,
      "ĠPOR": 8982,
      "VER": 8983,
      "AND": 8984,
      "Ġrelationships": 8985,
      "Ġasign": 8986,
      "Ġagreement": 8987,
      "uses": 8988,
      "Ġclearly": 8989,
      "Ġcita": 8990,
      "Ġestuv": 8991,
      "=\"": 8992,
      "hern": 8993,
      "Ġforget": 8994,
      "Ġregistro": 8995,
      "Ġdieta": 8996,
      "ĠFrank": 8997,
      "iples": 8998,
      "Ġadvent": 8999,
      "Ġinicial": 9000,
      "Ġrecords": 9001,
      "iminal": 9002,
      "Vi": 9003,
      "Ġlarga": 9004,
      "Ġhubo": 9005,
      "Ġconstitu": 9006,
      "iÃ¡n": 9007,
      "Ġmantiene": 9008,
      "Ġplastic": 9009,
      "Just": 9010,
      "Ġlimpieza": 9011,
      "Ġchanging": 9012,
      "igar": 9013,
      "otal": 9014,
      "iki": 9015,
      "Ġ2001": 9016,
      "Ġedificio": 9017,
      "ĠEstud": 9018,
      "ĠIglesia": 9019,
      "izon": 9020,
      "Ġteachers": 9021,
      "Ġcement": 9022,
      "Ġpray": 9023,
      "Ġhubiera": 9024,
      "going": 9025,
      "Ġsola": 9026,
      "Ġoportunidades": 9027,
      "Ġpolicies": 9028,
      "Ġsuele": 9029,
      "rupciÃ³n": 9030,
      "ĠValley": 9031,
      "ĠMS": 9032,
      "abel": 9033,
      "Ġaprendizaje": 9034,
      "300": 9035,
      "Ġtum": 9036,
      "Ġleads": 9037,
      "ady": 9038,
      "ĠLor": 9039,
      "Ġbarrio": 9040,
      "cient": 9041,
      "Why": 9042,
      "Ġruns": 9043,
      "but": 9044,
      "ĠWomen": 9045,
      "Ġestad": 9046,
      "Ġempleados": 9047,
      "Ġcuya": 9048,
      "ĠAmeric": 9049,
      "Ãł": 9050,
      "Ġpresence": 9051,
      "yos": 9052,
      "ĠOld": 9053,
      "ĠDa": 9054,
      "Ste": 9055,
      "ĠIts": 9056,
      "Ġminimum": 9057,
      "Ġmecan": 9058,
      "remo": 9059,
      "ĠprÃ³xima": 9060,
      "hab": 9061,
      "amas": 9062,
      "ĠStart": 9063,
      "ĠBitcoin": 9064,
      "ĠCup": 9065,
      "mites": 9066,
      "Ġconocimientos": 9067,
      "Ġchemical": 9068,
      "ucÃŃa": 9069,
      "ĠEso": 9070,
      "ÑĤ": 9071,
      "ificial": 9072,
      "Ġsalt": 9073,
      "Ġgrant": 9074,
      "ÃŃnez": 9075,
      "Book": 9076,
      "Ġpremium": 9077,
      "ĠquedÃ³": 9078,
      "ĠPÃ©rez": 9079,
      "ĠNY": 9080,
      "Ġfot": 9081,
      "Ġaparece": 9082,
      "ouch": 9083,
      "Ġinstr": 9084,
      "ĠBanco": 9085,
      "Pod": 9086,
      "Ġjusto": 9087,
      "Ġfunctions": 9088,
      "ĠExt": 9089,
      "ĠGen": 9090,
      "Ġtalent": 9091,
      "Ġfurniture": 9092,
      "PL": 9093,
      "ĠMedical": 9094,
      "unting": 9095,
      "zen": 9096,
      "Ġganas": 9097,
      "Ġconstruir": 9098,
      "Ġdesempe": 9099,
      "Ġotherwise": 9100,
      "Ġdiss": 9101,
      "Ġexperiencias": 9102,
      "Ġhija": 9103,
      "Ġtoward": 9104,
      "Ġmostr": 9105,
      "Ġpackage": 9106,
      "ĠLO": 9107,
      "ÃŃtulos": 9108,
      "ĠMartin": 9109,
      "Ġcolors": 9110,
      "Ġapplied": 9111,
      "Ag": 9112,
      "Ġpropias": 9113,
      "rases": 9114,
      "ĠPA": 9115,
      "Ġprofile": 9116,
      "Ġfuerzas": 9117,
      "edom": 9118,
      "ĠhabitaciÃ³n": 9119,
      "Ġexplore": 9120,
      "Ġtraslad": 9121,
      "EA": 9122,
      "mes": 9123,
      "ĠWatch": 9124,
      "Ġcorporate": 9125,
      "ibli": 9126,
      "arlos": 9127,
      "Ġexcited": 9128,
      "Ġbehavior": 9129,
      "Ġfocused": 9130,
      "leza": 9131,
      "Ġapproxim": 9132,
      "Ġdocuments": 9133,
      "ĠprÃ¡cticas": 9134,
      "Ġplaya": 9135,
      "Ġshowing": 9136,
      "Ġ00": 9137,
      "ĠHern": 9138,
      "amsung": 9139,
      "rency": 9140,
      "Ġappears": 9141,
      "Ġrelacionados": 9142,
      "Ġ39": 9143,
      "Ġperfil": 9144,
      "clos": 9145,
      "Ġsencillo": 9146,
      "Ġpec": 9147,
      "orld": 9148,
      "Ġequival": 9149,
      "ĠVan": 9150,
      "ĠEss": 9151,
      "Ġresidents": 9152,
      "Ġcategory": 9153,
      "ĠexposiciÃ³n": 9154,
      "Ġparking": 9155,
      "Ġdiscussion": 9156,
      "ĠFundaciÃ³n": 9157,
      "Tras": 9158,
      "outhern": 9159,
      "idencia": 9160,
      "Ġproud": 9161,
      "Ġfondos": 9162,
      "Ġwest": 9163,
      "dico": 9164,
      "acto": 9165,
      "cm": 9166,
      "Ġwilling": 9167,
      "Ġbright": 9168,
      "orea": 9169,
      "Ġguests": 9170,
      "ĠpublicaciÃ³n": 9171,
      "Ġdeals": 9172,
      "Ġdesk": 9173,
      "Ġpotencial": 9174,
      "Ġrued": 9175,
      "essions": 9176,
      "Ġrecommended": 9177,
      "Ġconm": 9178,
      "zado": 9179,
      "Ġice": 9180,
      "cib": 9181,
      "ĠHen": 9182,
      "Ġtotally": 9183,
      "ĠEnv": 9184,
      "ĠCommit": 9185,
      "Ġses": 9186,
      "aries": 9187,
      "Ġasum": 9188,
      "Ġabord": 9189,
      "Ġsympt": 9190,
      "ĠMunicipal": 9191,
      "cape": 9192,
      "Ġconcerns": 9193,
      "Ġbeauty": 9194,
      "ician": 9195,
      "ĠjurÃŃd": 9196,
      "Ġrespeto": 9197,
      "quez": 9198,
      "Ġcritic": 9199,
      "life": 9200,
      "Ġsnow": 9201,
      "ĠMess": 9202,
      "Ġresolver": 9203,
      "Ġsets": 9204,
      "ĠSalv": 9205,
      "Ġmere": 9206,
      "Final": 9207,
      "Ġarchivos": 9208,
      "ueblos": 9209,
      "isher": 9210,
      "Ġben": 9211,
      "ĠmÃ©todo": 9212,
      "ĠStand": 9213,
      "yan": 9214,
      "Ġopened": 9215,
      "Ġvuelve": 9216,
      "eline": 9217,
      "Nos": 9218,
      "Ġadultos": 9219,
      "ĠOfic": 9220,
      "Ġcualquiera": 9221,
      "Ġintegral": 9222,
      "ĠsÃŃnt": 9223,
      "ENTE": 9224,
      "tonces": 9225,
      "ÃŃodo": 9226,
      "Ġenjoyed": 9227,
      "Sub": 9228,
      "ĠharÃ¡": 9229,
      "rog": 9230,
      "Ġtheme": 9231,
      "Ġrazones": 9232,
      "Ġcitiz": 9233,
      "Ġteacher": 9234,
      "Ġfich": 9235,
      "Ġfunding": 9236,
      "Ġbathroom": 9237,
      "Ġatract": 9238,
      "Ġpreviously": 9239,
      "neo": 9240,
      "Ġescap": 9241,
      "Ġcontamin": 9242,
      "Ġgun": 9243,
      "Ġentreg": 9244,
      "ÃįA": 9245,
      "ĠYes": 9246,
      "Ġesqu": 9247,
      "BO": 9248,
      "ÃŃz": 9249,
      "ĠconexiÃ³n": 9250,
      "Ġsolamente": 9251,
      "Ġsugar": 9252,
      "roy": 9253,
      "ĠFar": 9254,
      "ĠSegÃºn": 9255,
      "reek": 9256,
      "PM": 9257,
      "ĠmÃ¡xima": 9258,
      "Ġclassic": 9259,
      "Ġabierto": 9260,
      "entic": 9261,
      "ĠMos": 9262,
      "Ġinjury": 9263,
      "Ġsuspend": 9264,
      "Ġupdated": 9265,
      "Che": 9266,
      "Ġfacult": 9267,
      "ĠUSB": 9268,
      "Ġescuch": 9269,
      "eler": 9270,
      "Ġmeasures": 9271,
      "Ġadvertising": 9272,
      "Ġunits": 9273,
      "inch": 9274,
      "Ġdorm": 9275,
      "ĠSpa": 9276,
      "Ġjournal": 9277,
      "ĠPersonal": 9278,
      "Ġminute": 9279,
      "Ġurb": 9280,
      "Ġstarts": 9281,
      "cÃ³": 9282,
      "ĠPeter": 9283,
      "Ġacid": 9284,
      "Ġbacter": 9285,
      "Ġstars": 9286,
      "2011": 9287,
      "Ã¨": 9288,
      "Ġfle": 9289,
      "Ġdeposit": 9290,
      "ĠAdv": 9291,
      "ĠcompaÃ±eros": 9292,
      "ĠDar": 9293,
      "Ġwatching": 9294,
      "Ġproducir": 9295,
      "onomÃŃa": 9296,
      "Ġleaving": 9297,
      "Ġdespite": 9298,
      "Ġtarjeta": 9299,
      "Ġscale": 9300,
      "Ġpremio": 9301,
      "ĠCapital": 9302,
      "Ġwine": 9303,
      "ĠpasÃ³": 9304,
      "ĠTheir": 9305,
      "Contact": 9306,
      "ĠHand": 9307,
      "Ġvacaciones": 9308,
      "ĠWrit": 9309,
      "Ġlaun": 9310,
      "ezol": 9311,
      "Ġadvance": 9312,
      "Ġusa": 9313,
      "ĠhabrÃŃa": 9314,
      "Ġpais": 9315,
      "town": 9316,
      "Ġbeat": 9317,
      "Ġmedium": 9318,
      "BL": 9319,
      "rees": 9320,
      "ĠpolicÃŃa": 9321,
      "orney": 9322,
      "Ġfantas": 9323,
      "Ġprovider": 9324,
      "Apr": 9325,
      "Ġcarta": 9326,
      "ĠSearch": 9327,
      "ĠIII": 9328,
      "Ġnormas": 9329,
      "Ġproven": 9330,
      "ĠTwo": 9331,
      "uar": 9332,
      "ĠLabor": 9333,
      "ificaciones": 9334,
      "Ġcircunst": 9335,
      "burg": 9336,
      "Ġinspect": 9337,
      "Del": 9338,
      "Ġartes": 9339,
      "Ġspect": 9340,
      "agement": 9341,
      "Ġsupone": 9342,
      "Ã±ar": 9343,
      "Gracias": 9344,
      "cell": 9345,
      "ati": 9346,
      "Ġciencia": 9347,
      "Ġwinning": 9348,
      "outs": 9349,
      "ĠhÃ¡b": 9350,
      "Ġcasinos": 9351,
      "jado": 9352,
      "Pres": 9353,
      "cean": 9354,
      "Ġaccompl": 9355,
      "ĠLast": 9356,
      "ĠDise": 9357,
      "Ġputting": 9358,
      "Ġsecund": 9359,
      "ĠExpl": 9360,
      "ĠVirgin": 9361,
      "ĠComple": 9362,
      "Ġconsumers": 9363,
      "ĠresoluciÃ³n": 9364,
      "Ġcadena": 9365,
      "ileg": 9366,
      "ĠScott": 9367,
      "Ġalumin": 9368,
      "uality": 9369,
      "Ġprotocol": 9370,
      "63": 9371,
      "Ġgeneration": 9372,
      "Ġazul": 9373,
      "Ġcircum": 9374,
      "Ġresistencia": 9375,
      "ĠFoundation": 9376,
      "Ġaproximadamente": 9377,
      "Ġfestival": 9378,
      "Ġtough": 9379,
      "ĠAT": 9380,
[...]
